<pad>	0
<unk>	0
<s>	0
</s>	0
in	-0
▁a	-1
▁t	-2
re	-3
ti	-4
on	-5
he	-6
en	-7
▁o	-8
er	-9
al	-10
▁s	-11
▁c	-12
▁p	-13
es	-14
is	-15
▁of	-16
▁an	-17
▁in	-18
▁the	-19
or	-20
ed	-21
▁w	-22
at	-23
it	-24
ati	-25
▁d	-26
▁m	-27
ic	-28
an	-29
ro	-30
▁and	-31
as	-32
ar	-33
ent	-34
▁f	-35
▁b	-36
ing	-37
ec	-38
us	-39
os	-40
om	-41
▁re	-42
ve	-43
ul	-44
▁(	-45
▁h	-46
▁T	-47
▁to	-48
ation	-49
ac	-50
le	-51
ly	-52
ur	-53
▁e	-54
ith	-55
et	-56
tion	-57
▁n	-58
▁with	-59
lo	-60
ho	-61
▁is	-62
ter	-63
id	-64
▁C	-65
un	-66
ents	-67
▁g	-68
▁1	-69
ut	-70
▁2	-71
il	-72
▁st	-73
ia	-74
im	-75
▁l	-76
ra	-77
▁th	-78
▁pati	-79
▁The	-80
ig	-81
▁A	-82
ts	-83
ol	-84
ce	-85
▁for	-86
▁or	-87
▁patients	-88
▁S	-89
um	-90
ver	-91
ment	-92
▁P	-93
▁M	-94
tic	-95
ge	-96
▁I	-97
op	-98
ud	-99
ion	-100
od	-101
ical	-102
ate	-103
ere	-104
ot	-105
▁be	-106
uc	-107
▁con	-108
▁H	-109
▁v	-110
if	-111
ity	-112
st	-113
ure	-114
▁was	-115
▁pro	-116
▁r	-117
el	-118
ay	-119
am	-120
ir	-121
▁com	-122
▁on	-123
rom	-124
▁dis	-125
▁res	-126
up	-127
reat	-128
▁at	-129
▁R	-130
▁are	-131
em	-132
▁D	-133
th	-134
▁pre	-135
▁he	-136
ss	-137
tive	-138
▁3	-139
fec	-140
▁ch	-141
ess	-142
cl	-143
ri	-144
▁ac	-145
oc	-146
).	-147
qu	-148
yp	-149
▁ha	-150
ated	-151
ary	-152
ep	-153
▁were	-154
▁-	-155
ine	-156
▁ex	-157
ase	-158
0.	-159
▁us	-160
der	-161
▁treat	-162
▁B	-163
▁by	-164
her	-165
ab	-166
gn	-167
▁20	-168
ted	-169
▁E	-170
▁can	-171
▁stud	-172
ital	-173
▁ca	-174
pl	-175
ant	-176
▁al	-177
ore	-178
ain	-179
di	-180
osp	-181
est	-182
▁O	-183
ear	-184
ren	-185
hy	-186
ds	-187
▁4	-188
▁as	-189
ug	-190
act	-191
▁from	-192
▁5	-193
ost	-194
mon	-195
age	-196
pec	-197
osis	-198
ults	-199
▁sy	-200
igh	-201
low	-202
▁/	-203
),	-204
▁In	-205
▁im	-206
ospital	-207
▁le	-208
▁N	-209
tr	-210
▁de	-211
se	-212
ial	-213
▁per	-214
mp	-215
▁that	-216
▁6	-217
ations	-218
tom	-219
val	-220
iti	-221
ous	-222
ub	-223
ular	-224
▁sho	-225
ors	-226
▁sur	-227
▁study	-228
▁af	-229
▁treatment	-230
rap	-231
ens	-232
oun	-233
▁may	-234
▁ab	-235
log	-236
▁ne	-237
ign	-238
▁un	-239
▁ad	-240
▁cl	-241
ases	-242
▁F	-243
▁gro	-244
iz	-245
▁dia	-246
ally	-247
ow	-248
▁L	-249
▁se	-250
orm	-251
00	-252
ad	-253
ist	-254
etho	-255
ast	-256
▁V	-257
usion	-258
ild	-259
duc	-260
ran	-261
ome	-262
ven	-263
end	-264
cre	-265
ell	-266
▁y	-267
jec	-268
ag	-269
ies	-270
▁dise	-271
▁group	-272
▁have	-273
▁k	-274
ort	-275
▁not	-276
▁Res	-277
ue	-278
ip	-279
▁ef	-280
▁caus	-281
▁7	-282
ap	-283
ch	-284
▁after	-285
ific	-286
▁Con	-287
▁G	-288
inical	-289
▁K	-290
ys	-291
▁8	-292
ger	-293
▁9	-294
one	-295
ative	-296
ose	-297
▁cont	-298
▁comp	-299
cer	-300
ence	-301
ne	-302
clud	-303
ory	-304
ib	-305
▁rec	-306
ult	-307
▁hyp	-308
%,	-309
▁hospital	-310
▁wh	-311
fic	-312
ress	-313
cy	-314
▁rate	-315
per	-316
mptom	-317
▁disease	-318
clusion	-319
out	-320
ther	-321
▁int	-322
art	-323
ildren	-324
uld	-325
inal	-326
▁infec	-327
ie	-328
▁inf	-329
▁Th	-330
og	-331
ill	-332
olog	-333
▁0.	-334
▁ap	-335
▁effec	-336
▁includ	-337
▁year	-338
acter	-339
▁anti	-340
▁blo	-341
ased	-342
gnosis	-343
▁cases	-344
▁bet	-345
we	-346
▁we	-347
ves	-348
▁sc	-349
▁than	-350
pro	-351
our	-352
▁mon	-353
1.	-354
▁cor	-355
eg	-356
▁U	-357
▁rel	-358
red	-359
ance	-360
▁car	-361
ight	-362
▁ar	-363
▁sign	-364
isk	-365
▁ass	-366
▁W	-367
ich	-368
▁tim	-369
ong	-370
enti	-371
valu	-372
▁fact	-373
vel	-374
▁man	-375
able	-376
▁Conclusion	-377
gery	-378
iver	-379
tions	-380
ak	-381
ive	-382
ers	-383
%.	-384
▁incre	-385
▁med	-386
hen	-387
▁me	-388
tional	-389
▁acc	-390
ros	-391
all	-392
▁clinical	-393
▁±	-394
▁201	-395
ric	-396
ute	-397
▁should	-398
▁inter	-399
▁children	-400
▁Results	-401
and	-402
mptoms	-403
▁results	-404
▁pl	-405
ide	-406
ass	-407
▁common	-408
▁had	-409
▁blood	-410
ron	-411
cc	-412
rug	-413
▁risk	-414
▁high	-415
▁level	-416
2.	-417
▁surgery	-418
▁gen	-419
▁dif	-420
▁age	-421
▁day	-422
te	-423
iet	-424
▁years	-425
rans	-426
dic	-427
▁which	-428
▁low	-429
ater	-430
erm	-431
▁most	-432
▁par	-433
5%	-434
▁metho	-435
ey	-436
▁sp	-437
ween	-438
plic	-439
▁has	-440
unc	-441
▁but	-442
cop	-443
▁det	-444
order	-445
tis	-446
ures	-447
▁who	-448
▁between	-449
ll	-450
tics	-451
▁ob	-452
fere	-453
▁factors	-454
▁pos	-455
▁cancer	-456
▁fe	-457
▁Key	-458
3.	-459
▁0	-460
▁it	-461
▁Ob	-462
ied	-463
▁out	-464
gen	-465
nd	-466
alth	-467
oid	-468
▁occ	-469
▁other	-470
rapy	-471
▁Hospital	-472
▁some	-473
itis	-474
ding	-475
▁drug	-476
mun	-477
▁more	-478
▁typ	-479
▁month	-480
ality	-481
▁patient	-482
feren	-483
tal	-484
ail	-485
amin	-486
tim	-487
▁pr	-488
atic	-489
▁used	-490
ood	-491
▁ser	-492
▁trans	-493
ple	-494
5.	-495
ang	-496
esc	-497
▁evalu	-498
rop	-499
20	-500
so	-501
pective	-502
▁ra	-503
▁10	-504
▁(1	-505
▁disorder	-506
ten	-507
▁time	-508
ral	-509
ugh	-510
%)	-511
use	-512
▁dur	-513
ting	-514
▁qu	-515
▁po	-516
▁suc	-517
▁cell	-518
atory	-519
▁this	-520
▁hyper	-521
▁mal	-522
ually	-523
▁co	-524
▁signific	-525
▁To	-526
▁Ch	-527
▁fol	-528
▁sub	-529
nal	-530
▁Objec	-531
6.	-532
▁hem	-533
▁hig	-534
ormal	-535
ved	-536
▁also	-537
▁pres	-538
▁Metho	-539
ack	-540
oma	-541
▁pain	-542
▁no	-543
▁symptoms	-544
▁There	-545
▁cons	-546
▁under	-547
rain	-548
ach	-549
▁significant	-550
▁Pati	-551
ech	-552
iew	-553
4.	-554
ire	-555
ords	-556
▁infection	-557
ien	-558
7.	-559
▁en	-560
▁over	-561
8.	-562
aracter	-563
▁resp	-564
▁health	-565
%),	-566
vere	-567
hem	-568
▁show	-569
▁tum	-570
ber	-571
▁dec	-572
▁<	-573
cess	-574
af	-575
▁fl	-576
vi	-577
ating	-578
▁spec	-579
▁follow	-580
▁min	-581
ology	-582
cent	-583
port	-584
▁months	-585
▁dep	-586
▁cause	-587
cin	-588
iss	-589
lop	-590
ving	-591
▁occur	-592
▁J	-593
ound	-594
▁test	-595
▁ag	-596
omen	-597
de	-598
▁complic	-599
ruc	-600
oci	-601
▁col	-602
▁use	-603
ause	-604
ndrom	-605
▁val	-606
▁differen	-607
escri	-608
▁using	-609
▁1.	-610
▁end	-611
▁Keyw	-612
▁lo	-613
por	-614
io	-615
▁character	-616
now	-617
gnos	-618
▁severe	-619
▁acute	-620
tiv	-621
▁sup	-622
ld	-623
▁need	-624
▁202	-625
fore	-626
▁met	-627
ke	-628
ace	-629
ronic	-630
form	-631
rol	-632
▁tr	-633
▁all	-634
are	-635
ect	-636
ates	-637
▁St	-638
▁diagnosis	-639
9.	-640
ograp	-641
▁arter	-642
▁reg	-643
▁during	-644
kin	-645
eop	-646
▁bec	-647
ces	-648
▁syndrom	-649
cular	-650
ced	-651
itive	-652
ities	-653
ium	-654
vention	-655
ft	-656
▁been	-657
oper	-658
velop	-659
▁non	-660
ever	-661
▁ro	-662
▁An	-663
▁when	-664
ual	-665
%).	-666
ized	-667
▁Keywords	-668
▁post	-669
▁about	-670
ism	-671
▁This	-672
bin	-673
inh	-674
▁care	-675
▁el	-676
▁anal	-677
▁do	-678
unction	-679
▁if	-680
mo	-681
und	-682
ility	-683
hes	-684
▁antib	-685
▁prov	-686
emia	-687
stem	-688
▁usually	-689
hol	-690
▁therapy	-691
▁women	-692
▁higher	-693
oth	-694
ung	-695
▁ins	-696
▁develop	-697
ile	-698
▁method	-699
ph	-700
▁syndrome	-701
ness	-702
tens	-703
ck	-704
nam	-705
very	-706
ions	-707
▁Treat	-708
▁there	-709
▁Re	-710
ardi	-711
ross	-712
tomy	-713
▁wor	-714
▁characteris	-715
ard	-716
sy	-717
▁=	-718
▁treated	-719
copic	-720
▁descri	-721
▁sec	-722
ai	-723
vas	-724
▁Viet	-725
ian	-726
ale	-727
▁up	-728
ath	-729
▁such	-730
▁chronic	-731
▁include	-732
ite	-733
hys	-734
▁mean	-735
▁one	-736
mong	-737
▁12	-738
▁j	-739
verage	-740
ression	-741
▁Methods	-742
▁days	-743
▁associ	-744
ior	-745
ax	-746
ree	-747
▁op	-748
eople	-749
int	-750
▁diab	-751
ek	-752
ct	-753
operative	-754
owever	-755
▁Dia	-756
▁know	-757
jur	-758
▁requ	-759
▁impro	-760
▁es	-761
▁gra	-762
▁diagnos	-763
ful	-764
ni	-765
▁Treatment	-766
▁often	-767
gical	-768
ond	-769
view	-770
▁result	-771
▁system	-772
▁(2	-773
▁cardi	-774
▁ul	-775
com	-776
▁Patients	-777
arly	-778
eral	-779
irst	-780
▁gl	-781
▁increased	-782
▁mod	-783
▁mg	-784
atis	-785
urren	-786
▁fail	-787
▁Med	-788
▁Un	-789
ivers	-790
uid	-791
ography	-792
▁corre	-793
▁decre	-794
▁2.	-795
▁due	-796
led	-797
ysis	-798
ody	-799
tain	-800
▁complications	-801
▁les	-802
▁hour	-803
ening	-804
▁characteristics	-805
▁tw	-806
etes	-807
▁pul	-808
▁injur	-809
earch	-810
▁app	-811
▁drugs	-812
ection	-813
round	-814
▁mus	-815
ulation	-816
▁hel	-817
▁people	-818
oph	-819
ane	-820
ational	-821
▁levels	-822
▁first	-823
▁assess	-824
ants	-825
▁ur	-826
▁determ	-827
▁Sy	-828
0.0	-829
erv	-830
utri	-831
▁before	-832
▁mm	-833
▁so	-834
ization	-835
▁200	-836
pos	-837
▁control	-838
▁hist	-839
▁indic	-840
▁sh	-841
▁disorders	-842
ry	-843
▁nec	-844
▁week	-845
▁3.	-846
hest	-847
struc	-848
▁their	-849
▁Com	-850
lation	-851
▁tech	-852
▁fem	-853
▁ph	-854
▁related	-855
▁sam	-856
monary	-857
▁accoun	-858
eding	-859
▁main	-860
▁id	-861
tives	-862
▁pregn	-863
▁hep	-864
▁among	-865
atho	-866
ma	-867
pectively	-868
▁help	-869
trac	-870
▁type	-871
▁ep	-872
▁press	-873
▁because	-874
▁failure	-875
▁activ	-876
ges	-877
▁lower	-878
tric	-879
▁average	-880
▁ly	-881
▁present	-882
▁heart	-883
ficien	-884
▁Cl	-885
ledge	-886
▁>	-887
ob	-888
0%	-889
▁including	-890
▁medical	-891
▁examin	-892
tit	-893
ise	-894
▁cross	-895
ice	-896
▁tra	-897
▁meas	-898
▁Vietnam	-899
▁saf	-900
▁these	-901
▁dys	-902
ments	-903
iod	-904
▁inc	-905
ox	-906
▁only	-907
▁causes	-908
cep	-909
▁my	-910
artment	-911
dom	-912
ically	-913
res	-914
▁normal	-915
acy	-916
▁reduc	-917
▁pressure	-918
oss	-919
▁associated	-920
▁effective	-921
ms	-922
201	-923
iversity	-924
enter	-925
lam	-926
roid	-927
▁affec	-928
asis	-929
▁evaluate	-930
neum	-931
▁hours	-932
▁partic	-933
▁score	-934
▁diabetes	-935
vid	-936
▁lymp	-937
▁immun	-938
sec	-939
▁cy	-940
▁However	-941
▁respectively	-942
▁two	-943
▁old	-944
▁skin	-945
ble	-946
ficiency	-947
atus	-948
▁case	-949
▁var	-950
▁(3	-951
▁effects	-952
▁Diagnosis	-953
valence	-954
niqu	-955
ible	-956
med	-957
▁li	-958
▁100	-959
ulti	-960
▁surgical	-961
vent	-962
etic	-963
omy	-964
▁Objective	-965
ared	-966
▁am	-967
▁without	-968
ectomy	-969
▁loc	-970
▁tumor	-971
▁combin	-972
ackg	-973
vol	-974
▁Objectives	-975
▁sens	-976
▁ret	-977
centr	-978
king	-979
▁comple	-980
ons	-981
▁fin	-982
ural	-983
▁good	-984
▁prac	-985
▁identi	-986
ortality	-987
ize	-988
tension	-989
▁num	-990
rit	-991
▁15	-992
mer	-993
yl	-994
▁tes	-995
aneous	-996
▁methods	-997
▁techniqu	-998
ered	-999
▁early	-1000
ackground	-1001
▁appro	-1002
fer	-1003
gan	-1004
▁concentr	-1005
▁antibio	-1006
sectional	-1007
▁If	-1008
▁oper	-1009
urrent	-1010
▁prim	-1011
▁fr	-1012
arge	-1013
ints	-1014
▁they	-1015
..	-1016
eph	-1017
▁renal	-1018
▁CT	-1019
ected	-1020
alc	-1021
▁knowledge	-1022
▁serum	-1023
▁Background	-1024
mia	-1025
▁lif	-1026
▁groups	-1027
▁bi	-1028
▁into	-1029
▁liver	-1030
aging	-1031
▁30	-1032
ious	-1033
athy	-1034
▁sim	-1035
▁function	-1036
▁II	-1037
▁many	-1038
ture	-1039
iratory	-1040
arm	-1041
terior	-1042
▁mortality	-1043
▁prog	-1044
▁perform	-1045
▁artery	-1046
▁done	-1047
▁pneum	-1048
▁conduc	-1049
▁lesions	-1050
▁less	-1051
ancy	-1052
tras	-1053
-1	-1054
▁status	-1055
requ	-1056
atitis	-1057
ef	-1058
▁radi	-1059
▁showed	-1060
▁produc	-1061
uro	-1062
▁av	-1063
▁coun	-1064
▁proced	-1065
orr	-1066
▁pulmonary	-1067
▁specific	-1068
▁diseases	-1069
▁positive	-1070
▁ma	-1071
▁phys	-1072
be	-1073
erc	-1074
▁ed	-1075
▁sep	-1076
ID	-1077
▁cells	-1078
▁those	-1079
▁thro	-1080
▁Ph	-1081
▁invol	-1082
▁medic	-1083
▁well	-1084
ake	-1085
▁sm	-1086
▁di	-1087
▁gi	-1088
vis	-1089
olic	-1090
▁mar	-1091
normal	-1092
▁loss	-1093
▁Conclusions	-1094
hed	-1095
idne	-1096
▁prevalence	-1097
ition	-1098
▁identif	-1099
ange	-1100
RI	-1101
3%	-1102
▁sug	-1103
▁We	-1104
jects	-1105
vir	-1106
▁both	-1107
▁sus	-1108
entral	-1109
▁(4	-1110
ince	-1111
vascular	-1112
▁weeks	-1113
▁intervention	-1114
ording	-1115
▁bacter	-1116
▁University	-1117
▁Pre	-1118
ily	-1119
ins	-1120
▁tiss	-1121
▁period	-1122
ages	-1123
▁For	-1124
fusion	-1125
action	-1126
tig	-1127
til	-1128
ptive	-1129
▁dist	-1130
▁total	-1131
lamm	-1132
▁number	-1133
apa	-1134
▁[	-1135
rib	-1136
other	-1137
▁food	-1138
▁injury	-1139
ove	-1140
▁0.0	-1141
▁resist	-1142
▁quality	-1143
uf	-1144
▁imp	-1145
▁require	-1146
ially	-1147
▁24	-1148
▁It	-1149
▁del	-1150
▁tub	-1151
▁lung	-1152
erg	-1153
▁tumors	-1154
othe	-1155
▁adm	-1156
onia	-1157
▁based	-1158
▁Sub	-1159
▁lim	-1160
▁dose	-1161
▁vir	-1162
▁red	-1163
times	-1164
ocy	-1165
▁examination	-1166
▁caused	-1167
▁bre	-1168
roscopic	-1169
its	-1170
7%	-1171
▁research	-1172
▁life	-1173
sis	-1174
▁hypertension	-1175
vity	-1176
▁inh	-1177
▁class	-1178
▁ble	-1179
▁11	-1180
▁intra	-1181
▁ext	-1182
▁times	-1183
▁sel	-1184
▁long	-1185
▁multi	-1186
rial	-1187
urs	-1188
ex	-1189
▁mic	-1190
▁infections	-1191
ution	-1192
les	-1193
ick	-1194
▁CO	-1195
cle	-1196
▁Al	-1197
▁lymph	-1198
of	-1199
▁value	-1200
▁(5	-1201
0,	-1202
▁Evalu	-1203
▁sever	-1204
ental	-1205
▁Symptoms	-1206
▁ben	-1207
tho	-1208
tern	-1209
dominal	-1210
▁Some	-1211
air	-1212
▁kidne	-1213
cho	-1214
▁Pro	-1215
ified	-1216
▁diagnosed	-1217
agement	-1218
▁abs	-1219
▁form	-1220
▁conducted	-1221
▁increase	-1222
▁improve	-1223
▁aut	-1224
▁abnormal	-1225
▁consid	-1226
▁vis	-1227
tice	-1228
▁≥	-1229
▁4.	-1230
▁nod	-1231
cinoma	-1232
▁bone	-1233
vers	-1234
▁primary	-1235
▁commun	-1236
▁weight	-1237
romb	-1238
las	-1239
▁vac	-1240
▁IV	-1241
ning	-1242
ish	-1243
hip	-1244
▁compared	-1245
ont	-1246
▁ir	-1247
uce	-1248
▁ultras	-1249
▁frequ	-1250
ata	-1251
ram	-1252
▁poly	-1253
omm	-1254
▁respiratory	-1255
▁hy	-1256
▁condi	-1257
▁left	-1258
▁fib	-1259
▁work	-1260
pecially	-1261
5).	-1262
utes	-1263
ritis	-1264
ature	-1265
▁pers	-1266
▁import	-1267
▁finding	-1268
way	-1269
▁very	-1270
▁predic	-1271
copy	-1272
co	-1273
▁chang	-1274
iat	-1275
▁new	-1276
▁kg	-1277
▁significantly	-1278
▁found	-1279
onse	-1280
▁acid	-1281
▁studies	-1282
erve	-1283
lu	-1284
ateral	-1285
▁rep	-1286
aterial	-1287
jor	-1288
▁small	-1289
▁stage	-1290
▁bleeding	-1291
6%	-1292
▁history	-1293
atal	-1294
▁statis	-1295
/201	-1296
▁testing	-1297
▁18	-1298
1,	-1299
▁organ	-1300
atures	-1301
eng	-1302
▁body	-1303
abor	-1304
▁sol	-1305
▁following	-1306
▁tests	-1307
▁determine	-1308
oster	-1309
CT	-1310
ired	-1311
ularly	-1312
vic	-1313
ited	-1314
entric	-1315
▁measure	-1316
▁(6	-1317
athe	-1318
▁through	-1319
▁effect	-1320
plant	-1321
▁right	-1322
▁(9	-1323
IV	-1324
▁male	-1325
▁cir	-1326
▁men	-1327
tein	-1328
▁Dep	-1329
▁female	-1330
8%	-1331
▁general	-1332
struction	-1333
▁descriptive	-1334
▁bl	-1335
utrition	-1336
2,	-1337
4%	-1338
ord	-1339
▁chem	-1340
ues	-1341
▁students	-1342
ommend	-1343
▁fluid	-1344
▁Af	-1345
atio	-1346
▁ang	-1347
▁calc	-1348
▁technique	-1349
▁Stud	-1350
▁concentration	-1351
otherapy	-1352
lev	-1353
▁Po	-1354
estinal	-1355
▁important	-1356
9%	-1357
2%	-1358
viewed	-1359
▁death	-1360
▁oral	-1361
▁response	-1362
aren	-1363
▁mut	-1364
▁vol	-1365
▁initi	-1366
▁management	-1367
tical	-1368
▁any	-1369
▁gast	-1370
▁fract	-1371
▁kidney	-1372
▁conf	-1373
yroid	-1374
inary	-1375
▁coll	-1376
ability	-1377
onary	-1378
arc	-1379
▁Patient	-1380
▁ventric	-1381
▁vas	-1382
▁rare	-1383
▁pregnancy	-1384
▁second	-1385
▁tissue	-1386
▁pneumonia	-1387
▁Clinical	-1388
1%	-1389
ationship	-1390
term	-1391
▁features	-1392
▁14	-1393
▁whe	-1394
▁accounted	-1395
ix	-1396
▁especially	-1397
▁0,	-1398
▁ey	-1399
▁Ho	-1400
▁Q	-1401
▁percent	-1402
ust	-1403
▁thromb	-1404
atholog	-1405
▁rem	-1406
verse	-1407
▁lapa	-1408
▁major	-1409
▁poss	-1410
▁MD	-1411
▁breast	-1412
▁muc	-1413
vestig	-1414
▁propor	-1415
▁er	-1416
NA	-1417
▁head	-1418
ient	-1419
gative	-1420
▁performed	-1421
iv	-1422
▁given	-1423
▁signs	-1424
dex	-1425
3,	-1426
emb	-1427
ulin	-1428
▁province	-1429
▁practice	-1430
tically	-1431
▁anest	-1432
▁according	-1433
iatric	-1434
▁ratio	-1435
▁Sur	-1436
▁inhib	-1437
▁exper	-1438
itivity	-1439
▁cm	-1440
itor	-1441
▁ol	-1442
▁fever	-1443
ption	-1444
▁within	-1445
▁Ad	-1446
▁decreased	-1447
ification	-1448
▁pot	-1449
▁chol	-1450
utaneous	-1451
▁Method	-1452
▁its	-1453
);	-1454
▁minutes	-1455
oscopic	-1456
▁recommend	-1457
▁difference	-1458
aryn	-1459
itu	-1460
▁Ne	-1461
pected	-1462
▁By	-1463
erate	-1464
iate	-1465
▁cardiac	-1466
row	-1467
orrh	-1468
itation	-1469
▁(8	-1470
▁Ex	-1471
▁abdominal	-1472
ines	-1473
ache	-1474
▁procedure	-1475
roke	-1476
▁traum	-1477
az	-1478
▁60	-1479
ereb	-1480
▁2022	-1481
cept	-1482
ential	-1483
▁activity	-1484
▁dire	-1485
▁postoperative	-1486
▁findings	-1487
ological	-1488
▁exp	-1489
▁occurs	-1490
▁manif	-1491
▁success	-1492
▁coronary	-1493
▁city	-1494
▁analysis	-1495
ole	-1496
▁All	-1497
riter	-1498
itary	-1499
▁stand	-1500
▁survi	-1501
ans	-1502
asing	-1503
▁different	-1504
▁(7	-1505
ission	-1506
▁ve	-1507
▁19	-1508
▁ure	-1509
arg	-1510
▁prevent	-1511
ently	-1512
▁relationship	-1513
▁remo	-1514
▁pan	-1515
veness	-1516
ety	-1517
▁Sep	-1518
▁25	-1519
▁fam	-1520
ocardi	-1521
▁aim	-1522
▁After	-1523
▁Most	-1524
essary	-1525
ilar	-1526
SA	-1527
▁Ac	-1528
▁size	-1529
▁Study	-1530
av	-1531
▁Gen	-1532
vised	-1533
▁inflamm	-1534
to	-1535
▁mor	-1536
▁proportion	-1537
▁50	-1538
▁labor	-1539
▁des	-1540
▁sti	-1541
▁cle	-1542
arr	-1543
▁changes	-1544
▁resistance	-1545
ym	-1546
▁nerve	-1547
pri	-1548
▁ref	-1549
rec	-1550
uy	-1551
▁neuro	-1552
▁imaging	-1553
atheter	-1554
▁carcinoma	-1555
▁Educ	-1556
▁gluc	-1557
▁Ap	-1558
▁tox	-1559
001	-1560
ema	-1561
rospective	-1562
ume	-1563
though	-1564
▁Department	-1565
▁index	-1566
▁large	-1567
rosis	-1568
▁He	-1569
▁air	-1570
▁13	-1571
pati	-1572
▁te	-1573
▁Sign	-1574
ples	-1575
▁criter	-1576
▁sometimes	-1577
OR	-1578
▁vit	-1579
▁diffic	-1580
par	-1581
▁Education	-1582
idence	-1583
▁rece	-1584
▁brain	-1585
echan	-1586
▁process	-1587
roll	-1588
lex	-1589
rin	-1590
for	-1591
▁highest	-1592
▁sex	-1593
CR	-1594
▁considered	-1595
trict	-1596
tiveness	-1597
▁Medic	-1598
▁"	-1599
▁scre	-1600
▁No	-1601
occ	-1602
▁hum	-1603
▁physical	-1604
ogen	-1605
▁survival	-1606
▁lead	-1607
▁16	-1608
▁defec	-1609
▁fac	-1610
▁dem	-1611
come	-1612
ha	-1613
see	-1614
▁contin	-1615
▁Children	-1616
ides	-1617
▁having	-1618
▁evaluation	-1619
AT	-1620
▁her	-1621
▁ventricular	-1622
▁reco	-1623
▁safety	-1624
▁CI	-1625
▁stroke	-1626
ined	-1627
▁rest	-1628
ovascular	-1629
▁expos	-1630
ps	-1631
▁typically	-1632
imal	-1633
ones	-1634
▁prol	-1635
▁deficiency	-1636
tial	-1637
AS	-1638
▁View	-1639
▁complete	-1640
priate	-1641
▁appear	-1642
ull	-1643
▁Revised	-1644
▁thyroid	-1645
▁count	-1646
oids	-1647
▁safe	-1648
ean	-1649
▁adv	-1650
▁plas	-1651
▁Reviewed	-1652
inic	-1653
▁ox	-1654
umb	-1655
▁These	-1656
▁Medical	-1657
▁40	-1658
▁necessary	-1659
▁5.	-1660
ty	-1661
ency	-1662
MI	-1663
▁jo	-1664
▁protein	-1665
▁manifest	-1666
ste	-1667
▁Ng	-1668
▁Result	-1669
ologic	-1670
▁percentage	-1671
▁gastro	-1672
▁water	-1673
jection	-1674
▁chest	-1675
▁older	-1676
▁adults	-1677
hyl	-1678
▁identify	-1679
▁criteria	-1680
ade	-1681
▁gas	-1682
comes	-1683
▁Signs	-1684
lated	-1685
▁cult	-1686
▁antibiotics	-1687
▁particularly	-1688
irth	-1689
▁HIV	-1690
/1	-1691
▁biop	-1692
▁+	-1693
▁nurs	-1694
▁cereb	-1695
▁ml	-1696
AP	-1697
▁6.	-1698
▁like	-1699
▁Jan	-1700
▁str	-1701
000	-1702
▁venti	-1703
iasis	-1704
opic	-1705
oscopy	-1706
▁metab	-1707
▁Hyp	-1708
▁metast	-1709
▁HC	-1710
▁hemorrh	-1711
derly	-1712
▁factor	-1713
▁needed	-1714
▁statistically	-1715
▁tak	-1716
▁local	-1717
▁1,	-1718
▁mass	-1719
▁neon	-1720
met	-1721
ator	-1722
▁ven	-1723
▁block	-1724
▁investig	-1725
▁still	-1726
opathy	-1727
chem	-1728
▁correlation	-1729
▁laparoscopic	-1730
asal	-1731
▁them	-1732
▁tract	-1733
ision	-1734
▁x	-1735
vey	-1736
function	-1737
▁then	-1738
hesia	-1739
uary	-1740
▁ill	-1741
▁prot	-1742
▁muscle	-1743
▁effic	-1744
▁mild	-1745
5,	-1746
▁upper	-1747
leep	-1748
orac	-1749
▁bil	-1750
▁elev	-1751
▁scho	-1752
loc	-1753
ipid	-1754
6,	-1755
▁school	-1756
omas	-1757
▁area	-1758
▁shock	-1759
ese	-1760
▁child	-1761
urn	-1762
▁mechan	-1763
▁data	-1764
▁virus	-1765
▁reduce	-1766
▁outcomes	-1767
ject	-1768
▁Ass	-1769
▁grow	-1770
▁report	-1771
▁will	-1772
▁role	-1773
▁MRI	-1774
iting	-1775
▁catheter	-1776
▁hemat	-1777
▁duration	-1778
ortic	-1779
▁multiple	-1780
▁pop	-1781
▁Medicine	-1782
ressive	-1783
▁em	-1784
▁gene	-1785
IC	-1786
mic	-1787
▁ec	-1788
▁elderly	-1789
/2	-1790
7,	-1791
▁7.	-1792
▁negative	-1793
str	-1794
▁pros	-1795
▁followed	-1796
AR	-1797
▁side	-1798
lic	-1799
▁pancre	-1800
▁epid	-1801
aterials	-1802
▁outcome	-1803
▁Chi	-1804
ditional	-1805
▁neph	-1806
▁mother	-1807
iety	-1808
▁infants	-1809
▁volume	-1810
ison	-1811
▁glucose	-1812
ember	-1813
▁ultrasound	-1814
▁poor	-1815
▁suspected	-1816
▁similar	-1817
▁moderate	-1818
▁dos	-1819
▁rates	-1820
▁sensitivity	-1821
▁sw	-1822
titud	-1823
▁def	-1824
▁confir	-1825
ae	-1826
▁ulcer	-1827
ources	-1828
▁short	-1829
▁hand	-1830
▁included	-1831
ervical	-1832
▁On	-1833
uter	-1834
▁our	-1835
hic	-1836
▁X	-1837
▁effectiveness	-1838
rolled	-1839
▁dam	-1840
hea	-1841
▁trauma	-1842
genital	-1843
thritis	-1844
▁Ab	-1845
▁att	-1846
▁Dis	-1847
▁avail	-1848
▁antibiotic	-1849
▁pat	-1850
ype	-1851
▁At	-1852
▁samples	-1853
▁difficult	-1854
▁combination	-1855
▁prevention	-1856
vious	-1857
plantation	-1858
olar	-1859
▁Minh	-1860
inc	-1861
▁educ	-1862
▁obs	-1863
itted	-1864
▁direct	-1865
▁biopsy	-1866
▁Points	-1867
rem	-1868
▁grade	-1869
▁each	-1870
▁central	-1871
▁micro	-1872
▁smo	-1873
▁birth	-1874
-19	-1875
▁dysfunction	-1876
havi	-1877
lob	-1878
ported	-1879
gest	-1880
8,	-1881
ocyt	-1882
oral	-1883
▁mid	-1884
▁proble	-1885
gency	-1886
atisf	-1887
▁district	-1888
▁disc	-1889
ipher	-1890
▁possible	-1891
▁department	-1892
▁tem	-1893
omp	-1894
▁cho	-1895
acement	-1896
▁flap	-1897
▁ind	-1898
▁equ	-1899
ediatric	-1900
▁combined	-1901
▁10.	-1902
4,	-1903
ok	-1904
omet	-1905
▁rap	-1906
▁bacteria	-1907
▁95%	-1908
AL	-1909
ano	-1910
▁Sc	-1911
▁mark	-1912
▁commonly	-1913
inus	-1914
▁pal	-1915
set	-1916
▁prost	-1917
▁inform	-1918
▁hor	-1919
sth	-1920
▁circ	-1921
cell	-1922
▁anemia	-1923
...	-1924
▁anterior	-1925
▁Man	-1926
▁obstruction	-1927
▁Y	-1928
plement	-1929
▁table	-1930
let	-1931
▁ischem	-1932
▁family	-1933
▁indicated	-1934
istr	-1935
adder	-1936
ER	-1937
intestinal	-1938
▁deg	-1939
▁prospective	-1940
ocal	-1941
▁Int	-1942
▁Evaluation	-1943
▁incidence	-1944
▁appropriate	-1945
mediate	-1946
▁increasing	-1947
min	-1948
):	-1949
▁myocardi	-1950
10	-1951
AC	-1952
▁must	-1953
▁urinary	-1954
▁diet	-1955
mptomatic	-1956
▁affected	-1957
▁rapid	-1958
▁sleep	-1959
▁recei	-1960
li	-1961
ray	-1962
▁plasma	-1963
▁evaluated	-1964
ules	-1965
ipheral	-1966
hing	-1967
▁memb	-1968
vasive	-1969
▁available	-1970
▁Mod	-1971
▁hepatitis	-1972
go	-1973
▁cortic	-1974
<0.0	-1975
plied	-1976
▁tend	-1977
▁abnormalities	-1978
▁areas	-1979
▁Im	-1980
uyen	-1981
ites	-1982
▁fet	-1983
ingle	-1984
▁reduced	-1985
▁As	-1986
▁En	-1987
▁attitud	-1988
▁anesthesia	-1989
lying	-1990
less	-1991
▁while	-1992
dro	-1993
old	-1994
▁severity	-1995
▁being	-1996
duction	-1997
▁initial	-1998
▁efficacy	-1999
icity	-2000
▁subjects	-2001
VID	-2002
▁sugges	-2003
▁support	-2004
EN	-2005
▁regim	-2006
▁infarc	-2007
▁sal	-2008
▁spinal	-2009
nea	-2010
ried	-2011
9,	-2012
uria	-2013
▁struc	-2014
mergency	-2015
▁does	-2016
▁monitor	-2017
▁term	-2018
▁Other	-2019
SS	-2020
▁reac	-2021
▁every	-2022
als	-2023
▁decrease	-2024
PD	-2025
▁diagnostic	-2026
▁guid	-2027
▁causing	-2028
▁complication	-2029
▁National	-2030
tract	-2031
yz	-2032
▁ques	-2033
▁mL	-2034
▁soft	-2035
▁Dec	-2036
▁injuries	-2037
▁satisf	-2038
▁paren	-2039
▁pregnant	-2040
ists	-2041
▁vag	-2042
eration	-2043
uring	-2044
▁Research	-2045
osph	-2046
▁increases	-2047
▁development	-2048
ring	-2049
odies	-2050
▁person	-2051
▁vitamin	-2052
the	-2053
▁better	-2054
illary	-2055
▁systemic	-2056
esity	-2057
▁conditions	-2058
tib	-2059
▁elect	-2060
▁cervical	-2061
tained	-2062
ination	-2063
itus	-2064
▁hepat	-2065
▁recommended	-2066
▁sten	-2067
▁COVID	-2068
▁emb	-2069
cohol	-2070
▁extrac	-2071
▁great	-2072
uk	-2073
▁avoid	-2074
▁even	-2075
▁behavi	-2076
ind	-2077
▁aged	-2078
▁January	-2079
▁recurrent	-2080
▁Central	-2081
▁Health	-2082
▁ach	-2083
▁information	-2084
▁required	-2085
tensive	-2086
ective	-2087
▁III	-2088
▁exposure	-2089
▁again	-2090
▁adverse	-2091
weight	-2092
▁corticoster	-2093
▁model	-2094
▁describe	-2095
▁8.	-2096
▁evid	-2097
yn	-2098
▁contain	-2099
pir	-2100
utritional	-2101
▁Center	-2102
▁infarction	-2103
oly	-2104
▁operation	-2105
▁isol	-2106
▁vaccin	-2107
▁change	-2108
lyce	-2109
▁remain	-2110
5%,	-2111
▁est	-2112
cine	-2113
pose	-2114
ule	-2115
▁vascular	-2116
ula	-2117
▁resection	-2118
ias	-2119
▁syn	-2120
▁Mean	-2121
aring	-2122
sthma	-2123
went	-2124
cler	-2125
▁inhibit	-2126
▁stress	-2127
▁successful	-2128
▁mainly	-2129
▁Can	-2130
omal	-2131
duced	-2132
▁With	-2133
▁types	-2134
omic	-2135
▁situ	-2136
ending	-2137
▁ventilation	-2138
▁max	-2139
▁cer	-2140
▁same	-2141
▁repl	-2142
▁Subjects	-2143
▁influ	-2144
▁standard	-2145
▁depression	-2146
▁peripheral	-2147
3%,	-2148
▁17	-2149
▁site	-2150
▁HB	-2151
▁100%	-2152
▁onset	-2153
eth	-2154
▁continu	-2155
▁Binh	-2156
▁congenital	-2157
ST	-2158
▁growth	-2159
▁malign	-2160
▁Over	-2161
▁therap	-2162
▁did	-2163
▁pub	-2164
▁education	-2165
▁go	-2166
anoi	-2167
▁mo	-2168
enia	-2169
▁few	-2170
orn	-2171
ends	-2172
▁damage	-2173
▁Le	-2174
logic	-2175
▁single	-2176
▁2021	-2177
▁stenosis	-2178
▁pur	-2179
▁applied	-2180
anced	-2181
▁open	-2182
▁Jun	-2183
▁youn	-2184
▁culture	-2185
▁several	-2186
▁three	-2187
▁cardiovascular	-2188
▁ver	-2189
ength	-2190
▁hormon	-2191
▁posterior	-2192
▁Table	-2193
▁achie	-2194
▁General	-2195
ales	-2196
▁joint	-2197
tiology	-2198
▁likely	-2199
cutaneous	-2200
▁activities	-2201
▁chemotherapy	-2202
▁workers	-2203
▁plate	-2204
emic	-2205
▁cap	-2206
▁Cho	-2207
▁could	-2208
▁fat	-2209
▁mening	-2210
▁specificity	-2211
▁func	-2212
7%,	-2213
bid	-2214
ergic	-2215
▁position	-2216
▁screening	-2217
▁venous	-2218
▁laboratory	-2219
aus	-2220
▁esoph	-2221
▁Materials	-2222
▁endoscopic	-2223
▁assessment	-2224
ished	-2225
▁fracture	-2226
▁urine	-2227
▁myocardial	-2228
▁21	-2229
olism	-2230
▁least	-2231
ience	-2232
tention	-2233
▁Sp	-2234
abil	-2235
amine	-2236
▁psy	-2237
▁When	-2238
uong	-2239
▁part	-2240
▁gastric	-2241
▁underwent	-2242
▁reported	-2243
▁medicine	-2244
uted	-2245
▁condition	-2246
▁bacterial	-2247
ygen	-2248
▁alcohol	-2249
▁hemorrhage	-2250
▁9.	-2251
▁involve	-2252
▁manifestations	-2253
▁clinic	-2254
arget	-2255
▁suggest	-2256
▁prop	-2257
▁current	-2258
▁secondary	-2259
sor	-2260
▁orally	-2261
ays	-2262
▁adj	-2263
▁Cont	-2264
▁duc	-2265
▁aden	-2266
▁cerebral	-2267
▁Hanoi	-2268
ester	-2269
▁human	-2270
hyth	-2271
▁Mar	-2272
▁against	-2273
▁Ins	-2274
umin	-2275
eu	-2276
cardi	-2277
rim	-2278
▁Rec	-2279
ension	-2280
iab	-2281
▁soc	-2282
dition	-2283
▁accur	-2284
▁particip	-2285
var	-2286
▁ery	-2287
ercul	-2288
▁thorac	-2289
ranial	-2290
▁obesity	-2291
▁doc	-2292
ians	-2293
ances	-2294
osa	-2295
rine	-2296
na	-2297
▁sinus	-2298
▁asthma	-2299
▁City	-2300
▁injection	-2301
▁needle	-2302
ON	-2303
ternal	-2304
▁illness	-2305
▁until	-2306
▁reduction	-2307
▁kne	-2308
▁2020	-2309
iology	-2310
nutrition	-2311
▁colon	-2312
▁contrib	-2313
zym	-2314
och	-2315
▁Nguyen	-2316
urther	-2317
▁angi	-2318
phal	-2319
▁once	-2320
▁mutations	-2321
▁serious	-2322
▁infected	-2323
▁2,	-2324
au	-2325
▁11.	-2326
▁che	-2327
▁pen	-2328
itone	-2329
▁IN	-2330
▁flow	-2331
12	-2332
gin	-2333
▁length	-2334
▁detect	-2335
▁strain	-2336
▁deliver	-2337
plas	-2338
▁self	-2339
50	-2340
▁Per	-2341
▁improved	-2342
outh	-2343
rence	-2344
▁lesion	-2345
uss	-2346
▁disch	-2347
▁insulin	-2348
gl	-2349
▁ear	-2350
▁PE	-2351
▁neck	-2352
▁transplantation	-2353
▁inflammation	-2354
▁IC	-2355
▁exerc	-2356
▁arterial	-2357
▁don	-2358
▁degree	-2359
▁emergency	-2360
line	-2361
▁survey	-2362
urop	-2363
▁radiation	-2364
owel	-2365
▁Hem	-2366
ageal	-2367
▁patho	-2368
DL	-2369
▁evidence	-2370
adi	-2371
▁previous	-2372
▁vs	-2373
▁Modified	-2374
▁fore	-2375
erior	-2376
▁diss	-2377
▁De	-2378
quate	-2379
den	-2380
▁Ef	-2381
▁eth	-2382
▁hypot	-2383
▁detected	-2384
vices	-2385
▁analyz	-2386
▁fractures	-2387
logy	-2388
▁prognosis	-2389
▁Ray	-2390
▁Col	-2391
▁world	-2392
arrhea	-2393
▁measured	-2394
lor	-2395
▁May	-2396
▁Par	-2397
▁patholog	-2398
▁Descri	-2399
▁perfor	-2400
▁bron	-2401
erved	-2402
▁cord	-2403
▁metabolic	-2404
▁identified	-2405
geal	-2406
▁edema	-2407
▁vaccine	-2408
▁question	-2409
▁trial	-2410
▁airway	-2411
▁anat	-2412
▁transm	-2413
-2	-2414
▁ple	-2415
▁elevated	-2416
▁Dise	-2417
▁analges	-2418
▁pharm	-2419
pt	-2420
roup	-2421
▁prolong	-2422
▁dil	-2423
▁collected	-2424
▁target	-2425
abl	-2426
▁surf	-2427
▁approach	-2428
▁train	-2429
▁genetic	-2430
ounds	-2431
▁relie	-2432
▁suf	-2433
▁wall	-2434
PV	-2435
▁potential	-2436
▁valve	-2437
upture	-2438
▁points	-2439
otor	-2440
ococc	-2441
▁12.	-2442
▁stay	-2443
▁shows	-2444
▁plac	-2445
trast	-2446
▁oxygen	-2447
▁leuk	-2448
▁scale	-2449
aryngeal	-2450
8%,	-2451
▁useful	-2452
ES	-2453
▁benef	-2454
BC	-2455
plication	-2456
▁End	-2457
▁Acute	-2458
ication	-2459
ands	-2460
▁doses	-2461
▁design	-2462
onography	-2463
▁z	-2464
6%,	-2465
▁relative	-2466
yst	-2467
▁lea	-2468
▁CD	-2469
▁stim	-2470
▁June	-2471
▁where	-2472
▁Us	-2473
▁emp	-2474
tious	-2475
▁overall	-2476
▁su	-2477
▁sequ	-2478
ergy	-2479
▁They	-2480
▁mothers	-2481
▁eye	-2482
▁Vietnamese	-2483
asty	-2484
▁line	-2485
man	-2486
tid	-2487
▁top	-2488
▁techniques	-2489
ks	-2490
aff	-2491
▁vom	-2492
gnostic	-2493
▁extrem	-2494
istent	-2495
▁ureter	-2496
▁however	-2497
related	-2498
▁attitude	-2499
▁classification	-2500
▁Co	-2501
▁From	-2502
most	-2503
year	-2504
▁become	-2505
ards	-2506
▁Ar	-2507
elvic	-2508
▁48	-2509
▁01	-2510
▁scan	-2511
▁presence	-2512
▁order	-2513
viron	-2514
▁nutritional	-2515
▁enzym	-2516
CO	-2517
▁Qu	-2518
ella	-2519
ucle	-2520
▁tube	-2521
▁benign	-2522
IN	-2523
▁Assess	-2524
▁diarrhea	-2525
iel	-2526
▁complex	-2527
▁immediate	-2528
ped	-2529
5%.	-2530
▁gest	-2531
▁calcium	-2532
▁trig	-2533
cies	-2534
sequ	-2535
▁cur	-2536
▁seiz	-2537
▁active	-2538
▁nasal	-2539
▁recurren	-2540
ret	-2541
ycin	-2542
▁sk	-2543
0.001	-2544
aged	-2545
titis	-2546
aily	-2547
ecause	-2548
isms	-2549
▁Although	-2550
read	-2551
ilitary	-2552
▁thir	-2553
ialysis	-2554
▁undergo	-2555
2%,	-2556
esis	-2557
▁amoun	-2558
▁Det	-2559
▁sl	-2560
ophil	-2561
rophy	-2562
▁creat	-2563
▁invasive	-2564
▁monitoring	-2565
essel	-2566
renal	-2567
elling	-2568
▁intrac	-2569
▁pattern	-2570
/200	-2571
▁bladder	-2572
▁Therefore	-2573
roph	-2574
▁oste	-2575
▁thick	-2576
▁population	-2577
▁malignant	-2578
▁diabetic	-2579
ficient	-2580
▁delivery	-2581
CG	-2582
illin	-2583
venous	-2584
4%,	-2585
▁wa	-2586
▁range	-2587
▁electro	-2588
▁includes	-2589
3.3	-2590
axis	-2591
▁Ig	-2592
▁intens	-2593
▁br	-2594
plications	-2595
ration	-2596
▁Infec	-2597
HO	-2598
▁ev	-2599
▁derm	-2600
▁repair	-2601
aria	-2602
vironment	-2603
▁affect	-2604
▁values	-2605
▁tubercul	-2606
atin	-2607
7%.	-2608
iary	-2609
▁minim	-2610
▁sepsis	-2611
dle	-2612
amet	-2613
logical	-2614
▁provide	-2615
urys	-2616
itt	-2617
virus	-2618
▁ST	-2619
hetic	-2620
ou	-2621
ateg	-2622
isted	-2623
▁Se	-2624
▁drain	-2625
▁immune	-2626
▁vomiting	-2627
▁move	-2628
iop	-2629
raindic	-2630
▁pediatric	-2631
▁beta	-2632
%);	-2633
▁US	-2634
▁anx	-2635
▁cys	-2636
inf	-2637
▁Trans	-2638
▁aspir	-2639
ators	-2640
▁22	-2641
▁hospitals	-2642
▁36	-2643
omes	-2644
▁extract	-2645
▁fetal	-2646
▁quan	-2647
olesc	-2648
iltr	-2649
▁iron	-2650
▁inser	-2651
▁cyst	-2652
▁mutation	-2653
▁median	-2654
ulmonary	-2655
thro	-2656
▁abscess	-2657
hyd	-2658
▁Drug	-2659
umbar	-2660
▁majority	-2661
▁bowel	-2662
▁admission	-2663
pho	-2664
▁region	-2665
▁recovery	-2666
▁nurses	-2667
▁Resources	-2668
▁retrospective	-2669
▁bran	-2670
aine	-2671
▁Topic	-2672
▁insuf	-2673
son	-2674
patients	-2675
▁IL	-2676
▁Nam	-2677
▁daily	-2678
▁Subject	-2679
▁situation	-2680
▁prof	-2681
▁rupture	-2682
ographic	-2683
CI	-2684
▁species	-2685
hood	-2686
▁pap	-2687
▁arthritis	-2688
obacter	-2689
pecific	-2690
care	-2691
onic	-2692
▁series	-2693
▁slow	-2694
br	-2695
▁23	-2696
▁aortic	-2697
▁stones	-2698
ference	-2699
9%,	-2700
▁cann	-2701
▁Because	-2702
▁free	-2703
▁vers	-2704
▁interven	-2705
AD	-2706
1%,	-2707
ulated	-2708
▁recon	-2709
▁membran	-2710
▁nutrition	-2711
▁functional	-2712
▁recept	-2713
▁wound	-2714
▁frequency	-2715
itoneal	-2716
▁differenti	-2717
▁above	-2718
▁reaction	-2719
▁admitted	-2720
sc	-2721
▁received	-2722
▁breat	-2723
▁limited	-2724
▁2019	-2725
▁measures	-2726
oot	-2727
▁Ser	-2728
▁hepatic	-2729
▁AR	-2730
▁transfusion	-2731
▁lon	-2732
▁shown	-2733
▁<0.0	-2734
▁adult	-2735
thal	-2736
▁set	-2737
▁back	-2738
5)	-2739
▁deep	-2740
▁vein	-2741
▁weak	-2742
▁indi	-2743
▁spl	-2744
herence	-2745
ler	-2746
odium	-2747
ferred	-2748
▁chrom	-2749
▁known	-2750
endent	-2751
▁contrac	-2752
meter	-2753
▁recurrence	-2754
▁corticosteroids	-2755
▁Post	-2756
▁90	-2757
otic	-2758
otomy	-2759
ably	-2760
▁stem	-2761
▁antic	-2762
▁rh	-2763
▁addition	-2764
▁delay	-2765
gien	-2766
▁overweight	-2767
▁carried	-2768
andom	-2769
▁procedures	-2770
clinical	-2771
▁paramet	-2772
▁investigate	-2773
lood	-2774
▁node	-2775
▁Thai	-2776
▁atrial	-2777
▁seen	-2778
▁cut	-2779
▁prec	-2780
▁reas	-2781
▁clear	-2782
▁certain	-2783
▁regimen	-2784
▁35	-2785
aired	-2786
▁OF	-2787
▁phase	-2788
▁carb	-2789
▁presc	-2790
▁Apr	-2791
opatholog	-2792
▁although	-2793
chool	-2794
▁clos	-2795
▁males	-2796
ellitus	-2797
▁sample	-2798
▁detection	-2799
own	-2800
ries	-2801
quired	-2802
▁obstruc	-2803
▁ane	-2804
▁point	-2805
▁inflammatory	-2806
▁uter	-2807
▁improvement	-2808
▁0.5	-2809
rogen	-2810
▁gener	-2811
▁requires	-2812
ficial	-2813
▁estim	-2814
▁14.	-2815
▁knee	-2816
▁healthy	-2817
▁smoking	-2818
▁duct	-2819
AB	-2820
ina	-2821
▁31	-2822
▁Pharm	-2823
aw	-2824
olec	-2825
▁vessel	-2826
▁further	-2827
patient	-2828
▁studied	-2829
▁hospitalized	-2830
▁28	-2831
▁mental	-2832
▁visual	-2833
▁eyes	-2834
▁longer	-2835
▁inhibitors	-2836
▁replacement	-2837
eutic	-2838
naire	-2839
▁optim	-2840
▁70	-2841
eling	-2842
▁frequently	-2843
II	-2844
them	-2845
▁environment	-2846
▁ho	-2847
▁late	-2848
▁mmol	-2849
▁mechanical	-2850
▁production	-2851
▁grad	-2852
formation	-2853
▁ischemic	-2854
▁lympho	-2855
▁13.	-2856
▁much	-2857
cles	-2858
azole	-2859
bumin	-2860
▁defects	-2861
▁80	-2862
▁50%	-2863
▁discharge	-2864
acer	-2865
▁bal	-2866
gment	-2867
▁hydro	-2868
▁living	-2869
ee	-2870
▁staff	-2871
▁leg	-2872
▁prob	-2873
asion	-2874
▁community	-2875
▁ng	-2876
aternal	-2877
▁hormone	-2878
▁internal	-2879
▁influen	-2880
▁toxicity	-2881
han	-2882
opl	-2883
▁correct	-2884
▁determined	-2885
ourse	-2886
▁lateral	-2887
etric	-2888
▁predict	-2889
ochem	-2890
▁vaginal	-2891
▁malnutrition	-2892
IT	-2893
oplas	-2894
▁Hyper	-2895
▁wide	-2896
▁via	-2897
▁3,	-2898
▁rarely	-2899
▁record	-2900
▁mellitus	-2901
▁admin	-2902
▁impair	-2903
▁tom	-2904
▁third	-2905
▁More	-2906
lycemia	-2907
psy	-2908
▁cost	-2909
▁viral	-2910
arb	-2911
▁16.	-2912
▁echo	-2913
▁random	-2914
▁temper	-2915
▁confirmed	-2916
▁training	-2917
con	-2918
ward	-2919
▁BMI	-2920
▁assessed	-2921
▁contrast	-2922
▁females	-2923
▁diameter	-2924
▁Hue	-2925
▁ten	-2926
▁review	-2927
ics	-2928
▁tho	-2929
▁neonatal	-2930
▁problems	-2931
tes	-2932
▁bo	-2933
▁distal	-2934
arning	-2935
▁young	-2936
ylor	-2937
▁rele	-2938
▁supp	-2939
ubation	-2940
▁thus	-2941
▁Military	-2942
▁exercise	-2943
5%),	-2944
iter	-2945
▁made	-2946
ised	-2947
▁intake	-2948
▁ability	-2949
mal	-2950
SD	-2951
▁subst	-2952
▁controlled	-2953
giene	-2954
▁repe	-2955
▁cr	-2956
▁motor	-2957
▁whether	-2958
gra	-2959
▁enter	-2960
▁anxiety	-2961
.)	-2962
▁ax	-2963
time	-2964
engue	-2965
lobin	-2966
▁close	-2967
▁December	-2968
▁Etiology	-2969
▁Oct	-2970
▁defect	-2971
▁accounting	-2972
▁bas	-2973
▁bronch	-2974
hythm	-2975
▁isolated	-2976
mg	-2977
▁facil	-2978
▁Cardi	-2979
▁simple	-2980
ills	-2981
AN	-2982
▁eas	-2983
▁provid	-2984
▁strong	-2985
▁excess	-2986
▁agents	-2987
▁Ret	-2988
▁Inter	-2989
▁aneurys	-2990
▁solution	-2991
▁association	-2992
ode	-2993
ner	-2994
11	-2995
bed	-2996
▁32	-2997
ardia	-2998
▁parameters	-2999
rac	-3000
▁las	-3001
aling	-3002
▁best	-3003
▁15.	-3004
▁compl	-3005
▁taken	-3006
▁concer	-3007
▁questionnaire	-3008
cing	-3009
amp	-3010
gens	-3011
▁fist	-3012
▁products	-3013
▁establ	-3014
▁oc	-3015
▁location	-3016
nia	-3017
▁cirr	-3018
▁Disease	-3019
aps	-3020
tures	-3021
▁ultrasonography	-3022
▁Effec	-3023
lot	-3024
ately	-3025
▁social	-3026
clerosis	-3027
▁advanced	-3028
enal	-3029
▁center	-3030
3%.	-3031
meric	-3032
▁pancreatic	-3033
▁allow	-3034
▁0.8	-3035
▁occup	-3036
▁treating	-3037
cardiography	-3038
▁tuberculosis	-3039
sp	-3040
get	-3041
▁prolonged	-3042
▁PCR	-3043
MC	-3044
▁ster	-3045
▁words	-3046
OS	-3047
▁satisfaction	-3048
ars	-3049
ways	-3050
uncture	-3051
▁middle	-3052
▁resulting	-3053
▁Chronic	-3054
arily	-3055
▁leading	-3056
ng	-3057
unt	-3058
▁Jul	-3059
▁dig	-3060
▁Cross	-3061
▁pylor	-3062
▁nursing	-3063
▁Ha	-3064
▁rout	-3065
hylaxis	-3066
achy	-3067
ontaneous	-3068
bidity	-3069
otype	-3070
agulation	-3071
▁thrombosis	-3072
bs	-3073
plasia	-3074
▁adolesc	-3075
8%.	-3076
fication	-3077
▁flu	-3078
▁ess	-3079
▁lumbar	-3080
que	-3081
rob	-3082
▁Common	-3083
▁compon	-3084
by	-3085
ecting	-3086
lammatory	-3087
▁resistant	-3088
▁45	-3089
elines	-3090
▁special	-3091
▁distrib	-3092
ked	-3093
▁exam	-3094
▁gender	-3095
▁routine	-3096
▁needs	-3097
▁hygiene	-3098
▁removal	-3099
▁mac	-3100
▁Among	-3101
ND	-3102
▁working	-3103
▁highly	-3104
roduction	-3105
▁experience	-3106
▁make	-3107
▁taking	-3108
▁symptom	-3109
▁auth	-3110
ulder	-3111
6%.	-3112
▁predictive	-3113
▁Blood	-3114
ov	-3115
▁AC	-3116
ither	-3117
▁strains	-3118
ausea	-3119
cardia	-3120
▁proper	-3121
▁cancers	-3122
usc	-3123
▁program	-3124
rup	-3125
▁stop	-3126
4%.	-3127
vice	-3128
izing	-3129
▁prem	-3130
iable	-3131
▁Acc	-3132
raw	-3133
hel	-3134
ened	-3135
▁teeth	-3136
▁involved	-3137
▁ade	-3138
▁observed	-3139
=0.	-3140
hesis	-3141
▁plan	-3142
5%)	-3143
ymp	-3144
▁check	-3145
▁septic	-3146
▁antibodies	-3147
▁enc	-3148
▁2021.	-3149
▁continuous	-3150
▁you	-3151
▁tomography	-3152
▁Hb	-3153
▁Tr	-3154
FR	-3155
▁obtained	-3156
ool	-3157
rill	-3158
▁neut	-3159
varian	-3160
▁phen	-3161
ls	-3162
athic	-3163
▁0.9	-3164
aking	-3165
▁rat	-3166
▁psycho	-3167
▁underlying	-3168
titute	-3169
▁undergoing	-3170
mune	-3171
▁DNA	-3172
▁mil	-3173
atology	-3174
ough	-3175
▁000	-3176
apse	-3177
▁pri	-3178
▁2018	-3179
2)	-3180
▁last	-3181
▁magn	-3182
▁resid	-3183
▁suggests	-3184
▁pelvic	-3185
▁surface	-3186
nel	-3187
uture	-3188
▁temperature	-3189
uod	-3190
oglobin	-3191
▁consum	-3192
▁intestinal	-3193
▁auto	-3194
▁Fe	-3195
atur	-3196
istration	-3197
5%).	-3198
▁clinically	-3199
▁headache	-3200
▁antibody	-3201
atives	-3202
onomic	-3203
stetric	-3204
HE	-3205
fe	-3206
ored	-3207
otal	-3208
ware	-3209
▁School	-3210
iness	-3211
▁2017	-3212
aled	-3213
▁Gi	-3214
ield	-3215
▁compar	-3216
encephal	-3217
range	-3218
▁meningitis	-3219
ches	-3220
loid	-3221
▁17.	-3222
alled	-3223
▁events	-3224
▁take	-3225
like	-3226
inant	-3227
acheal	-3228
▁Many	-3229
▁access	-3230
ye	-3231
▁Ep	-3232
▁Tra	-3233
▁Americ	-3234
▁seizures	-3235
ark	-3236
omer	-3237
▁nons	-3238
▁lar	-3239
steop	-3240
pect	-3241
▁another	-3242
▁metastasis	-3243
hat	-3244
▁Aug	-3245
▁partial	-3246
▁parac	-3247
ymptomatic	-3248
21	-3249
▁various	-3250
▁arteries	-3251
▁lig	-3252
ash	-3253
roidism	-3254
▁adherence	-3255
▁Comp	-3256
▁place	-3257
asionally	-3258
▁occurred	-3259
▁asymptomatic	-3260
▁Complications	-3261
fort	-3262
ypes	-3263
IS	-3264
▁COPD	-3265
▁near	-3266
▁others	-3267
▁resol	-3268
ticular	-3269
▁adequate	-3270
▁molec	-3271
▁supplement	-3272
▁treatments	-3273
▁bed	-3274
thral	-3275
▁neurologic	-3276
9%.	-3277
onin	-3278
▁effusion	-3279
ION	-3280
ouse	-3281
tility	-3282
▁Risk	-3283
rectal	-3284
iological	-3285
▁Or	-3286
▁lip	-3287
initis	-3288
▁Determ	-3289
▁Prevention	-3290
rag	-3291
ying	-3292
▁Evaluate	-3293
▁sodium	-3294
LC	-3295
▁plus	-3296
▁preoperative	-3297
▁Inf	-3298
▁greater	-3299
ton	-3300
heum	-3301
hosis	-3302
▁essential	-3303
▁18.	-3304
arean	-3305
ching	-3306
▁lipid	-3307
▁Hep	-3308
▁white	-3309
osphate	-3310
▁countries	-3311
16	-3312
▁rectal	-3313
▁Sometimes	-3314
seud	-3315
▁therapeutic	-3316
onal	-3317
roscopy	-3318
▁concentrations	-3319
/3	-3320
aro	-3321
habil	-3322
▁fall	-3323
▁bile	-3324
▁epis	-3325
▁morpho	-3326
2%.	-3327
▁exc	-3328
▁sed	-3329
▁Be	-3330
vidual	-3331
▁Surgical	-3332
▁0.7	-3333
▁scores	-3334
▁around	-3335
▁developed	-3336
▁stone	-3337
▁frequent	-3338
▁recorded	-3339
▁CR	-3340
▁flex	-3341
▁sexual	-3342
▁mit	-3343
▁lymphoma	-3344
uble	-3345
▁compare	-3346
▁problem	-3347
▁hal	-3348
ocar	-3349
▁(1.	-3350
ament	-3351
▁maintain	-3352
▁spontaneous	-3353
▁dental	-3354
▁amount	-3355
▁concern	-3356
phys	-3357
▁relatively	-3358
▁port	-3359
▁helps	-3360
esterol	-3361
▁append	-3362
uls	-3363
gnose	-3364
▁Hist	-3365
ulitis	-3366
aly	-3367
ocus	-3368
▁pred	-3369
ulf	-3370
▁Fact	-3371
▁pleural	-3372
7%),	-3373
▁nodes	-3374
▁application	-3375
TS	-3376
nic	-3377
▁cat	-3378
ource	-3379
▁HBV	-3380
aryng	-3381
▁progression	-3382
▁coli	-3383
esarean	-3384
▁cannot	-3385
▁26	-3386
osin	-3387
enem	-3388
▁light	-3389
amination	-3390
▁Introduction	-3391
acerb	-3392
▁examined	-3393
inflammatory	-3394
iance	-3395
infec	-3396
▁nausea	-3397
▁insufficiency	-3398
▁Pl	-3399
▁sectional	-3400
▁characterized	-3401
ining	-3402
teb	-3403
▁Dinh	-3404
ynec	-3405
▁achieved	-3406
reg	-3407
ober	-3408
▁dysp	-3409
▁respons	-3410
CP	-3411
▁Pur	-3412
▁affecting	-3413
inine	-3414
soriasis	-3415
<0.05).	-3416
▁canal	-3417
dib	-3418
▁contact	-3419
oh	-3420
atig	-3421
▁differences	-3422
iol	-3423
ught	-3424
▁nerv	-3425
▁objec	-3426
▁confirm	-3427
▁practic	-3428
▁5%	-3429
▁hip	-3430
ling	-3431
▁maternal	-3432
SF	-3433
▁fer	-3434
▁Character	-3435
▁TB	-3436
lipid	-3437
▁Cons	-3438
ping	-3439
▁hypog	-3440
▁Surgery	-3441
▁reconstruction	-3442
▁Of	-3443
junc	-3444
▁home	-3445
cluding	-3446
▁services	-3447
▁physic	-3448
▁fibrosis	-3449
cal	-3450
aphy	-3451
▁height	-3452
habilitation	-3453
▁progressive	-3454
ependent	-3455
▁allergic	-3456
▁drainage	-3457
▁subclinical	-3458
▁colo	-3459
▁mc	-3460
ixed	-3461
▁university	-3462
reng	-3463
▁cyt	-3464
gnitive	-3465
ense	-3466
▁0.3	-3467
▁dL	-3468
▁enh	-3469
enters	-3470
ured	-3471
ressed	-3472
alysis	-3473
▁foreign	-3474
▁rapidly	-3475
NP	-3476
▁fing	-3477
▁mouth	-3478
stand	-3479
▁pylori	-3480
/20	-3481
▁pass	-3482
▁secre	-3483
▁operated	-3484
angi	-3485
▁108	-3486
▁begin	-3487
ulating	-3488
▁histopatholog	-3489
1%.	-3490
▁fung	-3491
▁stool	-3492
▁sensitive	-3493
▁traditional	-3494
▁(1).	-3495
SC	-3496
lycer	-3497
▁full	-3498
umm	-3499
▁0.2	-3500
▁specim	-3501
▁obstructive	-3502
▁esophageal	-3503
ensity	-3504
▁medications	-3505
bil	-3506
▁foot	-3507
▁later	-3508
▁AD	-3509
▁19.	-3510
▁exacerb	-3511
▁neonates	-3512
▁limit	-3513
8%),	-3514
▁Hear	-3515
▁behavior	-3516
ocol	-3517
orax	-3518
▁Our	-3519
▁bur	-3520
▁tachy	-3521
▁burn	-3522
▁root	-3523
▁cough	-3524
▁images	-3525
cont	-3526
entia	-3527
UR	-3528
▁mice	-3529
▁selected	-3530
▁generally	-3531
▁cre	-3532
acity	-3533
▁Phys	-3534
▁almost	-3535
▁recogn	-3536
▁expression	-3537
ended	-3538
icillin	-3539
▁poison	-3540
▁necrosis	-3541
▁contraindic	-3542
xim	-3543
▁biliary	-3544
▁conven	-3545
▁osteop	-3546
▁individual	-3547
19	-3548
▁morbidity	-3549
▁percutaneous	-3550
▁Dan	-3551
▁lack	-3552
▁tooth	-3553
13	-3554
▁33	-3555
▁1.5	-3556
MA	-3557
openia	-3558
▁topical	-3559
▁benefit	-3560
CA	-3561
part	-3562
▁now	-3563
▁Using	-3564
based	-3565
atigue	-3566
▁altern	-3567
vided	-3568
▁Know	-3569
▁marrow	-3570
▁reducing	-3571
].	-3572
6%),	-3573
▁gran	-3574
osition	-3575
▁facial	-3576
induced	-3577
▁external	-3578
▁get	-3579
▁versus	-3580
▁mes	-3581
▁chemical	-3582
▁shoulder	-3583
▁implement	-3584
7%)	-3585
▁content	-3586
dia	-3587
▁Disorder	-3588
▁four	-3589
2%),	-3590
istic	-3591
▁July	-3592
▁face	-3593
15	-3594
3%),	-3595
7%).	-3596
▁dry	-3597
▁0.05).	-3598
imum	-3599
▁Early	-3600
dibular	-3601
ibility	-3602
toma	-3603
arding	-3604
▁course	-3605
▁respond	-3606
▁platelet	-3607
▁Non	-3608
▁choice	-3609
▁tempor	-3610
▁involves	-3611
▁orig	-3612
istics	-3613
▁Met	-3614
rectomy	-3615
▁ovarian	-3616
▁27	-3617
▁Ul	-3618
▁sa	-3619
▁Cor	-3620
▁uncom	-3621
ortion	-3622
▁Group	-3623
▁cirrhosis	-3624
▁gestational	-3625
▁Bach	-3626
▁public	-3627
▁erythem	-3628
▁hearing	-3629
eline	-3630
ervation	-3631
99	-3632
4%),	-3633
▁Mai	-3634
ompan	-3635
▁medi	-3636
▁membrane	-3637
▁rad	-3638
▁nervous	-3639
ED	-3640
pha	-3641
active	-3642
▁spine	-3643
▁involvement	-3644
▁CH	-3645
treat	-3646
▁2020.	-3647
▁characteristic	-3648
▁Duc	-3649
▁infusion	-3650
▁always	-3651
ubin	-3652
▁stable	-3653
▁arr	-3654
▁consider	-3655
agul	-3656
▁(0.	-3657
rotic	-3658
▁AP	-3659
▁March	-3660
▁receptor	-3661
▁22.	-3662
immune	-3663
namic	-3664
▁your	-3665
▁below	-3666
▁structure	-3667
▁34	-3668
▁0.6	-3669
▁April	-3670
▁defic	-3671
▁Assessment	-3672
▁My	-3673
lobulin	-3674
aden	-3675
▁21.	-3676
▁tool	-3677
▁During	-3678
ences	-3679
▁acet	-3680
▁forms	-3681
▁state	-3682
▁intensive	-3683
▁reactions	-3684
▁focus	-3685
▁circum	-3686
▁angle	-3687
▁tissues	-3688
RS	-3689
See	-3690
ork	-3691
▁2010	-3692
▁diff	-3693
istry	-3694
▁alone	-3695
18	-3696
▁unit	-3697
▁laser	-3698
▁impaired	-3699
▁interventions	-3700
MD	-3701
urb	-3702
▁Do	-3703
ivac	-3704
▁accompan	-3705
▁swelling	-3706
iltration	-3707
1).	-3708
▁ischemia	-3709
▁2016	-3710
▁fast	-3711
▁limb	-3712
anh	-3713
tum	-3714
ained	-3715
▁Factors	-3716
IDS	-3717
onstr	-3718
isting	-3719
▁enzyme	-3720
ils	-3721
upp	-3722
ospor	-3723
ulate	-3724
▁antigen	-3725
▁Cancer	-3726
▁recent	-3727
▁37	-3728
stolic	-3729
▁infectious	-3730
opro	-3731
▁pe	-3732
ters	-3733
▁ECG	-3734
▁bel	-3735
valent	-3736
▁adrenal	-3737
▁distress	-3738
▁operative	-3739
know	-3740
▁correc	-3741
ings	-3742
▁(201	-3743
▁prostate	-3744
▁hospitalization	-3745
DS	-3746
▁rot	-3747
orosis	-3748
▁quantit	-3749
lipidemia	-3750
▁weakness	-3751
▁doct	-3752
▁typical	-3753
eps	-3754
▁either	-3755
assium	-3756
▁Long	-3757
▁preterm	-3758
physiology	-3759
urg	-3760
chy	-3761
▁pho	-3762
▁guidelines	-3763
▁AL	-3764
▁directly	-3765
17	-3766
ximal	-3767
▁Overview	-3768
off	-3769
▁Rel	-3770
▁graft	-3771
ould	-3772
▁Caus	-3773
▁caps	-3774
▁prognostic	-3775
▁prepar	-3776
▁demonstr	-3777
▁Knowledge	-3778
▁29	-3779
acin	-3780
tile	-3781
▁Min	-3782
▁Thus	-3783
▁palp	-3784
tember	-3785
▁August	-3786
ract	-3787
▁rang	-3788
icardi	-3789
▁hypert	-3790
▁fistula	-3791
▁parents	-3792
uch	-3793
▁PT	-3794
▁feeding	-3795
udden	-3796
=0.0	-3797
▁10%	-3798
▁absor	-3799
neal	-3800
▁reve	-3801
▁October	-3802
▁progress	-3803
▁Reg	-3804
▁Anal	-3805
▁would	-3806
▁divided	-3807
▁accuracy	-3808
▁developing	-3809
▁vary	-3810
1)	-3811
14	-3812
born	-3813
ureus	-3814
▁angiography	-3815
CD	-3816
lege	-3817
▁iss	-3818
▁Test	-3819
inated	-3820
▁Giang	-3821
▁vision	-3822
▁example	-3823
▁65	-3824
▁medication	-3825
▁pancreatitis	-3826
3%)	-3827
▁aer	-3828
▁tested	-3829
zing	-3830
▁distribution	-3831
pler	-3832
▁Imp	-3833
▁Heart	-3834
aphyloc	-3835
▁section	-3836
▁Tho	-3837
tingu	-3838
produc	-3839
▁gu	-3840
▁meet	-3841
ostomy	-3842
▁subt	-3843
▁tender	-3844
▁removed	-3845
osinophil	-3846
rillation	-3847
cellular	-3848
▁distingu	-3849
▁persistent	-3850
osomal	-3851
ilateral	-3852
OL	-3853
▁experien	-3854
▁interval	-3855
▁4,	-3856
9%),	-3857
dose	-3858
1%),	-3859
▁streng	-3860
asc	-3861
ider	-3862
▁half	-3863
▁prior	-3864
▁aureus	-3865
▁vaccination	-3866
▁AF	-3867
▁release	-3868
▁PR	-3869
hold	-3870
▁femoral	-3871
▁intracranial	-3872
risk	-3873
▁toler	-3874
▁tendon	-3875
▁organs	-3876
aphylococc	-3877
lim	-3878
ional	-3879
▁stent	-3880
▁2015	-3881
istant	-3882
lux	-3883
▁bilateral	-3884
ml	-3885
▁05	-3886
rays	-3887
▁Patho	-3888
▁accid	-3889
▁image	-3890
▁how	-3891
irubin	-3892
negative	-3893
▁strateg	-3894
rate	-3895
▁colorectal	-3896
▁aimed	-3897
▁Pharmacy	-3898
▁(>	-3899
▁surge	-3900
▁caro	-3901
▁find	-3902
linical	-3903
antages	-3904
▁Institute	-3905
agic	-3906
▁suscep	-3907
▁et	-3908
▁summ	-3909
▁techn	-3910
▁Survey	-3911
▁immediately	-3912
▁u	-3913
▁38	-3914
▁stre	-3915
▁dyspnea	-3916
enic	-3917
orph	-3918
▁Engl	-3919
▁diver	-3920
▁September	-3921
men	-3922
ET	-3923
25	-3924
atre	-3925
▁vessels	-3926
known	-3927
ociated	-3928
▁endoscopy	-3929
▁One	-3930
▁accounts	-3931
▁perforation	-3932
▁rehabilitation	-3933
odes	-3934
▁called	-3935
▁milk	-3936
▁thin	-3937
▁minor	-3938
▁esophag	-3939
▁fatigue	-3940
▁symptomatic	-3941
▁direc	-3942
▁creatinine	-3943
▁tachycardia	-3944
▁ing	-3945
▁mat	-3946
ument	-3947
ulations	-3948
▁depends	-3949
▁reason	-3950
▁Serum	-3951
▁Prognosis	-3952
ame	-3953
▁analyzed	-3954
▁develops	-3955
▁material	-3956
▁dom	-3957
hythmias	-3958
▁acquired	-3959
▁Use	-3960
▁cri	-3961
▁defined	-3962
▁off	-3963
▁energy	-3964
▁Purpose	-3965
▁cognitive	-3966
▁Prospective	-3967
▁72	-3968
▁20.	-3969
▁dementia	-3970
▁cholesterol	-3971
utions	-3972
▁containing	-3973
▁Sup	-3974
▁down	-3975
▁Average	-3976
▁pharmac	-3977
ises	-3978
▁sites	-3979
▁American	-3980
duce	-3981
▁amp	-3982
▁cos	-3983
▁enl	-3984
oplasty	-3985
▁capacity	-3986
▁classified	-3987
▁successfully	-3988
▁add	-3989
▁anesthetic	-3990
▁pneumoniae	-3991
▁2012	-3992
▁Lapa	-3993
▁stom	-3994
portive	-3995
▁stages	-3996
▁psoriasis	-3997
▁How	-3998
olytic	-3999
▁software	-4000
▁Characteristics	-4001
▁dan	-4002
▁retro	-4003
▁albumin	-4004
LA	-4005
with	-4006
▁compliance	-4007
▁nas	-4008
▁discuss	-4009
including	-4010
6%)	-4011
▁Keyword	-4012
▁measurement	-4013
Hg	-4014
TI	-4015
bl	-4016
osal	-4017
▁1.0	-4018
astom	-4019
▁Initi	-4020
wh	-4021
ape	-4022
▁39	-4023
ising	-4024
▁delayed	-4025
▁2013	-4026
▁attention	-4027
▁epidem	-4028
▁encephal	-4029
▁particular	-4030
ime	-4031
iotic	-4032
▁gall	-4033
rimary	-4034
▁Total	-4035
bal	-4036
▁0.4	-4037
▁lact	-4038
▁genes	-4039
▁impairment	-4040
▁der	-4041
▁aims	-4042
▁movement	-4043
▁aspiration	-4044
ask	-4045
ibly	-4046
▁tri	-4047
▁2011	-4048
▁proximal	-4049
US	-4050
▁Pain	-4051
▁compression	-4052
▁(2.	-4053
▁plant	-4054
▁infant	-4055
▁potassium	-4056
▁chi	-4057
ocrine	-4058
oppler	-4059
▁foods	-4060
▁diagnose	-4061
▁According	-4062
lox	-4063
▁affects	-4064
▁23.	-4065
▁lowest	-4066
▁appearance	-4067
▁20%	-4068
▁vul	-4069
▁glomer	-4070
▁computed	-4071
▁pathogen	-4072
▁practices	-4073
▁antico	-4074
▁OR	-4075
8%)	-4076
▁communication	-4077
8%).	-4078
▁expl	-4079
ogenic	-4080
▁neurop	-4081
▁systolic	-4082
plete	-4083
atremia	-4084
▁helpful	-4085
▁muscles	-4086
▁occlusion	-4087
ids	-4088
▁rather	-4089
kal	-4090
osupp	-4091
▁incision	-4092
kle	-4093
▁Hai	-4094
▁intubation	-4095
▁regression	-4096
ties	-4097
▁tear	-4098
▁irrit	-4099
▁members	-4100
CC	-4101
MP	-4102
▁5,	-4103
▁act	-4104
▁widely	-4105
erat	-4106
<0.001	-4107
▁toxic	-4108
▁paraclinical	-4109
▁mul	-4110
▁impact	-4111
▁depending	-4112
▁thrombocyt	-4113
▁Data	-4114
ocarcinoma	-4115
Ag	-4116
gia	-4117
▁event	-4118
▁paras	-4119
▁intravenous	-4120
▁mob	-4121
ocellular	-4122
cope	-4123
▁ens	-4124
▁nit	-4125
▁gland	-4126
▁leukemia	-4127
ensitivity	-4128
▁correlated	-4129
▁facilities	-4130
ypass	-4131
▁couns	-4132
▁spread	-4133
▁systems	-4134
▁drin	-4135
▁prom	-4136
▁extra	-4137
▁density	-4138
pite	-4139
▁real	-4140
▁described	-4141
EP	-4142
▁ped	-4143
ochemical	-4144
sm	-4145
▁risks	-4146
SH	-4147
▁kin	-4148
▁rheum	-4149
▁hypotension	-4150
rig	-4151
itud	-4152
▁High	-4153
▁occasionally	-4154
▁mmHg	-4155
ECT	-4156
orp	-4157
▁aw	-4158
▁squ	-4159
grade	-4160
▁sudden	-4161
▁dietary	-4162
▁HPV	-4163
atous	-4164
▁Anti	-4165
▁cholec	-4166
▁amin	-4167
▁influenz	-4168
▁thoracic	-4169
▁Investig	-4170
▁Diab	-4171
▁Prevalence	-4172
▁nail	-4173
partum	-4174
▁eating	-4175
▁administration	-4176
oman	-4177
arrow	-4178
ores	-4179
▁base	-4180
hyp	-4181
▁commune	-4182
▁segment	-4183
▁along	-4184
▁(95%	-4185
▁feas	-4186
▁synt	-4187
ipment	-4188
olysis	-4189
▁mediast	-4190
lyc	-4191
uman	-4192
▁cop	-4193
▁Causes	-4194
▁mitral	-4195
oxid	-4196
▁hemoglobin	-4197
▁fibrillation	-4198
4%)	-4199
side	-4200
▁25.	-4201
▁ant	-4202
▁bypass	-4203
▁poisoning	-4204
▁extraction	-4205
▁Immun	-4206
ception	-4207
▁suit	-4208
▁vari	-4209
▁additional	-4210
▁New	-4211
▁completely	-4212
▁ulcers	-4213
odialysis	-4214
▁MR	-4215
throp	-4216
▁analgesia	-4217
aun	-4218
umab	-4219
▁neu	-4220
ontin	-4221
▁About	-4222
▁improving	-4223
▁mel	-4224
▁excessive	-4225
▁nodules	-4226
▁evaluating	-4227
osterone	-4228
uscitation	-4229
ivacaine	-4230
▁English	-4231
▁protocol	-4232
▁primarily	-4233
▁osteoporosis	-4234
23	-4235
▁radical	-4236
oll	-4237
▁fil	-4238
▁Neuro	-4239
▁separ	-4240
▁stric	-4241
▁units	-4242
▁valid	-4243
▁skills	-4244
▁residual	-4245
▁receiving	-4246
oli	-4247
▁1%	-4248
trum	-4249
▁cry	-4250
ithel	-4251
▁restric	-4252
▁transmission	-4253
hort	-4254
▁Low	-4255
ephal	-4256
stage	-4257
▁absence	-4258
▁cysts	-4259
▁Pediatric	-4260
▁star	-4261
▁monit	-4262
▁College	-4263
VT	-4264
▁(+	-4265
▁27.	-4266
draw	-4267
▁athe	-4268
▁initially	-4269
▁Pathophysiology	-4270
▁famil	-4271
▁nucle	-4272
▁HCC	-4273
▁enough	-4274
▁newborn	-4275
▁insertion	-4276
▁500	-4277
▁sci	-4278
▁leak	-4279
▁exclud	-4280
▁2023	-4281
piratory	-4282
▁carotid	-4283
▁corneal	-4284
▁provides	-4285
▁3%	-4286
▁GI	-4287
▁ent	-4288
▁stain	-4289
▁Op	-4290
▁hair	-4291
▁0.001	-4292
arin	-4293
▁(<	-4294
actic	-4295
▁2014	-4296
▁verteb	-4297
xt	-4298
▁Syndrom	-4299
2%)	-4300
▁records	-4301
▁py	-4302
2%).	-4303
▁26.	-4304
▁stomach	-4305
▁remains	-4306
▁metastatic	-4307
▁31.	-4308
▁doi	-4309
thalm	-4310
▁AIDS	-4311
▁polyps	-4312
▁traumatic	-4313
▁injec	-4314
▁unknown	-4315
▁lymphocy	-4316
feeding	-4317
▁uterine	-4318
1%)	-4319
ectr	-4320
▁bro	-4321
▁appears	-4322
▁molecular	-4323
▁contribute	-4324
3%).	-4325
▁nat	-4326
robial	-4327
▁Antib	-4328
xy	-4329
arthritis	-4330
▁prophylaxis	-4331
▁pow	-4332
▁prep	-4333
▁decreases	-4334
ene	-4335
▁Gl	-4336
▁ICU	-4337
▁enhance	-4338
▁product	-4339
▁75	-4340
urance	-4341
▁adolescents	-4342
ittle	-4343
ptococc	-4344
▁gir	-4345
▁sulf	-4346
▁wors	-4347
▁clinicians	-4348
▁hypertensive	-4349
ta	-4350
ips	-4351
otox	-4352
▁28.	-4353
thyroid	-4354
▁Age	-4355
stetrics	-4356
▁ful	-4357
unting	-4358
ricular	-4359
▁autoimmune	-4360
otr	-4361
rist	-4362
▁Primary	-4363
HA	-4364
▁6,	-4365
▁super	-4366
▁Dif	-4367
▁0.00	-4368
▁defin	-4369
▁inhibitor	-4370
▁participants	-4371
ioid	-4372
rest	-4373
▁she	-4374
omical	-4375
▁house	-4376
▁branch	-4377
▁relief	-4378
▁Out	-4379
arged	-4380
eptic	-4381
▁summary	-4382
▁Disorders	-4383
▁periodon	-4384
▁Thanh	-4385
▁space	-4386
version	-4387
▁gradually	-4388
▁start	-4389
ituitary	-4390
▁optimal	-4391
▁Aim	-4392
4%).	-4393
astro	-4394
igure	-4395
▁quite	-4396
▁indicate	-4397
▁El	-4398
ports	-4399
▁(100	-4400
aundic	-4401
ventricular	-4402
▁2%	-4403
othorax	-4404
▁anastom	-4405
53	-4406
67	-4407
inol	-4408
ocyte	-4409
▁Case	-4410
▁2019.	-4411
OP	-4412
tif	-4413
ocl	-4414
▁anomal	-4415
▁compounds	-4416
▁conclusion	-4417
day	-4418
▁MS	-4419
▁(1)	-4420
▁Gra	-4421
▁mye	-4422
ongue	-4423
▁monitored	-4424
▁see	-4425
actam	-4426
▁slight	-4427
▁consequ	-4428
▁thickness	-4429
▁Mal	-4430
osus	-4431
▁dim	-4432
▁return	-4433
▁disturb	-4434
▁experim	-4435
▁estimated	-4436
▁gram	-4437
▁metabolism	-4438
▁SP	-4439
▁asc	-4440
▁diffuse	-4441
▁trigger	-4442
▁efficiency	-4443
uan	-4444
itamin	-4445
▁AV	-4446
LE	-4447
here	-4448
▁Severe	-4449
xia	-4450
rect	-4451
▁35.	-4452
▁ves	-4453
▁Care	-4454
yle	-4455
▁Gia	-4456
▁joints	-4457
tip	-4458
aundice	-4459
▁contracep	-4460
astolic	-4461
22	-4462
bital	-4463
▁chain	-4464
tered	-4465
▁chlor	-4466
erative	-4467
gestion	-4468
9%)	-4469
6%).	-4470
▁pH	-4471
over	-4472
ulatory	-4473
▁larger	-4474
▁Class	-4475
▁comparison	-4476
▁199	-4477
▁healing	-4478
▁System	-4479
upus	-4480
▁fetus	-4481
▁setting	-4482
▁prescrib	-4483
▁Evaluating	-4484
free	-4485
icitis	-4486
▁Multi	-4487
▁attack	-4488
▁source	-4489
▁paralysis	-4490
▁Information	-4491
ert	-4492
▁ES	-4493
▁endomet	-4494
▁HbA	-4495
▁statistical	-4496
NT	-4497
▁80%	-4498
▁2.5	-4499
▁little	-4500
put	-4501
▁37.	-4502
onitis	-4503
OC	-4504
▁dengue	-4505
▁unless	-4506
allow	-4507
▁medium	-4508
▁alve	-4509
ocytes	-4510
▁noted	-4511
▁transfer	-4512
▁structures	-4513
eli	-4514
▁NT	-4515
▁Laparoscopic	-4516
60	-4517
PH	-4518
▁Rep	-4519
▁fix	-4520
27	-4521
▁Ma	-4522
1%).	-4523
lock	-4524
▁PET	-4525
▁mcg	-4526
▁People	-4527
▁epidural	-4528
▁mill	-4529
▁careg	-4530
iopathic	-4531
▁2009	-4532
astric	-4533
40	-4534
positive	-4535
▁Is	-4536
▁Aut	-4537
▁chall	-4538
▁conventional	-4539
▁33.	-4540
activ	-4541
▁hemody	-4542
▁29.	-4543
hep	-4544
▁Dong	-4545
▁purpose	-4546
effec	-4547
▁focal	-4548
▁disloc	-4549
▁24.	-4550
entially	-4551
▁cesarean	-4552
▁electroly	-4553
try	-4554
ypical	-4555
▁absent	-4556
▁produce	-4557
hyroidism	-4558
▁components	-4559
▁Me	-4560
onance	-4561
▁immunosupp	-4562
▁whole	-4563
▁sensory	-4564
▁Physical	-4565
hers	-4566
▁Red	-4567
iologic	-4568
ophageal	-4569
▁breathing	-4570
load	-4571
perm	-4572
▁past	-4573
▁32.	-4574
MR	-4575
▁Oral	-4576
▁ureteral	-4577
▁independent	-4578
▁Hoa	-4579
amous	-4580
▁ages	-4581
junctiv	-4582
▁mostly	-4583
▁genotype	-4584
3)	-4585
▁herni	-4586
va	-4587
agon	-4588
tide	-4589
▁Indic	-4590
▁mechanism	-4591
5),	-4592
UC	-4593
▁49	-4594
▁66.	-4595
▁war	-4596
▁cultures	-4597
▁consumption	-4598
▁36.	-4599
▁THE	-4600
hydro	-4601
▁minh	-4602
▁psych	-4603
lycemic	-4604
etr	-4605
▁prote	-4606
▁minute	-4607
▁alternative	-4608
clus	-4609
▁Control	-4610
▁suitable	-4611
▁dissection	-4612
uff	-4613
▁curve	-4614
▁molar	-4615
▁withdraw	-4616
9%).	-4617
▁AND	-4618
▁remove	-4619
▁hemodialysis	-4620
30	-4621
ots	-4622
inate	-4623
▁markers	-4624
▁specimens	-4625
▁30.	-4626
▁LDL	-4627
oring	-4628
▁duod	-4629
▁induced	-4630
▁inferior	-4631
app	-4632
▁ray	-4633
▁conn	-4634
orrhea	-4635
▁modified	-4636
BL	-4637
ru	-4638
osing	-4639
aching	-4640
tenance	-4641
▁repeated	-4642
▁pathology	-4643
▁38.	-4644
▁Soc	-4645
lastic	-4646
▁Intra	-4647
▁leads	-4648
▁media	-4649
▁located	-4650
▁interview	-4651
▁understand	-4652
▁Retrospective	-4653
▁deform	-4654
▁ligament	-4655
auc	-4656
▁AT	-4657
gins	-4658
▁provided	-4659
▁objective	-4660
▁subcutaneous	-4661
▁formation	-4662
GFR	-4663
ilic	-4664
▁norm	-4665
▁marked	-4666
resistant	-4667
▁childhood	-4668
],	-4669
MS	-4670
▁pla	-4671
▁trop	-4672
▁variab	-4673
▁profess	-4674
4)	-4675
▁ect	-4676
▁animal	-4677
▁hepatocellular	-4678
▁Tum	-4679
▁tow	-4680
amide	-4681
iring	-4682
▁idiopathic	-4683
▁dyslipidemia	-4684
acterial	-4685
▁malaria	-4686
▁elevation	-4687
▁1:	-4688
▁intr	-4689
▁path	-4690
actions	-4691
▁Ultras	-4692
onatremia	-4693
▁syndromes	-4694
trans	-4695
▁vaccines	-4696
organ	-4697
▁repres	-4698
▁Syndrome	-4699
▁pericardi	-4700
▁57.	-4701
▁sem	-4702
FA	-4703
itic	-4704
wide	-4705
▁Mic	-4706
▁lev	-4707
▁HCMC	-4708
▁randomized	-4709
▁circulation	-4710
otracheal	-4711
▁Infection	-4712
▁outpatient	-4713
ife	-4714
▁spe	-4715
letal	-4716
▁Radi	-4717
▁solid	-4718
▁suggested	-4719
▁morphology	-4720
▁hernia	-4721
▁atheros	-4722
▁mandibular	-4723
▁55.	-4724
▁soon	-4725
▁fraction	-4726
▁WHO	-4727
rosur	-4728
▁deaths	-4729
▁motion	-4730
▁tongue	-4731
▁eosinophil	-4732
▁5-	-4733
▁42.	-4734
domen	-4735
▁ortho	-4736
IP	-4737
omeg	-4738
▁mis	-4739
itting	-4740
overed	-4741
keletal	-4742
▁dialysis	-4743
▁lab	-4744
▁deficits	-4745
ii	-4746
rd	-4747
▁55	-4748
▁LV	-4749
▁62.	-4750
▁oil	-4751
▁Clinic	-4752
▁electr	-4753
▁regimens	-4754
osoc	-4755
▁hom	-4756
cious	-4757
denti	-4758
fered	-4759
natal	-4760
▁viet	-4761
▁liter	-4762
upuncture	-4763
bit	-4764
▁pup	-4765
▁too	-4766
▁room	-4767
▁epile	-4768
▁resonance	-4769
▁metastases	-4770
▁resuscitation	-4771
▁wal	-4772
▁suic	-4773
▁twice	-4774
▁placement	-4775
▁indications	-4776
▁enti	-4777
▁decomp	-4778
▁genital	-4779
▁reduces	-4780
▁jaundice	-4781
▁corticosteroid	-4782
▁48.	-4783
▁Neon	-4784
▁relation	-4785
▁complicated	-4786
ik	-4787
ets	-4788
atoid	-4789
▁prescri	-4790
generation	-4791
▁reference	-4792
▁(%)	-4793
▁cand	-4794
▁nose	-4795
▁maximum	-4796
▁receive	-4797
▁presented	-4798
▁significance	-4799
▁CK	-4800
▁58.	-4801
▁portal	-4802
bo	-4803
hens	-4804
▁hyd	-4805
▁produced	-4806
ush	-4807
idal	-4808
▁pulse	-4809
▁counseling	-4810
▁hemorrhagic	-4811
▁Sim	-4812
▁Type	-4813
▁field	-4814
▁Doppler	-4815
▁healthcare	-4816
▁tenderness	-4817
▁Bl	-4818
▁bul	-4819
microbial	-4820
yph	-4821
▁achieve	-4822
▁minimal	-4823
▁arrhythmias	-4824
▁color	-4825
▁varic	-4826
sti	-4827
▁Sec	-4828
alass	-4829
pes	-4830
loon	-4831
▁resear	-4832
▁embolism	-4833
▁(3.	-4834
omegaly	-4835
▁Identi	-4836
▁cutaneous	-4837
ived	-4838
▁PhD	-4839
▁swe	-4840
oidal	-4841
▁trim	-4842
▁predom	-4843
▁Diabetes	-4844
▁difficulty	-4845
ats	-4846
teral	-4847
▁lymphaden	-4848
▁coagulation	-4849
yg	-4850
▁3-	-4851
▁Am	-4852
▁90%	-4853
▁gon	-4854
▁attem	-4855
▁enrolled	-4856
oint	-4857
▁superior	-4858
▁Pulmonary	-4859
▁46.	-4860
▁arm	-4861
cology	-4862
▁Gastro	-4863
▁authors	-4864
oarthritis	-4865
urgitation	-4866
▁dermatitis	-4867
ze	-4868
▁Describe	-4869
GA	-4870
▁(2)	-4871
erves	-4872
▁ethnic	-4873
▁organisms	-4874
▁premature	-4875
▁indicators	-4876
▁postpartum	-4877
▁40.	-4878
▁load	-4879
▁breath	-4880
▁uncommon	-4881
onds	-4882
iform	-4883
▁Pregn	-4884
▁donor	-4885
▁fluor	-4886
▁finger	-4887
PR	-4888
▁96.	-4889
▁agg	-4890
operation	-4891
▁performance	-4892
oses	-4893
▁girls	-4894
▁learning	-4895
associated	-4896
OT	-4897
▁natural	-4898
▁Staphylococc	-4899
idine	-4900
▁Initial	-4901
ENT	-4902
elf	-4903
used	-4904
▁cavity	-4905
BNP	-4906
▁od	-4907
ocon	-4908
▁elim	-4909
plasty	-4910
▁perman	-4911
▁trials	-4912
▁acidosis	-4913
▁standards	-4914
▁transplant	-4915
▁said	-4916
▁alpha	-4917
kinson	-4918
▁caries	-4919
▁depend	-4920
▁narrow	-4921
▁regular	-4922
36	-4923
▁bodies	-4924
▁preferred	-4925
0%),	-4926
rant	-4927
▁agent	-4928
▁aneurysm	-4929
▁Es	-4930
▁accurate	-4931
▁accompanied	-4932
etry	-4933
▁excre	-4934
▁vitro	-4935
▁Compar	-4936
▁except	-4937
ote	-4938
▁HF	-4939
aces	-4940
oration	-4941
▁reached	-4942
▁quantitative	-4943
▁120	-4944
inding	-4945
▁making	-4946
/4	-4947
wo	-4948
▁Pa	-4949
▁mig	-4950
▁peri	-4951
▁attitudes	-4952
ida	-4953
▁able	-4954
▁polyp	-4955
ynecology	-4956
▁episodes	-4957
rams	-4958
▁61.	-4959
▁bot	-4960
ultaneous	-4961
▁hematoma	-4962
▁41.	-4963
▁97.	-4964
▁lat	-4965
usually	-4966
▁establish	-4967
Co	-4968
▁Cy	-4969
▁hs	-4970
ests	-4971
▁CSF	-4972
▁border	-4973
IL	-4974
lets	-4975
month	-4976
▁devices	-4977
▁etiology	-4978
▁possibly	-4979
ock	-4980
▁42	-4981
▁phot	-4982
▁quick	-4983
▁diastolic	-4984
▁transmitted	-4985
▁presentation	-4986
uv	-4987
▁ann	-4988
lastoma	-4989
ventive	-4990
0%)	-4991
otrop	-4992
ria	-4993
▁45.	-4994
▁magnetic	-4995
▁reproduc	-4996
NS	-4997
▁TR	-4998
ched	-4999
uity	-5000
▁Des	-5001
▁pathogens	-5002
ff	-5003
▁mucosa	-5004
▁benefits	-5005
▁transient	-5006
acts	-5007
▁56.	-5008
▁acne	-5009
▁veget	-5010
anol	-5011
▁liqu	-5012
atosis	-5013
▁placed	-5014
▁VAS	-5015
posed	-5016
tition	-5017
ify	-5018
ump	-5019
▁Wh	-5020
▁Rem	-5021
▁fal	-5022
▁polym	-5023
▁patterns	-5024
▁disability	-5025
▁sufficient	-5026
▁stimulation	-5027
])	-5028
avy	-5029
▁dest	-5030
▁saline	-5031
▁painful	-5032
▁sn	-5033
▁43.	-5034
▁Phu	-5035
▁closure	-5036
▁predicting	-5037
▁antimicrobial	-5038
▁34.	-5039
▁Lymp	-5040
PA	-5041
▁(4.	-5042
▁Poly	-5043
romycin	-5044
bre	-5045
▁way	-5046
▁Food	-5047
▁live	-5048
▁accept	-5049
▁granul	-5050
▁abdomen	-5051
▁excision	-5052
▁anatomical	-5053
▁terms	-5054
▁device	-5055
CV	-5056
aches	-5057
▁Derm	-5058
▁Quang	-5059
▁pituitary	-5060
▁44.	-5061
acent	-5062
earing	-5063
▁hypox	-5064
▁description	-5065
▁lith	-5066
ancies	-5067
▁whose	-5068
ressing	-5069
utum	-5070
ovirus	-5071
upivacaine	-5072
▁53.	-5073
acill	-5074
▁just	-5075
▁operating	-5076
▁hypothyroidism	-5077
▁double	-5078
ociation	-5079
▁CRP	-5080
▁apply	-5081
▁thesis	-5082
KI	-5083
▁72.	-5084
uinal	-5085
usted	-5086
▁Male	-5087
▁give	-5088
▁sperm	-5089
▁cephal	-5090
▁exposed	-5091
▁41	-5092
▁graf	-5093
oxidant	-5094
▁play	-5095
▁Drugs	-5096
▁established	-5097
▁88.	-5098
cemia	-5099
▁fron	-5100
▁lupus	-5101
▁influenza	-5102
▁regurgitation	-5103
▁44	-5104
▁cal	-5105
lobal	-5106
▁infer	-5107
▁instr	-5108
ocytosis	-5109
▁atrophy	-5110
▁Consider	-5111
▁occupational	-5112
tra	-5113
▁invas	-5114
▁account	-5115
▁cyto	-5116
▁IM	-5117
▁Pneum	-5118
▁influence	-5119
28	-5120
PCR	-5121
rad	-5122
▁47	-5123
▁tro	-5124
entan	-5125
otypes	-5126
▁reflux	-5127
▁materials	-5128
▁therapies	-5129
ili	-5130
▁Ur	-5131
icin	-5132
▁(6.	-5133
astic	-5134
ocomp	-5135
resis	-5136
nis	-5137
▁86.	-5138
acial	-5139
▁qual	-5140
▁Current	-5141
▁advantages	-5142
▁68.	-5143
ilis	-5144
▁(+)	-5145
loxacin	-5146
▁fungal	-5147
▁epithel	-5148
▁strength	-5149
▁maintenance	-5150
▁ana	-5151
▁rash	-5152
uscular	-5153
▁cystic	-5154
artments	-5155
80	-5156
▁46	-5157
chol	-5158
ogram	-5159
▁Phong	-5160
▁pedic	-5161
▁51.	-5162
▁gain	-5163
▁unex	-5164
24	-5165
▁(20	-5166
▁susp	-5167
phthalm	-5168
▁History	-5169
▁enzymes	-5170
▁indication	-5171
opo	-5172
▁2008	-5173
levant	-5174
▁lungs	-5175
▁adenocarcinoma	-5176
ector	-5177
orbid	-5178
▁inst	-5179
▁origin	-5180
▁ventil	-5181
▁distinguish	-5182
65	-5183
ems	-5184
▁sequen	-5185
▁thought	-5186
aturation	-5187
▁aneurysms	-5188
▁outpatients	-5189
FS	-5190
anic	-5191
▁tib	-5192
▁assay	-5193
▁scienti	-5194
▁Da	-5195
▁sch	-5196
▁guide	-5197
CH	-5198
bow	-5199
▁65.	-5200
▁six	-5201
aced	-5202
▁1.4	-5203
▁reflex	-5204
▁absorption	-5205
▁2-	-5206
▁eg	-5207
▁Sever	-5208
▁microb	-5209
ocarditis	-5210
▁veins	-5211
ropenia	-5212
▁<0.05).	-5213
▁extreme	-5214
▁54.	-5215
▁lay	-5216
▁five	-5217
iodine	-5218
▁optic	-5219
▁consult	-5220
▁contamin	-5221
rs	-5222
▁47.	-5223
▁App	-5224
▁conc	-5225
▁mast	-5226
inces	-5227
▁Renal	-5228
hepatic	-5229
▁revers	-5230
▁probably	-5231
>0.0	-5232
ging	-5233
orrho	-5234
▁died	-5235
▁appendicitis	-5236
▁bar	-5237
▁displ	-5238
▁closed	-5239
▁fixation	-5240
▁BP	-5241
▁balloon	-5242
▁centers	-5243
▁hypoglycemia	-5244
ables	-5245
▁view	-5246
▁thres	-5247
peritoneal	-5248
34	-5249
DA	-5250
raz	-5251
▁Gram	-5252
▁staging	-5253
▁permanent	-5254
▁supportive	-5255
zed	-5256
▁39.	-5257
▁Vitamin	-5258
cline	-5259
ariate	-5260
clusive	-5261
▁chromos	-5262
▁hyponatremia	-5263
▁43	-5264
rors	-5265
▁aort	-5266
ushing	-5267
▁retin	-5268
acc	-5269
bing	-5270
▁150	-5271
▁spp	-5272
▁Epid	-5273
apenem	-5274
▁embry	-5275
propriate	-5276
wise	-5277
▁wid	-5278
▁cold	-5279
▁communes	-5280
iaz	-5281
SAID	-5282
▁bilirubin	-5283
▁provinces	-5284
ave	-5285
from	-5286
arent	-5287
▁extent	-5288
▁preventing	-5289
▁reproductive	-5290
▁87.	-5291
▁acuity	-5292
▁subsequ	-5293
▁invasion	-5294
▁requiring	-5295
▁identification	-5296
▁59	-5297
opaus	-5298
▁pseud	-5299
▁correl	-5300
▁urethral	-5301
anc	-5302
ras	-5303
▁Fem	-5304
▁dri	-5305
arynx	-5306
▁septal	-5307
▁kidneys	-5308
▁Descriptive	-5309
▁AB	-5310
▁Fol	-5311
▁next	-5312
opausal	-5313
dep	-5314
flow	-5315
▁52.	-5316
▁91.	-5317
▁fully	-5318
▁since	-5319
▁arrest	-5320
▁nerves	-5321
▁determination	-5322
▁Vir	-5323
▁const	-5324
▁becomes	-5325
thyroidism	-5326
▁previously	-5327
▁breastfeeding	-5328
ARS	-5329
arp	-5330
▁az	-5331
▁HCV	-5332
▁slightly	-5333
▁pack	-5334
▁author	-5335
▁critical	-5336
▁easily	-5337
▁despite	-5338
2).	-5339
▁Anat	-5340
▁stimul	-5341
▁localized	-5342
▁Indications	-5343
▁effectively	-5344
DM	-5345
▁64	-5346
▁flo	-5347
▁neur	-5348
mber	-5349
▁mem	-5350
▁Rare	-5351
▁service	-5352
▁incontin	-5353
▁involving	-5354
▁nephrotic	-5355
▁mediastinal	-5356
/0	-5357
▁(5.	-5358
▁60.	-5359
▁Liver	-5360
▁hands	-5361
▁popular	-5362
▁extensive	-5363
aris	-5364
▁hyperg	-5365
rof	-5366
otri	-5367
▁76.	-5368
ropathy	-5369
imer	-5370
▁irrig	-5371
▁baseline	-5372
▁conscious	-5373
▁300	-5374
▁94.	-5375
▁sym	-5376
▁Ninh	-5377
▁burden	-5378
▁cranial	-5379
▁fasting	-5380
▁rhinitis	-5381
alp	-5382
tosis	-5383
▁hard	-5384
▁sick	-5385
▁cycle	-5386
ococcal	-5387
▁diagnosing	-5388
▁demonstrated	-5389
▁71.	-5390
▁Cand	-5391
ocaine	-5392
▁2018.	-5393
ometric	-5394
▁retinal	-5395
▁ablation	-5396
▁Two	-5397
itate	-5398
▁continued	-5399
▁Val	-5400
▁uns	-5401
tural	-5402
▁supply	-5403
▁pharmacy	-5404
AV	-5405
IA	-5406
5%;	-5407
▁rub	-5408
arcoma	-5409
▁Obstetrics	-5410
▁peritoneal	-5411
OM	-5412
▁Str	-5413
▁quad	-5414
▁Dengue	-5415
▁clearance	-5416
▁gestation	-5417
CoV	-5418
isc	-5419
▁Van	-5420
kines	-5421
▁future	-5422
▁leaves	-5423
▁vietnam	-5424
▁unilateral	-5425
▁(7.	-5426
ittent	-5427
▁flaps	-5428
▁ensure	-5429
▁regions	-5430
73	-5431
cul	-5432
pre	-5433
uma	-5434
▁HDL	-5435
▁tit	-5436
▁nonspecific	-5437
▁measurements	-5438
amm	-5439
▁92.	-5440
▁Occ	-5441
clear	-5442
▁apnea	-5443
▁<0.001	-5444
tipation	-5445
▁analyze	-5446
▁medicinal	-5447
▁anatomy	-5448
▁behaviors	-5449
▁sensation	-5450
▁hypertrophy	-5451
▁potentially	-5452
▁73.	-5453
▁78.	-5454
▁Bet	-5455
aginal	-5456
▁Incre	-5457
▁clean	-5458
ivalent	-5459
▁sputum	-5460
▁guidance	-5461
▁Determine	-5462
tox	-5463
norm	-5464
uric	-5465
▁ile	-5466
uation	-5467
▁So	-5468
radi	-5469
▁84.	-5470
▁peak	-5471
▁might	-5472
▁detail	-5473
▁maxillary	-5474
▁preparation	-5475
▁64.	-5476
▁95.	-5477
▁dip	-5478
▁Thong	-5479
▁endotracheal	-5480
▁pneumothorax	-5481
ML	-5482
▁Her	-5483
uccess	-5484
ressants	-5485
▁national	-5486
which	-5487
▁step	-5488
igment	-5489
▁anore	-5490
▁entire	-5491
▁squamous	-5492
▁resources	-5493
▁investigated	-5494
rosp	-5495
▁pac	-5496
group	-5497
▁boys	-5498
▁night	-5499
oce	-5500
▁93.	-5501
▁interm	-5502
▁doctors	-5503
▁osteoarthritis	-5504
ery	-5505
rown	-5506
inter	-5507
rophic	-5508
▁slowly	-5509
▁suture	-5510
ypically	-5511
▁swallow	-5512
▁perfusion	-5513
▁caregivers	-5514
75	-5515
EV	-5516
-201	-5517
ders	-5518
▁numb	-5519
▁Organ	-5520
▁fluids	-5521
▁formula	-5522
▁mucosal	-5523
ticularly	-5524
▁distance	-5525
▁insurance	-5526
▁worldwide	-5527
6)	-5528
▁ke	-5529
omial	-5530
▁candid	-5531
▁donors	-5532
▁output	-5533
▁ectopic	-5534
▁District	-5535
formations	-5536
▁regarding	-5537
EL	-5538
▁30%	-5539
▁Del	-5540
▁liquid	-5541
▁Testing	-5542
▁bu	-5543
▁83.	-5544
athies	-5545
▁carcin	-5546
tibility	-5547
▁started	-5548
▁analgesic	-5549
▁retention	-5550
▁cure	-5551
▁mixed	-5552
▁avoided	-5553
▁literature	-5554
oemb	-5555
▁82.	-5556
otens	-5557
▁zinc	-5558
ocular	-5559
adequate	-5560
▁correction	-5561
▁antioxidant	-5562
▁Up	-5563
ceed	-5564
ugin	-5565
▁Pos	-5566
▁Nove	-5567
▁earli	-5568
areness	-5569
assisted	-5570
▁relieve	-5571
▁younger	-5572
▁continue	-5573
rel	-5574
▁63.	-5575
▁fatal	-5576
▁begins	-5577
▁managed	-5578
▁unclear	-5579
olization	-5580
▁Association	-5581
1),	-5582
ura	-5583
▁7%	-5584
hern	-5585
▁inpatients	-5586
▁90.	-5587
▁bio	-5588
▁uro	-5589
▁basis	-5590
▁detecting	-5591
▁incontinence	-5592
tre	-5593
ticul	-5594
opress	-5595
bladder	-5596
▁whereas	-5597
IG	-5598
▁67.	-5599
uting	-5600
▁heavy	-5601
itudinal	-5602
▁schools	-5603
▁November	-5604
▁abortion	-5605
▁applying	-5606
▁Respiratory	-5607
▁simultaneous	-5608
CE	-5609
▁40%	-5610
▁bab	-5611
▁easy	-5612
▁refl	-5613
▁threshold	-5614
▁recommendations	-5615
▁Both	-5616
opharyngeal	-5617
▁7,	-5618
▁8,	-5619
▁Di	-5620
▁10,	-5621
▁sun	-5622
▁goal	-5623
EF	-5624
▁abuse	-5625
invasive	-5626
▁revealed	-5627
▁satisfied	-5628
▁intraoperative	-5629
TT	-5630
akes	-5631
▁Mon	-5632
▁alkal	-5633
▁United	-5634
▁solutions	-5635
SI	-5636
UT	-5637
▁Also	-5638
▁incom	-5639
▁currently	-5640
▁triglycer	-5641
▁prescribed	-5642
▁rheumatoid	-5643
▁Nhat	-5644
ervative	-5645
▁mineral	-5646
▁designed	-5647
▁sequencing	-5648
orter	-5649
comycin	-5650
reatening	-5651
▁hemodynamic	-5652
▁Postoperative	-5653
/5	-5654
▁ov	-5655
▁Dys	-5656
▁lob	-5657
anted	-5658
▁immunocomp	-5659
▁superficial	-5660
land	-5661
▁equipment	-5662
▁reasons	-5663
omyopathy	-5664
▁secretion	-5665
▁25%	-5666
▁Thi	-5667
▁predis	-5668
EM	-5669
mit	-5670
izes	-5671
omon	-5672
break	-5673
ctomy	-5674
▁eyel	-5675
▁myel	-5676
incter	-5677
▁saliv	-5678
▁(10	-5679
▁70%	-5680
▁Tri	-5681
▁100%,	-5682
▁calculated	-5683
▁Adverse	-5684
▁economic	-5685
▁component	-5686
▁cef	-5687
stitial	-5688
▁proteins	-5689
viral	-5690
▁Women	-5691
▁perit	-5692
▁aerugin	-5693
70	-5694
CL	-5695
▁HP	-5696
▁emo	-5697
▁fill	-5698
▁promp	-5699
▁physician	-5700
▁00	-5701
▁1.3	-5702
pling	-5703
▁means	-5704
ogenous	-5705
▁indicates	-5706
3%;	-5707
asm	-5708
▁52	-5709
achial	-5710
▁recru	-5711
▁Staphylococcus	-5712
9)	-5713
▁81.	-5714
▁IgG	-5715
▁appe	-5716
▁haem	-5717
aucoma	-5718
▁burns	-5719
▁prolif	-5720
▁varies	-5721
▁feasible	-5722
▁extremity	-5723
▁59.	-5724
▁85.	-5725
▁2017.	-5726
▁suffer	-5727
osocomial	-5728
▁anomalies	-5729
junctivitis	-5730
▁neutropenia	-5731
CM	-5732
▁RBC	-5733
▁alle	-5734
▁woman	-5735
cellent	-5736
▁hypers	-5737
▁challen	-5738
▁Var	-5739
utive	-5740
▁Lung	-5741
onding	-5742
▁Enter	-5743
▁diure	-5744
▁waste	-5745
▁adjust	-5746
any	-5747
▁Ca	-5748
psia	-5749
ficiencies	-5750
▁environmental	-5751
▁differentiated	-5752
rog	-5753
opulmonary	-5754
▁Nutrition	-5755
ephritis	-5756
hospital	-5757
▁personal	-5758
▁protection	-5759
▁pathological	-5760
me	-5761
vern	-5762
romised	-5763
ern	-5764
mol	-5765
▁4%	-5766
opia	-5767
resh	-5768
▁und	-5769
▁neurom	-5770
ximately	-5771
▁million	-5772
rid	-5773
uit	-5774
▁ba	-5775
▁400	-5776
▁70.	-5777
▁Wor	-5778
▁accum	-5779
▁neoplas	-5780
ank	-5781
irm	-5782
▁60%	-5783
othel	-5784
▁dyst	-5785
▁fish	-5786
taining	-5787
▁6%	-5788
▁8%	-5789
▁lac	-5790
▁ones	-5791
▁Ben	-5792
inked	-5793
▁ampl	-5794
▁2022.	-5795
yphilis	-5796
▁inguinal	-5797
▁phosphate	-5798
▁contaminated	-5799
▁98.	-5800
▁recip	-5801
▁indices	-5802
▁catheterization	-5803
orphy	-5804
▁mach	-5805
▁what	-5806
▁Effects	-5807
▁reports	-5808
▁comparing	-5809
RNA	-5810
▁TN	-5811
asia	-5812
▁ste	-5813
▁yet	-5814
▁malformations	-5815
HF	-5816
▁umb	-5817
iella	-5818
▁Fever	-5819
▁relax	-5820
▁abnorm	-5821
▁aeruginosa	-5822
▁protective	-5823
▁memory	-5824
alassemia	-5825
90	-5826
oracic	-5827
▁tends	-5828
▁closely	-5829
▁puncture	-5830
olid	-5831
rile	-5832
▁requirements	-5833
/1.	-5834
▁SARS	-5835
▁cholecyst	-5836
▁hyperplasia	-5837
▁sac	-5838
▁consists	-5839
alls	-5840
▁Pit	-5841
▁Skin	-5842
▁inher	-5843
hylactic	-5844
▁drinking	-5845
▁programs	-5846
▁represent	-5847
▁preventive	-5848
26	-5849
pp	-5850
▁fra	-5851
cephal	-5852
proBNP	-5853
▁linear	-5854
▁throat	-5855
▁follows	-5856
▁sterile	-5857
phrag	-5858
▁ging	-5859
▁Chest	-5860
▁melan	-5861
▁puber	-5862
▁substances	-5863
▁Fl	-5864
▁ket	-5865
ineph	-5866
istered	-5867
treated	-5868
▁implant	-5869
▁assessing	-5870
hi	-5871
arn	-5872
▁drop	-5873
eriatric	-5874
liminary	-5875
▁intensity	-5876
odg	-5877
▁77.	-5878
annel	-5879
ograph	-5880
▁endocrine	-5881
▁anticoagul	-5882
▁collection	-5883
oz	-5884
▁read	-5885
▁fibrin	-5886
▁induction	-5887
▁equivalent	-5888
SV	-5889
UL	-5890
ACE	-5891
then	-5892
▁log	-5893
ohist	-5894
▁2007	-5895
▁Scre	-5896
▁plex	-5897
▁elbow	-5898
▁laryngeal	-5899
amma	-5900
▁pall	-5901
▁ankle	-5902
▁categ	-5903
▁fatty	-5904
particularly	-5905
8)	-5906
<0,	-5907
cor	-5908
▁Hg	-5909
tible	-5910
▁cover	-5911
▁Rarely	-5912
▁consequences	-5913
▁heat	-5914
▁Duong	-5915
▁substance	-5916
7%;	-5917
rium	-5918
▁Hel	-5919
absor	-5920
▁Meas	-5921
▁atherosclerosis	-5922
-6	-5923
fully	-5924
vision	-5925
▁toward	-5926
▁balance	-5927
▁54	-5928
▁(8.	-5929
▁Bre	-5930
▁break	-5931
▁corresp	-5932
reen	-5933
▁Thu	-5934
▁valu	-5935
▁aorta	-5936
otensin	-5937
▁Multiple	-5938
▁alveolar	-5939
▁dominant	-5940
▁departments	-5941
uvant	-5942
▁(200	-5943
▁prompt	-5944
▁polymorph	-5945
ACT	-5946
ATION	-5947
▁Prov	-5948
▁stabil	-5949
hydration	-5950
▁comorbid	-5951
SP	-5952
▁06	-5953
▁carry	-5954
otripsy	-5955
esophageal	-5956
▁remission	-5957
▁vertebral	-5958
▁extremities	-5959
▁generalized	-5960
urm	-5961
▁Vac	-5962
small	-5963
▁depth	-5964
▁heter	-5965
▁outbreak	-5966
▁functions	-5967
▁001	-5968
▁fasc	-5969
▁lens	-5970
▁smear	-5971
▁giving	-5972
BS	-5973
▁1000	-5974
▁gang	-5975
▁wave	-5976
▁Covid	-5977
▁rural	-5978
entanyl	-5979
requency	-5980
▁sclerosis	-5981
▁amb	-5982
aster	-5983
▁tric	-5984
bruary	-5985
izumab	-5986
▁sources	-5987
▁tolerance	-5988
▁Endoscopic	-5989
▁susceptibility	-5990
▁Based	-5991
TP	-5992
obic	-5993
▁viol	-5994
ulties	-5995
infection	-5996
fib	-5997
▁Prop	-5998
▁trache	-5999
▁therefore	-6000
▁ce	-6001
▁calcul	-6002
▁branches	-6003
rous	-6004
▁Psy	-6005
▁Sho	-6006
estive	-6007
▁models	-6008
▁parenchy	-6009
▁practition	-6010
bits	-6011
▁And	-6012
▁mix	-6013
▁harm	-6014
▁symp	-6015
▁toxin	-6016
▁prenatal	-6017
▁experimental	-6018
agia	-6019
▁Only	-6020
▁Pres	-6021
▁immo	-6022
ecutive	-6023
▁angina	-6024
▁transc	-6025
▁wounds	-6026
▁Material	-6027
▁adjacent	-6028
▁document	-6029
35	-6030
onate	-6031
▁figure	-6032
▁intern	-6033
▁reviewed	-6034
▁recognized	-6035
▁contamination	-6036
▁80.	-6037
▁Kle	-6038
raphy	-6039
▁Spec	-6040
▁Identif	-6041
▁stunting	-6042
▁excellent	-6043
▁neuropathy	-6044
▁03	-6045
avor	-6046
roun	-6047
▁mask	-6048
esides	-6049
▁morph	-6050
▁medial	-6051
▁ventricle	-6052
anti	-6053
▁1.8	-6054
▁Vinh	-6055
phragm	-6056
▁2015.	-6057
▁Pseud	-6058
▁adhes	-6059
▁basic	-6060
ractory	-6061
▁dosage	-6062
position	-6063
▁beginning	-6064
▁predominant	-6065
▁Hypertension	-6066
▁hyperthyroidism	-6067
▁Fib	-6068
yloid	-6069
▁team	-6070
▁Contraindic	-6071
UD	-6072
oside	-6073
▁chor	-6074
▁obese	-6075
▁encour	-6076
▁placent	-6077
▁families	-6078
▁determining	-6079
▁56	-6080
acco	-6081
riers	-6082
▁subs	-6083
ochrom	-6084
▁radial	-6085
▁visible	-6086
▁scientific	-6087
▁laparoscopy	-6088
▁intermittent	-6089
CRP	-6090
▁intere	-6091
▁poorly	-6092
▁selective	-6093
▁biological	-6094
▁cent	-6095
▁shorter	-6096
▁stopped	-6097
▁variables	-6098
▁physicians	-6099
▁CA	-6100
▁whom	-6101
▁irreg	-6102
▁prolapse	-6103
▁strongly	-6104
▁CP	-6105
▁tet	-6106
▁Labor	-6107
▁Second	-6108
▁phosph	-6109
plements	-6110
▁awareness	-6111
appropriate	-6112
▁anastomosis	-6113
TR	-6114
▁3.5	-6115
▁Sch	-6116
▁warm	-6117
bsiella	-6118
plained	-6119
▁inadequate	-6120
▁spontaneously	-6121
▁RES	-6122
acute	-6123
▁Plas	-6124
▁false	-6125
▁parts	-6126
▁orbital	-6127
▁Nutritional	-6128
▁(1,	-6129
▁69.	-6130
▁benz	-6131
▁cohort	-6132
▁ocular	-6133
▁clearly	-6134
▁erythema	-6135
▁prepared	-6136
▁receptors	-6137
▁biochemical	-6138
▁fresh	-6139
▁radio	-6140
▁States	-6141
▁regard	-6142
▁acupuncture	-6143
/10	-6144
hor	-6145
ony	-6146
▁Hy	-6147
ours	-6148
strual	-6149
▁Before	-6150
▁questions	-6151
▁pregnancies	-6152
usp	-6153
ideo	-6154
▁miss	-6155
iability	-6156
tivariate	-6157
▁Neonatal	-6158
▁apparent	-6159
▁minimally	-6160
▁trimester	-6161
RT	-6162
▁tip	-6163
hyper	-6164
ients	-6165
change	-6166
uments	-6167
▁deriv	-6168
comfort	-6169
▁Overall	-6170
▁surgeon	-6171
▁February	-6172
±1	-6173
hib	-6174
▁belie	-6175
▁ejection	-6176
▁testosterone	-6177
BP	-6178
▁2.0	-6179
▁erad	-6180
▁probe	-6181
▁country	-6182
▁seconds	-6183
▁anatomic	-6184
▁strategy	-6185
ochemistry	-6186
▁processing	-6187
▁structural	-6188
▁constipation	-6189
▁endocarditis	-6190
▁cardiomyopathy	-6191
anth	-6192
ecal	-6193
rees	-6194
SAIDs	-6195
iated	-6196
vular	-6197
▁rhin	-6198
▁interc	-6199
▁amounts	-6200
onephritis	-6201
▁gallbladder	-6202
▁peritonitis	-6203
▁neurological	-6204
AA	-6205
▁CV	-6206
hour	-6207
▁binh	-6208
▁travel	-6209
▁channel	-6210
▁personality	-6211
tral	-6212
▁12,	-6213
lactam	-6214
ullary	-6215
▁regional	-6216
▁variable	-6217
tilization	-6218
▁mechanisms	-6219
-3	-6220
▁gel	-6221
ocrin	-6222
▁Good	-6223
▁alter	-6224
▁option	-6225
▁plexus	-6226
▁suicide	-6227
▁epilepsy	-6228
rehens	-6229
▁transport	-6230
▁nephropathy	-6231
▁hyperglycemia	-6232
▁histopathology	-6233
CS	-6234
ged	-6235
tor	-6236
▁Sh	-6237
onset	-6238
▁0.05	-6239
▁lost	-6240
▁Usually	-6241
inephrine	-6242
▁decreasing	-6243
ier	-6244
zen	-6245
▁Ol	-6246
▁Tox	-6247
uration	-6248
▁quickly	-6249
▁dilation	-6250
▁58	-6251
oler	-6252
▁Cardiac	-6253
controlled	-6254
▁nephrectomy	-6255
▁Bac	-6256
▁ring	-6257
▁leakage	-6258
▁Parkinson	-6259
▁responses	-6260
▁increasingly	-6261
▁longitudinal	-6262
▁consciousness	-6263
▁74.	-6264
▁89.	-6265
▁Injur	-6266
▁follic	-6267
▁erythro	-6268
treatment	-6269
▁improves	-6270
▁esophagus	-6271
▁individuals	-6272
ohyd	-6273
test	-6274
▁1.6	-6275
brile	-6276
idney	-6277
elihood	-6278
abdominal	-6279
▁aggressive	-6280
▁supplementation	-6281
▁Rate	-6282
ologist	-6283
▁Screening	-6284
▁Congenital	-6285
bic	-6286
▁ER	-6287
▁Eye	-6288
▁earlier	-6289
▁infiltr	-6290
29	-6291
▁SD	-6292
atch	-6293
▁tons	-6294
▁trem	-6295
▁plays	-6296
▁extracts	-6297
▁ophthalm	-6298
▁Emergency	-6299
2),	-6300
unk	-6301
olus	-6302
▁Stre	-6303
▁added	-6304
effective	-6305
▁cellular	-6306
▁Pregnancy	-6307
lol	-6308
▁75.	-6309
ulted	-6310
▁0.05.	-6311
▁action	-6312
▁nosocomial	-6313
▁subsequent	-6314
ories	-6315
▁exclude	-6316
sh	-6317
▁9,	-6318
rief	-6319
▁princ	-6320
▁valuable	-6321
▁accidents	-6322
▁selection	-6323
▁synthesis	-6324
trex	-6325
▁2016.	-6326
▁enlarge	-6327
▁epiderm	-6328
▁producing	-6329
but	-6330
ietic	-6331
ungal	-6332
odgkin	-6333
▁splen	-6334
▁analys	-6335
▁changed	-6336
icobacter	-6337
athyroidism	-6338
▁Gynecology	-6339
▁glomerular	-6340
▁experienced	-6341
▁51	-6342
level	-6343
▁lobe	-6344
▁glands	-6345
▁herpes	-6346
▁though	-6347
▁uterus	-6348
▁capsule	-6349
▁periodontal	-6350
umen	-6351
▁dors	-6352
itative	-6353
▁plaque	-6354
▁immunity	-6355
▁differentiate	-6356
45	-6357
uous	-6358
bacco	-6359
▁acids	-6360
▁skull	-6361
▁intest	-6362
▁glaucoma	-6363
OD	-6364
▁50.	-6365
▁bad	-6366
▁ele	-6367
iliac	-6368
▁danger	-6369
▁Several	-6370
▁ethanol	-6371
▁viruses	-6372
▁estrogen	-6373
▁extended	-6374
▁morphine	-6375
▁normally	-6376
▁extracted	-6377
ads	-6378
oin	-6379
▁pg	-6380
moid	-6381
▁Car	-6382
▁lik	-6383
orage	-6384
<0.001).	-6385
▁Systemic	-6386
▁abscesses	-6387
▁definitive	-6388
oqu	-6389
▁Pear	-6390
▁emplo	-6391
▁cholang	-6392
▁persist	-6393
▁overload	-6394
▁histological	-6395
▁interstitial	-6396
▁radiotherapy	-6397
33	-6398
71	-6399
▁ACE	-6400
▁kit	-6401
▁van	-6402
ulent	-6403
▁salt	-6404
IH	-6405
▁69	-6406
ffic	-6407
▁inv	-6408
▁Arter	-6409
▁global	-6410
▁promin	-6411
▁discomfort	-6412
▁exacerbation	-6413
/202	-6414
hout	-6415
▁HCM	-6416
▁ide	-6417
▁bene	-6418
▁minimize	-6419
▁Klebsiella	-6420
▁cholecystectomy	-6421
▁hue	-6422
▁intro	-6423
▁nearly	-6424
▁chromat	-6425
▁disturbances	-6426
jug	-6427
▁49.	-6428
▁75%	-6429
▁har	-6430
▁hered	-6431
▁sedation	-6432
4).	-6433
msel	-6434
▁103	-6435
▁emer	-6436
▁issues	-6437
specific	-6438
▁Diseases	-6439
▁reliable	-6440
▁contraindicated	-6441
▁epidemiological	-6442
ABP	-6443
▁amn	-6444
ezing	-6445
▁incid	-6446
▁scler	-6447
▁obvious	-6448
▁variety	-6449
▁placenta	-6450
7)	-6451
76	-6452
ects	-6453
▁clo	-6454
▁jaw	-6455
ellow	-6456
ystic	-6457
▁paro	-6458
omonas	-6459
▁Lymph	-6460
▁bones	-6461
▁catar	-6462
▁seizure	-6463
▁ingestion	-6464
▁probability	-6465
▁manifestation	-6466
max	-6467
▁DM	-6468
▁Sm	-6469
rocy	-6470
▁2000	-6471
plicated	-6472
▁pedicle	-6473
▁Oncology	-6474
▁controls	-6475
▁decision	-6476
▁directed	-6477
ided	-6478
▁tun	-6479
acting	-6480
▁inhal	-6481
▁laryng	-6482
▁allergy	-6483
▁themsel	-6484
▁atypical	-6485
▁Hepatitis	-6486
▁Management	-6487
▁withdrawal	-6488
▁intermediate	-6489
ext	-6490
▁far	-6491
block	-6492
erous	-6493
▁Normal	-6494
▁Further	-6495
▁measuring	-6496
▁remaining	-6497
▁Infections	-6498
▁difficulties	-6499
clo	-6500
olute	-6501
gether	-6502
rology	-6503
oprotein	-6504
▁together	-6505
2;	-6506
can	-6507
▁2)	-6508
▁cycles	-6509
▁Imaging	-6510
PI	-6511
mar	-6512
▁MT	-6513
amic	-6514
osed	-6515
▁Sal	-6516
ophen	-6517
▁2005	-6518
▁Head	-6519
andemic	-6520
▁iodine	-6521
ithiasis	-6522
▁occurring	-6523
▁consistent	-6524
▁likelihood	-6525
▁identifying	-6526
AI	-6527
▁But	-6528
▁tymp	-6529
▁relapse	-6530
▁hemorrho	-6531
▁sampling	-6532
▁themselves	-6533
▁consecutive	-6534
▁supplements	-6535
drug	-6536
letion	-6537
▁Europ	-6538
▁analy	-6539
istance	-6540
▁bauman	-6541
▁destruc	-6542
▁axillary	-6543
▁circumference	-6544
sAg	-6545
utis	-6546
▁anap	-6547
▁falls	-6548
▁encephalitis	-6549
ellar	-6550
pects	-6551
ropho	-6552
▁devi	-6553
▁keep	-6554
▁antagon	-6555
▁Abdominal	-6556
III	-6557
▁250	-6558
▁AKI	-6559
▁inj	-6560
▁Aims	-6561
▁scar	-6562
ilical	-6563
▁width	-6564
▁examine	-6565
▁lactate	-6566
▁endothel	-6567
▁neutroph	-6568
▁dysplasia	-6569
▁deficiencies	-6570
▁arteri	-6571
▁puberty	-6572
▁thoracoscopic	-6573
MT	-6574
ror	-6575
ophy	-6576
▁ion	-6577
▁sph	-6578
eremia	-6579
itions	-6580
▁costs	-6581
▁waist	-6582
▁across	-6583
▁dermat	-6584
▁broncho	-6585
▁53	-6586
aceu	-6587
worm	-6588
▁Abs	-6589
irium	-6590
itant	-6591
▁murm	-6592
▁rule	-6593
▁basal	-6594
▁sugar	-6595
▁spectrum	-6596
▁stability	-6597
▁strategies	-6598
ING	-6599
▁3.1	-6600
▁rib	-6601
ritin	-6602
uided	-6603
▁cond	-6604
▁cruc	-6605
hyroid	-6606
▁artic	-6607
▁palsy	-6608
▁syring	-6609
▁chromosome	-6610
/6	-6611
EO	-6612
▁CKD	-6613
▁arch	-6614
▁coma	-6615
▁uric	-6616
estern	-6617
▁shape	-6618
▁extremely	-6619
▁Classification	-6620
ait	-6621
ban	-6622
0%).	-6623
angu	-6624
▁Ery	-6625
▁arth	-6626
▁spond	-6627
▁resolve	-6628
▁immunohist	-6629
▁62	-6630
take	-6631
erebral	-6632
▁peptic	-6633
▁suspic	-6634
▁vasopress	-6635
▁investigation	-6636
arter	-6637
▁impl	-6638
▁wrist	-6639
lampsia	-6640
▁refractory	-6641
▁proteinuria	-6642
▁Investigation	-6643
▁Bone	-6644
▁happ	-6645
▁contents	-6646
▁interest	-6647
▁pandemic	-6648
▁diaphragm	-6649
48	-6650
EMI	-6651
ices	-6652
ives	-6653
▁1.9	-6654
▁Tub	-6655
▁cas	-6656
▁cran	-6657
stable	-6658
▁conservative	-6659
56	-6660
HD	-6661
3).	-6662
▁Tran	-6663
iliary	-6664
ologous	-6665
▁Anatomy	-6666
▁Quality	-6667
▁lithotripsy	-6668
lous	-6669
▁egg	-6670
genic	-6671
▁tran	-6672
atelet	-6673
ughout	-6674
▁dissem	-6675
▁infertility	-6676
ioids	-6677
▁cycl	-6678
▁aging	-6679
▁brachial	-6680
▁duodenal	-6681
▁herniation	-6682
38	-6683
wn	-6684
avic	-6685
▁gout	-6686
▁tren	-6687
▁World	-6688
▁cartil	-6689
▁opioid	-6690
▁feeling	-6691
aceutical	-6692
articular	-6693
pedic	-6694
▁integ	-6695
▁vesic	-6696
rospinal	-6697
▁antigens	-6698
▁platelets	-6699
isp	-6700
▁La	-6701
orth	-6702
▁0.1	-6703
▁aud	-6704
▁feel	-6705
▁thym	-6706
▁disrup	-6707
▁marker	-6708
▁Candida	-6709
▁hormones	-6710
▁tracheal	-6711
▁routinely	-6712
▁approximately	-6713
▁decompression	-6714
▁HR	-6715
▁Ang	-6716
▁HLA	-6717
▁ker	-6718
ensis	-6719
▁(11.	-6720
▁(16.	-6721
▁Nhan	-6722
▁Intern	-6723
▁accident	-6724
▁staining	-6725
▁gastritis	-6726
▁unexplained	-6727
▁masses	-6728
▁starting	-6729
▁irregular	-6730
▁penicillin	-6731
2%;	-6732
▁Main	-6733
▁plants	-6734
▁opening	-6735
▁Hematology	-6736
▁hereditary	-6737
▁susceptible	-6738
4%;	-6739
eck	-6740
▁CL	-6741
▁Inc	-6742
▁tre	-6743
esium	-6744
▁surve	-6745
usiness	-6746
▁smaller	-6747
▁abnormality	-6748
31	-6749
EG	-6750
nh	-6751
0.00	-6752
stim	-6753
wing	-6754
▁Calc	-6755
▁ESBL	-6756
▁sched	-6757
▁usual	-6758
▁failed	-6759
▁periods	-6760
PT	-6761
rier	-6762
ulas	-6763
▁Vas	-6764
▁rig	-6765
iovenous	-6766
▁glomerul	-6767
▁hematuria	-6768
▁recruited	-6769
▁sinusitis	-6770
▁antibacterial	-6771
antib	-6772
omnia	-6773
▁band	-6774
▁foss	-6775
ectasis	-6776
▁methyl	-6777
▁consist	-6778
▁suggesting	-6779
▁Cir	-6780
▁got	-6781
edema	-6782
▁Time	-6783
actory	-6784
iotics	-6785
▁Chang	-6786
enteric	-6787
▁Breast	-6788
▁fingers	-6789
▁immobil	-6790
▁participate	-6791
gent	-6792
▁pay	-6793
▁100%.	-6794
▁vital	-6795
▁worse	-6796
onazole	-6797
opoietic	-6798
▁machine	-6799
▁student	-6800
▁Differen	-6801
▁swallowing	-6802
etal	-6803
poses	-6804
▁cham	-6805
ometry	-6806
▁Child	-6807
▁dysph	-6808
▁digital	-6809
▁profile	-6810
ithromycin	-6811
▁excretion	-6812
▁throughout	-6813
▁RNA	-6814
▁Chem	-6815
▁EGFR	-6816
▁biom	-6817
ressure	-6818
▁screen	-6819
▁feet	-6820
albumin	-6821
▁molars	-6822
activity	-6823
▁carbapenem	-6824
EA	-6825
HR	-6826
cm	-6827
▁2.4	-6828
▁79.	-6829
▁desc	-6830
trexate	-6831
▁humans	-6832
rehensive	-6833
▁conclusions	-6834
tur	-6835
▁15%	-6836
▁pel	-6837
=0.00	-6838
▁Cell	-6839
iences	-6840
▁doing	-6841
▁doctor	-6842
traction	-6843
▁storage	-6844
▁randomly	-6845
▁referred	-6846
avirus	-6847
estyle	-6848
▁controll	-6849
▁autosomal	-6850
▁extension	-6851
▁Diagnostic	-6852
▁dislocation	-6853
resp	-6854
▁fro	-6855
▁(12.	-6856
▁broad	-6857
▁pages	-6858
▁Follow	-6859
▁manage	-6860
▁tibial	-6861
▁depressive	-6862
▁final	-6863
erectomy	-6864
ifically	-6865
▁recover	-6866
▁Tu	-6867
hotic	-6868
▁explo	-6869
▁schiz	-6870
▁tablets	-6871
▁exercises	-6872
▁Additional	-6873
▁complement	-6874
▁electrolyte	-6875
▁relationships	-6876
▁EF	-6877
▁lot	-6878
aceae	-6879
uclear	-6880
zation	-6881
▁floor	-6882
▁sequel	-6883
▁digestive	-6884
ISA	-6885
kers	-6886
after	-6887
merase	-6888
achment	-6889
▁otherwise	-6890
▁providing	-6891
▁microscopic	-6892
▁streptococc	-6893
DG	-6894
car	-6895
▁dy	-6896
▁aid	-6897
▁agon	-6898
▁dust	-6899
▁leaf	-6900
▁endemic	-6901
etobacter	-6902
▁Pan	-6903
▁Son	-6904
▁Hung	-6905
▁Nurs	-6906
▁pump	-6907
▁remed	-6908
▁changing	-6909
▁suffered	-6910
▁temporal	-6911
▁cephalospor	-6912
YP	-6913
▁DD	-6914
▁MI	-6915
▁bic	-6916
▁lid	-6917
▁debr	-6918
▁list	-6919
riends	-6920
▁Fract	-6921
▁newly	-6922
▁otitis	-6923
▁Society	-6924
▁attacks	-6925
▁steroid	-6926
▁exchange	-6927
▁epithelial	-6928
▁bupivacaine	-6929
▁interactions	-6930
sur	-6931
portun	-6932
▁build	-6933
▁expect	-6934
▁flexion	-6935
▁syphilis	-6936
▁Laboratory	-6937
▁restriction	-6938
da	-6939
sw	-6940
▁2:	-6941
▁1.7	-6942
▁cot	-6943
atell	-6944
ister	-6945
▁look	-6946
abolic	-6947
▁tobacco	-6948
▁severely	-6949
▁acceptable	-6950
▁68	-6951
▁Prac	-6952
▁surgeons	-6953
▁conduction	-6954
▁inappropriate	-6955
ink	-6956
▁urea	-6957
rotomy	-6958
▁10.10	-6959
▁attemp	-6960
▁Infants	-6961
▁emotional	-6962
▁Ultrasound	-6963
▁presenting	-6964
▁prescription	-6965
▁(9.	-6966
metic	-6967
▁inserted	-6968
ABG	-6969
falls	-6970
▁seek	-6971
▁agree	-6972
▁demand	-6973
▁recently	-6974
▁movements	-6975
▁sphincter	-6976
avi	-6977
lamy	-6978
▁Men	-6979
▁traffic	-6980
uccessful	-6981
▁Position	-6982
▁properties	-6983
▁observation	-6984
▁(≥	-6985
▁04	-6986
▁key	-6987
rated	-6988
stein	-6989
▁turn	-6990
omatic	-6991
▁domes	-6992
▁neural	-6993
▁prediction	-6994
▁9%	-6995
aret	-6996
azol	-6997
▁DVT	-6998
▁Neph	-6999
▁ward	-7000
▁fossa	-7001
▁carbon	-7002
▁hemost	-7003
▁Intensive	-7004
▁differential	-7005
95	-7006
▁02	-7007
▁57	-7008
loph	-7009
eness	-7010
iceal	-7011
igned	-7012
▁meth	-7013
▁HBsAg	-7014
▁cryst	-7015
▁equal	-7016
▁reach	-7017
mediated	-7018
▁Complete	-7019
▁derivatives	-7020
6%;	-7021
▁67	-7022
▁tur	-7023
resia	-7024
tisol	-7025
▁(10.	-7026
ficacy	-7027
▁vocal	-7028
▁eyelid	-7029
▁dilated	-7030
▁Specific	-7031
▁parenteral	-7032
▁retinopathy	-7033
▁embolization	-7034
▁exacerbations	-7035
▁Sw	-7036
▁Diet	-7037
▁unlike	-7038
▁walking	-7039
▁contains	-7040
▁comorbidities	-7041
CN	-7042
LD	-7043
deg	-7044
▁76	-7045
▁2006	-7046
opause	-7047
▁force	-7048
▁kerat	-7049
▁silic	-7050
throplasty	-7051
▁deformity	-7052
▁inpatient	-7053
98	-7054
▁Fam	-7055
▁Ure	-7056
▁big	-7057
▁Tech	-7058
▁cuff	-7059
▁regularly	-7060
▁relatives	-7061
▁Transfusion	-7062
▁intravascular	-7063
8%;	-7064
9%;	-7065
▁Er	-7066
▁3.0	-7067
▁antif	-7068
▁lines	-7069
▁towards	-7070
▁Ministry	-7071
▁blockers	-7072
RA	-7073
plastic	-7074
▁counts	-7075
▁recovered	-7076
▁vancomycin	-7077
▁born	-7078
▁core	-7079
▁fluc	-7080
▁legs	-7081
▁true	-7082
orough	-7083
▁2013.	-7084
▁issue	-7085
▁objects	-7086
▁ventilator	-7087
▁1)	-7088
merc	-7089
▁ALT	-7090
▁Sel	-7091
▁tors	-7092
▁roots	-7093
▁intell	-7094
▁observ	-7095
▁recess	-7096
▁prednis	-7097
rosurgery	-7098
▁Studying	-7099
▁cytokines	-7100
▁conversion	-7101
1%;	-7102
▁Vol	-7103
chron	-7104
▁Guid	-7105
iative	-7106
▁pancreas	-7107
mus	-7108
▁85	-7109
flex	-7110
asone	-7111
going	-7112
▁blunt	-7113
idazole	-7114
▁degrees	-7115
▁Description	-7116
▁1.2	-7117
apter	-7118
▁fair	-7119
▁prev	-7120
▁expected	-7121
▁Mortality	-7122
▁intestine	-7123
▁objectives	-7124
▁perforator	-7125
▁composition	-7126
▁Ag	-7127
▁UTI	-7128
chers	-7129
▁Step	-7130
igaret	-7131
▁empir	-7132
▁urban	-7133
▁Pearls	-7134
▁anorexia	-7135
▁cartilage	-7136
▁membranes	-7137
nii	-7138
▁11,	-7139
▁(2).	-7140
▁hemolytic	-7141
▁understanding	-7142
▁Cardiovascular	-7143
▁Du	-7144
ameth	-7145
▁Chol	-7146
isions	-7147
ticaria	-7148
▁allerg	-7149
▁ascites	-7150
▁outside	-7151
▁Pitfalls	-7152
▁testicular	-7153
IF	-7154
era	-7155
▁Pub	-7156
uspid	-7157
▁sple	-7158
▁choled	-7159
▁aspects	-7160
▁opportun	-7161
▁teaching	-7162
threatening	-7163
▁behavioral	-7164
▁hepatectomy	-7165
OH	-7166
enz	-7167
ept	-7168
iro	-7169
▁61	-7170
work	-7171
▁AFP	-7172
▁Sex	-7173
ronch	-7174
incial	-7175
▁shunt	-7176
omatous	-7177
▁herbal	-7178
▁pathway	-7179
▁synthes	-7180
▁Pediatrics	-7181
▁encephalopathy	-7182
HC	-7183
▁PD	-7184
▁SU	-7185
more	-7186
▁PCI	-7187
facial	-7188
oscope	-7189
olution	-7190
▁allows	-7191
▁Recommend	-7192
BD	-7193
GI	-7194
hex	-7195
otyp	-7196
▁his	-7197
▁05).	-7198
▁moun	-7199
▁oxid	-7200
ochond	-7201
▁penet	-7202
▁Thromb	-7203
▁precip	-7204
▁prominent	-7205
▁discharged	-7206
,"	-7207
oy	-7208
▁put	-7209
oclonal	-7210
▁Female	-7211
▁cholest	-7212
unctional	-7213
▁interfere	-7214
▁umbilical	-7215
37	-7216
42	-7217
▁RV	-7218
▁Equ	-7219
▁name	-7220
tivation	-7221
▁responsible	-7222
MV	-7223
▁66	-7224
mean	-7225
▁imm	-7226
onium	-7227
▁Acin	-7228
control	-7229
mission	-7230
▁Cortic	-7231
ogenesis	-7232
▁distric	-7233
▁EV	-7234
▁paper	-7235
▁belong	-7236
▁contro	-7237
▁aspirin	-7238
▁planning	-7239
▁surgically	-7240
EC	-7241
gow	-7242
idity	-7243
▁SPSS	-7244
▁layer	-7245
▁mobil	-7246
▁offic	-7247
ystitis	-7248
▁differentiation	-7249
▁AN	-7250
▁Rh	-7251
calc	-7252
rady	-7253
▁tap	-7254
▁stra	-7255
▁uses	-7256
mental	-7257
▁blind	-7258
▁refer	-7259
acquired	-7260
▁thereby	-7261
▁subtypes	-7262
▁baumannii	-7263
▁professional	-7264
▁interventional	-7265
ohn	-7266
>0.05).	-7267
▁Median	-7268
▁papill	-7269
▁menstrual	-7270
irs	-7271
▁VID	-7272
▁Tric	-7273
▁bring	-7274
▁stiff	-7275
▁spleen	-7276
▁Analysis	-7277
▁discussed	-7278
▁lifestyle	-7279
▁analgesics	-7280
▁pathologic	-7281
▁enlargement	-7282
lit	-7283
▁dent	-7284
▁coord	-7285
eclampsia	-7286
▁challenge	-7287
▁cardiopulmonary	-7288
58	-7289
umn	-7290
▁15,	-7291
▁Cal	-7292
▁Tien	-7293
▁olig	-7294
▁Scale	-7295
▁tools	-7296
▁proved	-7297
▁tunnel	-7298
▁0.001).	-7299
▁opioids	-7300
▁ruptured	-7301
▁isolation	-7302
▁4-	-7303
till	-7304
▁San	-7305
▁cra	-7306
▁hol	-7307
garis	-7308
iment	-7309
stead	-7310
▁bite	-7311
▁rhythm	-7312
▁injured	-7313
▁options	-7314
▁computer	-7315
▁enlarged	-7316
absorption	-7317
▁dependent	-7318
iae	-7319
▁2014.	-7320
▁Proced	-7321
▁pupils	-7322
▁Besides	-7323
▁Internal	-7324
▁epidemic	-7325
▁immunode	-7326
▁implemented	-7327
▁malformation	-7328
▁neuromuscular	-7329
iants	-7330
▁axis	-7331
▁Tumor	-7332
anguage	-7333
▁itself	-7334
▁experts	-7335
▁minimum	-7336
▁Secondary	-7337
▁retroperitoneal	-7338
47	-7339
▁sound	-7340
▁stret	-7341
▁obtain	-7342
▁Centers	-7343
▁manifests	-7344
▁cerebrospinal	-7345
aped	-7346
▁Yen	-7347
▁hypo	-7348
▁shif	-7349
guided	-7350
▁ferritin	-7351
▁Comparison	-7352
▁implementation	-7353
xide	-7354
▁Dem	-7355
▁Num	-7356
▁Wil	-7357
▁dex	-7358
▁nam	-7359
dient	-7360
▁veloc	-7361
▁Combin	-7362
▁Develop	-7363
▁transpl	-7364
▁assisted	-7365
▁compress	-7366
▁unstable	-7367
▁completed	-7368
▁filtration	-7369
▁incomplete	-7370
▁injections	-7371
opar	-7372
▁puls	-7373
▁VIDEO	-7374
illance	-7375
▁habits	-7376
▁ranged	-7377
comitant	-7378
▁complain	-7379
▁indirect	-7380
▁instability	-7381
49	-7382
GT	-7383
ford	-7384
▁TSH	-7385
▁Pred	-7386
▁come	-7387
esthesia	-7388
existing	-7389
teroidal	-7390
▁tubular	-7391
▁cosmetic	-7392
▁estimate	-7393
▁nephritis	-7394
▁technology	-7395
▁PSA	-7396
▁own	-7397
▁glyc	-7398
amycin	-7399
▁Plasma	-7400
▁adjusted	-7401
▁beneficial	-7402
▁situations	-7403
▁enhancement	-7404
▁contributing	-7405
vascularization	-7406
▁(0	-7407
oradi	-7408
where	-7409
▁coef	-7410
▁host	-7411
▁prur	-7412
▁publ	-7413
atosus	-7414
▁steps	-7415
▁Spinal	-7416
▁cortisol	-7417
▁technical	-7418
▁ineffective	-7419
ICAL	-7420
holds	-7421
▁bull	-7422
arring	-7423
▁2012.	-7424
ificant	-7425
▁eradication	-7426
▁Acinetobacter	-7427
jun	-7428
▁71	-7429
type	-7430
ellular	-7431
▁frozen	-7432
▁market	-7433
▁Science	-7434
▁decline	-7435
▁contract	-7436
▁sequelae	-7437
▁dangerous	-7438
▁eventually	-7439
▁controlling	-7440
oL	-7441
±0.	-7442
anal	-7443
eter	-7444
quit	-7445
▁24-	-7446
▁tea	-7447
ussion	-7448
▁Local	-7449
▁polic	-7450
▁Genetic	-7451
▁thorough	-7452
▁generation	-7453
▁functioning	-7454
utism	-7455
▁Thro	-7456
▁meta	-7457
rombin	-7458
therapy	-7459
▁febrile	-7460
▁Abnormal	-7461
▁districts	-7462
▁papillary	-7463
▁thromboemb	-7464
▁infiltration	-7465
HB	-7466
▁96	-7467
▁Index	-7468
▁Major	-7469
▁saturation	-7470
yel	-7471
MENT	-7472
ozyg	-7473
ptic	-7474
▁2.8	-7475
▁Ble	-7476
▁job	-7477
▁Nghe	-7478
▁Afric	-7479
▁repeat	-7480
▁atresia	-7481
▁63	-7482
ades	-7483
▁3.2	-7484
▁Mor	-7485
essation	-7486
▁Sciences	-7487
▁fentanyl	-7488
▁globulin	-7489
▁experiences	-7490
▁interviewed	-7491
▁hematopoietic	-7492
46	-7493
ICU	-7494
▁Pers	-7495
▁Prof	-7496
▁visit	-7497
▁viscer	-7498
▁magnesium	-7499
▁prostatic	-7500
▁temporary	-7501
▁concurrent	-7502
▁implantation	-7503
▁Effectiveness	-7504
96	-7505
0%,	-7506
EAT	-7507
tus	-7508
urity	-7509
eptide	-7510
▁power	-7511
▁spect	-7512
hythmia	-7513
riction	-7514
▁smooth	-7515
structive	-7516
▁muscular	-7517
▁suffering	-7518
Th	-7519
▁(-	-7520
▁TO	-7521
▁run	-7522
ogene	-7523
▁(15.	-7524
▁recur	-7525
▁trunk	-7526
▁septum	-7527
▁irrigation	-7528
St	-7529
ded	-7530
lif	-7531
atum	-7532
▁Top	-7533
▁glo	-7534
inergic	-7535
avorable	-7536
▁neonate	-7537
▁inherited	-7538
▁stricture	-7539
▁occupation	-7540
▁Bi	-7541
umes	-7542
▁IgA	-7543
▁vasc	-7544
ophren	-7545
▁syringe	-7546
▁corresponding	-7547
▁chromatography	-7548
3;	-7549
▁pi	-7550
urse	-7551
▁ter	-7552
▁spor	-7553
▁scalp	-7554
▁video	-7555
centage	-7556
▁comprehensive	-7557
▁psychological	-7558
▁anticoagulation	-7559
97	-7560
Cs	-7561
ATI	-7562
ann	-7563
▁cream	-7564
▁conver	-7565
▁fusion	-7566
othermia	-7567
▁surroun	-7568
▁vasculitis	-7569
▁arteriovenous	-7570
2-	-7571
IR	-7572
nec	-7573
▁Na	-7574
▁vo	-7575
aste	-7576
▁burs	-7577
▁clot	-7578
▁Small	-7579
▁states	-7580
▁frontal	-7581
▁morning	-7582
▁insomnia	-7583
▁Examination	-7584
▁contraceptive	-7585
▁questionnaires	-7586
3),	-7587
rio	-7588
tria	-7589
▁Pen	-7590
▁amino	-7591
▁instit	-7592
▁compens	-7593
▁delirium	-7594
▁glycemic	-7595
▁relevant	-7596
amethasone	-7597
▁Corticoster	-7598
▁dl	-7599
▁cyan	-7600
▁exact	-7601
iabetes	-7602
▁retros	-7603
▁commerc	-7604
▁domestic	-7605
▁destruction	-7606
▁Helicobacter	-7607
▁consultation	-7608
ejun	-7609
tigm	-7610
▁2004	-7611
umatic	-7612
▁Older	-7613
▁define	-7614
▁variants	-7615
OG	-7616
amol	-7617
▁rob	-7618
right	-7619
▁makes	-7620
▁Efficacy	-7621
▁deterior	-7622
▁specimen	-7623
▁educational	-7624
▁proliferation	-7625
▁conjunctivitis	-7626
des	-7627
hob	-7628
ket	-7629
▁74	-7630
dial	-7631
▁aest	-7632
erving	-7633
lasgow	-7634
utrient	-7635
▁safely	-7636
▁newborns	-7637
LS	-7638
leb	-7639
ason	-7640
▁gau	-7641
0.000	-7642
iatic	-7643
▁Hepat	-7644
▁nodule	-7645
▁thickening	-7646
▁Organization	-7647
▁2.6	-7648
▁eng	-7649
oking	-7650
▁1/201	-7651
▁actual	-7652
▁cotton	-7653
▁episode	-7654
▁washing	-7655
▁junction	-7656
▁medicines	-7657
▁dehydration	-7658
ITAL	-7659
hist	-7660
▁Cer	-7661
ineal	-7662
▁hall	-7663
ocytic	-7664
uterine	-7665
▁activation	-7666
▁inhibitory	-7667
▁Streptococc	-7668
smo	-7669
ofol	-7670
▁30,	-7671
▁Ven	-7672
avail	-7673
▁(22.	-7674
▁dark	-7675
▁thumb	-7676
▁promote	-7677
▁serologic	-7678
▁suspicion	-7679
▁International	-7680
OSP	-7681
▁rise	-7682
▁fiber	-7683
▁fixed	-7684
▁tension	-7685
▁Pseudomonas	-7686
▁angiotensin	-7687
▁intraocular	-7688
Eq	-7689
els	-7690
ival	-7691
oked	-7692
ights	-7693
inous	-7694
ensive	-7695
▁12/201	-7696
▁rectum	-7697
▁altered	-7698
▁intoler	-7699
▁markedly	-7700
▁diuretics	-7701
▁tolerated	-7702
▁1-	-7703
alle	-7704
▁rab	-7705
athetic	-7706
▁powder	-7707
▁injected	-7708
▁vaccinated	-7709
▁Relationship	-7710
okal	-7711
onad	-7712
vate	-7713
▁Les	-7714
▁Loc	-7715
▁Sam	-7716
▁Sus	-7717
▁(17.	-7718
▁2.2.	-7719
▁Then	-7720
▁brief	-7721
▁encoun	-7722
athyroid	-7723
▁Chapter	-7724
▁myeloma	-7725
oskeletal	-7726
▁published	-7727
▁endometrial	-7728
TC	-7729
thra	-7730
▁(14.	-7731
▁Unit	-7732
▁epig	-7733
▁mood	-7734
orrhage	-7735
▁Urinary	-7736
▁heparin	-7737
▁causative	-7738
▁regardless	-7739
▁gastrectomy	-7740
▁periodontitis	-7741
DR	-7742
rat	-7743
ioma	-7744
aemia	-7745
olemia	-7746
ournal	-7747
▁Review	-7748
▁bacill	-7749
▁massive	-7750
▁protect	-7751
▁version	-7752
estations	-7753
▁logistic	-7754
especially	-7755
▁systematic	-7756
ofl	-7757
airs	-7758
▁ARV	-7759
▁perc	-7760
igmoid	-7761
tified	-7762
▁iliac	-7763
▁smoke	-7764
aturity	-7765
ocortic	-7766
▁placebo	-7767
▁excluded	-7768
▁deviation	-7769
▁lidocaine	-7770
aker	-7771
cluded	-7772
▁feature	-7773
ologically	-7774
▁standardi	-7775
▁pericardial	-7776
▁methotrexate	-7777
▁postoperatively	-7778
0)	-7779
hal	-7780
ques	-7781
ering	-7782
omyel	-7783
rowth	-7784
tival	-7785
utation	-7786
▁exceed	-7787
▁margin	-7788
▁sounds	-7789
ithotomy	-7790
▁animals	-7791
▁wheezing	-7792
▁genotypes	-7793
▁possibility	-7794
▁erythematosus	-7795
▁lymphadenectomy	-7796
TB	-7797
▁'	-7798
sies	-7799
▁HER	-7800
▁hot	-7801
▁Dist	-7802
▁Reduc	-7803
▁variant	-7804
▁studying	-7805
▁vulgaris	-7806
▁erythrocy	-7807
▁predicted	-7808
▁circulating	-7809
▁lymphocytes	-7810
▁surrounding	-7811
89	-7812
ilty	-7813
▁mEq	-7814
▁acce	-7815
untary	-7816
▁qualitative	-7817
AST	-7818
▁Od	-7819
oming	-7820
ontal	-7821
▁HOSP	-7822
ipolar	-7823
▁Three	-7824
▁maneu	-7825
▁choose	-7826
▁antidep	-7827
▁Patholog	-7828
▁bronchial	-7829
▁monoclonal	-7830
▁electrolytes	-7831
AM	-7832
▁Ba	-7833
▁DI	-7834
ctal	-7835
▁Now	-7836
▁pic	-7837
▁(18.	-7838
▁frag	-7839
▁ingre	-7840
▁murmur	-7841
▁prefer	-7842
▁HOSPITAL	-7843
▁direction	-7844
79	-7845
izz	-7846
opa	-7847
emph	-7848
▁Stage	-7849
certain	-7850
▁differ	-7851
▁muscul	-7852
▁speech	-7853
▁showing	-7854
acteremia	-7855
▁cessation	-7856
▁chemoradi	-7857
▁sustained	-7858
▁untreated	-7859
▁reasonable	-7860
▁maintaining	-7861
▁administered	-7862
▁endovascular	-7863
78	-7864
UN	-7865
YHA	-7866
inn	-7867
▁AUC	-7868
cosis	-7869
amines	-7870
▁underg	-7871
▁combining	-7872
▁electrical	-7873
▁mesenteric	-7874
adv	-7875
▁EL	-7876
SCLC	-7877
roma	-7878
▁13,	-7879
▁CNS	-7880
▁Prol	-7881
▁tight	-7882
▁colitis	-7883
▁instruc	-7884
junctival	-7885
▁capsules	-7886
▁screened	-7887
▁Antibiotics	-7888
no	-7889
pret	-7890
▁Dire	-7891
asting	-7892
▁Hemat	-7893
▁dimin	-7894
▁Anemia	-7895
dependent	-7896
▁practical	-7897
▁practitioners	-7898
vac	-7899
▁SO	-7900
▁Mild	-7901
▁Such	-7902
▁gross	-7903
ferences	-7904
▁indexes	-7905
▁Province	-7906
▁nitrogen	-7907
▁removing	-7908
▁skeletal	-7909
▁Cef	-7910
ectin	-7911
▁Trop	-7912
▁para	-7913
▁tick	-7914
▁screw	-7915
▁Mechan	-7916
▁pelvis	-7917
▁Glasgow	-7918
▁communic	-7919
▁dressing	-7920
▁proposed	-7921
ocutaneous	-7922
▁Increased	-7923
▁Occasionally	-7924
▁nasopharyngeal	-7925
▁simultaneously	-7926
-5	-7927
64	-7928
opt	-7929
▁TG	-7930
▁controvers	-7931
ASI	-7932
nar	-7933
trig	-7934
ocele	-7935
▁Carb	-7936
otrans	-7937
▁Impro	-7938
▁black	-7939
▁cataract	-7940
▁interaction	-7941
▁ED	-7942
▁ty	-7943
ulty	-7944
▁die	-7945
▁clar	-7946
arcoid	-7947
emphig	-7948
▁Manif	-7949
inating	-7950
▁chamber	-7951
▁splenic	-7952
▁salivary	-7953
▁valvular	-7954
▁velocity	-7955
▁autonomic	-7956
▁chromosomal	-7957
fl	-7958
oxy	-7959
ser	-7960
▁Li	-7961
▁99.	-7962
▁Adv	-7963
▁mim	-7964
▁loop	-7965
hetics	-7966
▁cleft	-7967
▁column	-7968
▁errors	-7969
▁grafting	-7970
▁targeted	-7971
▁dysphagia	-7972
▁secretions	-7973
▁accumulation	-7974
▁thyroidectomy	-7975
▁ju	-7976
comp	-7977
inin	-7978
▁mcL	-7979
ocyst	-7980
ready	-7981
▁First	-7982
▁Under	-7983
▁anaer	-7984
▁nature	-7985
▁cholangi	-7986
▁organism	-7987
▁palpable	-7988
▁autologous	-7989
▁endothelial	-7990
▁disseminated	-7991
▁0%	-7992
▁TNF	-7993
ionic	-7994
▁(13.	-7995
▁comb	-7996
formin	-7997
▁Bleeding	-7998
▁Percentage	-7999
LP	-8000
ker	-8001
amen	-8002
tigo	-8003
▁ENT	-8004
▁ROC	-8005
▁note	-8006
▁Almost	-8007
▁staffs	-8008
▁macular	-8009
▁suction	-8010
▁language	-8011
▁settings	-8012
▁vertical	-8013
ifications	-8014
▁approaches	-8015
iosis	-8016
ufact	-8017
▁fund	-8018
▁seem	-8019
ulsion	-8020
▁01/201	-8021
▁scarring	-8022
▁household	-8023
▁Traditional	-8024
▁concomitant	-8025
86	-8026
▁Def	-8027
▁Syn	-8028
▁neo	-8029
ylase	-8030
▁bund	-8031
▁worm	-8032
metric	-8033
▁fewer	-8034
arcoidosis	-8035
▁operations	-8036
▁vegetables	-8037
▁triglyceride	-8038
=0,	-8039
▁73	-8040
arct	-8041
▁mos	-8042
istin	-8043
▁Grade	-8044
▁income	-8045
▁multif	-8046
▁relaps	-8047
▁binding	-8048
▁ranging	-8049
▁strengthen	-8050
-4	-8051
egal	-8052
▁14,	-8053
cloph	-8054
▁zone	-8055
▁degen	-8056
▁intact	-8057
▁Finding	-8058
▁resulted	-8059
▁physiologic	-8060
▁PV	-8061
axel	-8062
kine	-8063
▁2).	-8064
▁SGA	-8065
▁flav	-8066
▁yield	-8067
cycline	-8068
jective	-8069
▁Altern	-8070
utrients	-8071
clophosph	-8072
▁menopause	-8073
88	-8074
osyn	-8075
raft	-8076
▁1.1	-8077
▁AST	-8078
▁Prog	-8079
itated	-8080
▁metal	-8081
▁Changes	-8082
▁carcinomas	-8083
▁instrument	-8084
iph	-8085
vae	-8086
▁NIH	-8087
iprof	-8088
▁Perc	-8089
ifying	-8090
▁Stand	-8091
▁psychiatric	-8092
▁surveillance	-8093
▁international	-8094
▁Manifestations	-8095
ca	-8096
DNA	-8097
ners	-8098
orne	-8099
▁modern	-8100
▁Comment	-8101
▁Topical	-8102
▁advance	-8103
▁carriers	-8104
▁confidence	-8105
▁distention	-8106
▁maintained	-8107
▁occurrence	-8108
▁4.5	-8109
olone	-8110
▁Once	-8111
▁rice	-8112
▁scro	-8113
fected	-8114
gments	-8115
▁trend	-8116
▁measles	-8117
▁tropical	-8118
ned	-8119
▁95	-8120
▁Av	-8121
▁PA	-8122
▁115	-8123
▁Oste	-8124
▁draw	-8125
▁incor	-8126
▁oppos	-8127
▁users	-8128
atation	-8129
tibular	-8130
▁Contin	-8131
▁yellow	-8132
▁ongoing	-8133
▁plastic	-8134
ocrinology	-8135
▁Deficiency	-8136
▁pathogenic	-8137
1;	-8138
BR	-8139
ypt	-8140
±1.	-8141
▁DR	-8142
▁3.3	-8143
▁Air	-8144
▁IgM	-8145
▁eat	-8146
triax	-8147
▁gold	-8148
▁Prost	-8149
▁brady	-8150
▁gynec	-8151
▁lumen	-8152
▁malignancy	-8153
▁degeneration	-8154
▁Mul	-8155
achyp	-8156
using	-8157
ustom	-8158
▁adap	-8159
▁oroph	-8160
infected	-8161
▁airways	-8162
▁deficit	-8163
▁inhaled	-8164
▁Cervical	-8165
▁lymphatic	-8166
▁perception	-8167
▁compartment	-8168
anus	-8169
▁Tan	-8170
▁wet	-8171
birth	-8172
▁HPLC	-8173
bility	-8174
lerate	-8175
▁2010.	-8176
▁Human	-8177
▁nurse	-8178
▁induce	-8179
▁distant	-8180
▁numbers	-8181
▁amniotic	-8182
▁sexually	-8183
▁reliability	-8184
▁prophylactic	-8185
▁controversial	-8186
▁i	-8187
mox	-8188
osen	-8189
▁Less	-8190
▁evol	-8191
▁gallst	-8192
▁already	-8193
▁mixture	-8194
osphatemia	-8195
▁Geriatric	-8196
▁epinephrine	-8197
▁distinguished	-8198
ato	-8199
imm	-8200
rox	-8201
▁CDC	-8202
ichia	-8203
otide	-8204
▁coup	-8205
▁pare	-8206
degree	-8207
▁object	-8208
▁strati	-8209
▁worsen	-8210
▁calculi	-8211
▁antifungal	-8212
▁researchers	-8213
Is	-8214
VA	-8215
eAg	-8216
▁IU	-8217
▁<0,	-8218
▁PTH	-8219
▁Pap	-8220
epend	-8221
▁poll	-8222
▁myelo	-8223
▁Kidney	-8224
opathies	-8225
▁classic	-8226
necessary	-8227
menopausal	-8228
▁Regarding	-8229
▁suggestive	-8230
▁Application	-8231
▁preliminary	-8232
Cl	-8233
rip	-8234
quito	-8235
▁gamma	-8236
ophilia	-8237
optysis	-8238
▁capillary	-8239
▁carefully	-8240
▁adolescent	-8241
cr	-8242
luor	-8243
iazep	-8244
▁Body	-8245
mitted	-8246
▁duoden	-8247
▁relating	-8248
▁Currently	-8249
43	-8250
87	-8251
izer	-8252
ertion	-8253
ipenem	-8254
▁North	-8255
▁kinase	-8256
▁respir	-8257
▁scanning	-8258
▁segments	-8259
▁Infectious	-8260
▁performing	-8261
▁thalassemia	-8262
▁ast	-8263
ombin	-8264
ectual	-8265
▁Media	-8266
▁create	-8267
uropathy	-8268
▁metabol	-8269
▁becoming	-8270
▁catheters	-8271
▁consisted	-8272
▁Cr	-8273
▁ge	-8274
achn	-8275
head	-8276
spec	-8277
othal	-8278
point	-8279
otonin	-8280
▁sense	-8281
▁Direct	-8282
▁proven	-8283
▁Pharmac	-8284
▁constant	-8285
▁periodic	-8286
▁rotation	-8287
▁hypoxemia	-8288
▁intervals	-8289
▁processes	-8290
▁resolution	-8291
▁synthesized	-8292
▁insufficient	-8293
roti	-8294
▁sut	-8295
▁char	-8296
▁goals	-8297
entesis	-8298
▁penetr	-8299
okalemia	-8300
▁Equipment	-8301
▁coefficient	-8302
clophosphamide	-8303
mL	-8304
vered	-8305
▁Echo	-8306
ferase	-8307
ugular	-8308
▁exhib	-8309
raction	-8310
▁princip	-8311
▁confusion	-8312
▁hemolysis	-8313
▁Supportive	-8314
▁irritation	-8315
▁oxygenation	-8316
▁schizophren	-8317
▁cholecystitis	-8318
44	-8319
68	-8320
AG	-8321
pal	-8322
romy	-8323
▁dio	-8324
thing	-8325
▁Kien	-8326
psycho	-8327
▁South	-8328
ozygous	-8329
▁dosing	-8330
▁ranges	-8331
cobacter	-8332
herichia	-8333
izziness	-8334
▁Thyroid	-8335
▁acetate	-8336
▁manufact	-8337
rosurgical	-8338
uate	-8339
uled	-8340
▁(3)	-8341
▁180	-8342
▁pet	-8343
▁2003	-8344
▁fear	-8345
▁flat	-8346
▁gent	-8347
ilarly	-8348
▁limits	-8349
▁subject	-8350
▁appeared	-8351
▁violence	-8352
▁statistics	-8353
▁contraction	-8354
▁underweight	-8355
PP	-8356
RD	-8357
eb	-8358
vix	-8359
▁Ir	-8360
ream	-8361
oglyc	-8362
ophag	-8363
thropo	-8364
▁Decre	-8365
▁waves	-8366
▁greatly	-8367
oglobulin	-8368
▁rejection	-8369
▁importance	-8370
▁Determining	-8371
▁multivariate	-8372
▁79	-8373
ENTS	-8374
iminh	-8375
linked	-8376
tially	-8377
▁fungi	-8378
▁learn	-8379
▁guided	-8380
▁preced	-8381
otoxicity	-8382
▁independ	-8383
▁Antibiotic	-8384
▁arrhythmia	-8385
▁unnecessary	-8386
ATS	-8387
def	-8388
▁Te	-8389
brid	-8390
▁18,	-8391
▁aug	-8392
▁noc	-8393
▁meat	-8394
▁Vuong	-8395
achnoid	-8396
odiazep	-8397
▁matter	-8398
▁tremor	-8399
▁growing	-8400
▁cyanosis	-8401
▁sequence	-8402
▁polymerase	-8403
▁epidemiology	-8404
adj	-8405
▁QT	-8406
▁16,	-8407
▁gap	-8408
ather	-8409
▁(26.	-8410
▁John	-8411
▁dead	-8412
inalysis	-8413
▁disturbance	-8414
parathyroidism	-8415
Ig	-8416
ESS	-8417
iam	-8418
kes	-8419
▁08	-8420
itory	-8421
▁answ	-8422
▁none	-8423
razole	-8424
▁giant	-8425
▁usage	-8426
▁surger	-8427
▁itching	-8428
ocalcemia	-8429
▁quadrant	-8430
▁surfaces	-8431
▁Typically	-8432
▁variation	-8433
▁Depression	-8434
iprofloxacin	-8435
▁feasibility	-8436
74	-8437
ira	-8438
ope	-8439
▁78	-8440
▁Bo	-8441
icot	-8442
phen	-8443
▁Any	-8444
▁Vis	-8445
▁(28.	-8446
▁CABG	-8447
antage	-8448
posure	-8449
▁gauze	-8450
▁green	-8451
▁babies	-8452
▁signal	-8453
izations	-8454
urethral	-8455
▁constit	-8456
▁approved	-8457
▁retrograde	-8458
pers	-8459
pred	-8460
reed	-8461
isher	-8462
▁(21.	-8463
▁Fore	-8464
▁HBeAg	-8465
autions	-8466
rectile	-8467
▁Epidem	-8468
▁dorsal	-8469
ochiminh	-8470
▁torsion	-8471
▁detailed	-8472
▁effusions	-8473
▁validated	-8474
▁accurately	-8475
thropometric	-8476
▁Corticosteroids	-8477
▁6-	-8478
2.1.	-8479
▁Esc	-8480
▁upd	-8481
henia	-8482
idesp	-8483
▁soci	-8484
otoxic	-8485
▁prone	-8486
▁spray	-8487
▁synov	-8488
rogenic	-8489
▁Phuong	-8490
▁coagul	-8491
▁larvae	-8492
▁comfort	-8493
aminophen	-8494
omyelitis	-8495
▁mobility	-8496
▁urticaria	-8497
▁predictors	-8498
▁calcification	-8499
100	-8500
ola	-8501
rus	-8502
iomas	-8503
mosis	-8504
▁NYHA	-8505
▁else	-8506
itonin	-8507
▁Mental	-8508
▁micron	-8509
▁palate	-8510
▁penile	-8511
piration	-8512
triaxone	-8513
▁myeloid	-8514
▁orthopedic	-8515
▁nonsteroidal	-8516
▁morphological	-8517
atab	-8518
▁1/1	-8519
▁Mac	-8520
▁ren	-8521
▁sil	-8522
avage	-8523
▁Fran	-8524
▁Left	-8525
▁hyst	-8526
▁glass	-8527
▁persis	-8528
▁tachyp	-8529
▁attempt	-8530
▁persons	-8531
idespread	-8532
▁<0.001).	-8533
▁efficient	-8534
▁cellulitis	-8535
▁households	-8536
▁preparations	-8537
▁99	-8538
char	-8539
some	-8540
adily	-8541
oxide	-8542
▁Gran	-8543
▁away	-8544
▁clim	-8545
▁purp	-8546
igible	-8547
▁meals	-8548
ombinant	-8549
thrombin	-8550
▁colonic	-8551
▁straight	-8552
containing	-8553
▁prevalent	-8554
PC	-8555
CSF	-8556
inib	-8557
perg	-8558
▁sess	-8559
terone	-8560
▁asked	-8561
▁fruit	-8562
oquinol	-8563
▁intense	-8564
▁compound	-8565
▁hypothermia	-8566
rioventricular	-8567
eal	-8568
not	-8569
▁84	-8570
▁IgE	-8571
▁Mit	-8572
chlor	-8573
ested	-8574
oderm	-8575
▁2011.	-8576
▁limbs	-8577
raining	-8578
rotizing	-8579
▁Coronary	-8580
▁carbohyd	-8581
▁replaced	-8582
▁cirrhotic	-8583
▁hematology	-8584
▁cholangitis	-8585
▁specifically	-8586
72	-8587
isis	-8588
▁20,	-8589
orial	-8590
▁took	-8591
▁nephro	-8592
standing	-8593
▁adenoma	-8594
▁biomark	-8595
▁nephrol	-8596
▁portion	-8597
mentation	-8598
▁discovered	-8599
▁populations	-8600
▁examinations	-8601
32	-8602
hn	-8603
ky	-8604
ERI	-8605
bar	-8606
▁Mid	-8607
usual	-8608
tebral	-8609
▁exist	-8610
outhern	-8611
▁Design	-8612
▁Thomas	-8613
▁expand	-8614
▁select	-8615
▁timing	-8616
▁foramen	-8617
▁mosquito	-8618
▁properly	-8619
▁triggers	-8620
▁undergone	-8621
▁parenchyma	-8622
▁dislocations	-8623
▁lymphadenopathy	-8624
aken	-8625
tage	-8626
tiss	-8627
adone	-8628
illed	-8629
tomas	-8630
▁came	-8631
▁exud	-8632
actant	-8633
▁Elect	-8634
vidence	-8635
osarcoma	-8636
▁Through	-8637
▁pigment	-8638
▁absolute	-8639
▁provincial	-8640
▁observational	-8641
pox	-8642
imus	-8643
▁PCT	-8644
▁Ngoc	-8645
▁eggs	-8646
icular	-8647
inatal	-8648
arnings	-8649
atively	-8650
vernous	-8651
▁Number	-8652
▁Tumors	-8653
▁timely	-8654
location	-8655
▁friends	-8656
▁instead	-8657
▁Guidelines	-8658
▁inhibition	-8659
▁Gastroenter	-8660
▁Considerations	-8661
▁82	-8662
▁wr	-8663
▁Est	-8664
▁FEV	-8665
▁Tem	-8666
▁pts	-8667
enses	-8668
▁nhat	-8669
romise	-8670
▁cervix	-8671
▁porphy	-8672
▁reverse	-8673
▁recessive	-8674
▁facilitate	-8675
▁prednisone	-8676
▁gastroenter	-8677
▁pharmaceutical	-8678
39	-8679
ieu	-8680
ilt	-8681
▁Tay	-8682
light	-8683
orous	-8684
▁Each	-8685
▁vena	-8686
▁addic	-8687
▁domain	-8688
▁Measure	-8689
▁damaged	-8690
▁isolates	-8691
▁guideline	-8692
▁adjustment	-8693
▁positively	-8694
▁reversible	-8695
ril	-8696
▁SC	-8697
hanh	-8698
▁4.0	-8699
ached	-8700
ocrit	-8701
▁That	-8702
▁Brain	-8703
▁Level	-8704
▁cramp	-8705
itating	-8706
tificial	-8707
▁histology	-8708
▁satisfactory	-8709
▁retrospectively	-8710
ipl	-8711
phy	-8712
eces	-8713
aning	-8714
raper	-8715
▁(35.	-8716
▁Remo	-8717
▁kitc	-8718
▁Ortho	-8719
▁Rheum	-8720
▁orient	-8721
platelet	-8722
▁adjuvant	-8723
▁minority	-8724
▁autoantib	-8725
▁histologic	-8726
PS	-8727
dim	-8728
▁PaO	-8729
▁1.1.	-8730
▁Gluc	-8731
▁items	-8732
▁sharp	-8733
▁thong	-8734
▁attrib	-8735
▁mountain	-8736
▁supported	-8737
▁Peripheral	-8738
5;	-8739
my	-8740
▁RT	-8741
aise	-8742
ukin	-8743
▁CYP	-8744
▁ald	-8745
▁dop	-8746
rates	-8747
▁never	-8748
▁tears	-8749
▁chosen	-8750
blockers	-8751
ocardial	-8752
▁amyloid	-8753
bilirubin	-8754
▁resolves	-8755
stimulating	-8756
ministration	-8757
▁Positioning	-8758
▁anaphylaxis	-8759
vit	-8760
▁86	-8761
▁WBC	-8762
insic	-8763
tally	-8764
▁Situ	-8765
▁bites	-8766
▁voice	-8767
▁caring	-8768
▁simplex	-8769
indamycin	-8770
▁segmental	-8771
▁palliative	-8772
▁instruments	-8773
▁intolerance	-8774
BT	-8775
eds	-8776
osum	-8777
oxin	-8778
▁bey	-8779
▁raw	-8780
▁Year	-8781
tissue	-8782
▁compr	-8783
▁article	-8784
▁donation	-8785
▁worsening	-8786
▁Percutaneous	-8787
▁preservation	-8788
iper	-8789
prim	-8790
▁Biop	-8791
titive	-8792
▁going	-8793
oliosis	-8794
▁beyond	-8795
▁custom	-8796
▁halluc	-8797
inusitis	-8798
▁smokers	-8799
▁tonsill	-8800
▁flexible	-8801
rovascular	-8802
▁widespread	-8803
92	-8804
▁3)	-8805
▁87	-8806
0000	-8807
face	-8808
inum	-8809
▁semi	-8810
▁Right	-8811
▁round	-8812
bearing	-8813
▁ductus	-8814
▁faster	-8815
▁Certain	-8816
▁Dietary	-8817
▁forearm	-8818
▁Vascular	-8819
rophoresis	-8820
▁antiviral	-8821
▁tricuspid	-8822
▁requirement	-8823
▁pus	-8824
urane	-8825
▁While	-8826
▁seems	-8827
pergill	-8828
▁Family	-8829
▁grafts	-8830
▁superv	-8831
▁Journal	-8832
▁divertic	-8833
▁interviews	-8834
▁moderately	-8835
▁Escherichia	-8836
▁demographic	-8837
57	-8838
GE	-8839
HS	-8840
▁nor	-8841
ields	-8842
▁(58.	-8843
▁Disc	-8844
▁mouse	-8845
atories	-8846
▁Trauma	-8847
▁myopia	-8848
▁occult	-8849
▁threat	-8850
▁bacilli	-8851
▁driving	-8852
▁trained	-8853
▁Assessing	-8854
▁dizziness	-8855
▁expressed	-8856
▁transverse	-8857
▁limitations	-8858
▁noninvasive	-8859
endi	-8860
▁Dak	-8861
▁viv	-8862
▁(19.	-8863
▁(47.	-8864
▁ther	-8865
prolif	-8866
▁gangl	-8867
ecrosis	-8868
▁syncope	-8869
▁persists	-8870
▁bacteremia	-8871
▁radiograph	-8872
▁vietnamese	-8873
▁contributes	-8874
▁hemorrhoids	-8875
In	-8876
LT	-8877
]).	-8878
room	-8879
unte	-8880
adays	-8881
atase	-8882
henol	-8883
oreal	-8884
osine	-8885
▁disk	-8886
▁pulp	-8887
▁swit	-8888
▁remedy	-8889
▁covered	-8890
▁obstetric	-8891
▁documented	-8892
▁psychologic	-8893
▁Streptococcus	-8894
rix	-8895
onto	-8896
▁ASA	-8897
▁(31.	-8898
▁(46.	-8899
ringer	-8900
terile	-8901
orthern	-8902
rometry	-8903
aryngitis	-8904
▁endometri	-8905
▁diverticul	-8906
▁profession	-8907
▁polymorphism	-8908
66	-8909
urc	-8910
▁dup	-8911
acted	-8912
itude	-8913
▁(41.	-8914
▁(66.	-8915
▁Mich	-8916
gnosed	-8917
thetic	-8918
▁Those	-8919
▁copper	-8920
▁tachypnea	-8921
▁Methodology	-8922
BI	-8923
▁ACT	-8924
▁Not	-8925
tivity	-8926
▁cytom	-8927
▁fecal	-8928
▁tubes	-8929
▁venom	-8930
ordance	-8931
▁filling	-8932
▁Relevant	-8933
▁phenomen	-8934
▁Cardiology	-8935
▁prosthesis	-8936
▁130	-8937
▁31,	-8938
▁SLE	-8939
▁horiz	-8940
▁aspect	-8941
▁necess	-8942
asthenia	-8943
▁Identify	-8944
▁pruritus	-8945
▁vertebra	-8946
▁strictures	-8947
▁anticoagulant	-8948
▁AS	-8949
fold	-8950
▁anter	-8951
▁thigh	-8952
▁hypercal	-8953
moxicillin	-8954
▁Clinicians	-8955
▁aminotrans	-8956
▁arteriosus	-8957
77	-8958
pr	-8959
tub	-8960
ury	-8961
/2009	-8962
dural	-8963
ximab	-8964
▁01/0	-8965
▁RBCs	-8966
etamol	-8967
▁kinds	-8968
▁penis	-8969
▁Author	-8970
▁Errors	-8971
▁conjug	-8972
▁getting	-8973
▁plaques	-8974
▁Evidence	-8975
▁Moreover	-8976
▁avoiding	-8977
▁sweating	-8978
▁laparotomy	-8979
▁hysterectomy	-8980
▁hypercalcemia	-8981
BMI	-8982
Res	-8983
ylo	-8984
lide	-8985
▁Lam	-8986
▁mec	-8987
venom	-8988
▁Asia	-8989
▁Pham	-8990
▁habit	-8991
▁quanti	-8992
▁Studies	-8993
▁cigaret	-8994
▁Springer	-8995
▁chloride	-8996
▁elective	-8997
▁separate	-8998
▁Radiation	-8999
▁chemicals	-9000
▁surgeries	-9001
▁Determination	-9002
85	-9003
GF	-9004
▁Ox	-9005
ayed	-9006
back	-9007
odil	-9008
lysis	-9009
romal	-9010
uoden	-9011
▁(30.	-9012
▁(45.	-9013
▁teac	-9014
ositis	-9015
▁abrup	-9016
stances	-9017
▁Injury	-9018
▁symtom	-9019
Business	-9020
▁Lesions	-9021
▁positions	-9022
▁critically	-9023
▁exploration	-9024
TO	-9025
▁89	-9026
▁110	-9027
▁net	-9028
ortex	-9029
▁PATI	-9030
▁tamp	-9031
dients	-9032
uminal	-9033
▁socio	-9034
▁Statis	-9035
▁inside	-9036
▁intrauterine	-9037
4;	-9038
tly	-9039
▁VT	-9040
▁haz	-9041
▁thy	-9042
▁cava	-9043
▁land	-9044
▁2009.	-9045
▁Since	-9046
▁accep	-9047
▁Vaccin	-9048
▁mucous	-9049
▁Western	-9050
▁derived	-9051
▁hypoxia	-9052
▁military	-9053
▁Aftercare	-9054
▁stiffness	-9055
▁supporting	-9056
▁participating	-9057
▁thromboembolism	-9058
LV	-9059
bet	-9060
▁81	-9061
apan	-9062
▁5%.	-9063
▁60,	-9064
▁CAP	-9065
▁bag	-9066
▁rif	-9067
adias	-9068
ichen	-9069
▁mamm	-9070
shaped	-9071
▁atopic	-9072
avicular	-9073
▁meaning	-9074
▁unusual	-9075
holinergic	-9076
ofrequency	-9077
▁parathyroid	-9078
▁appendectomy	-9079
▁intellectual	-9080
69	-9081
ERD	-9082
ITH	-9083
COPD	-9084
▁Cle	-9085
▁san	-9086
oresc	-9087
▁Scan	-9088
▁gait	-9089
▁0.000	-9090
▁Sleep	-9091
▁Stroke	-9092
▁vagina	-9093
▁wasting	-9094
▁visceral	-9095
▁progresses	-9096
▁Ultrasonography	-9097
po	-9098
bes	-9099
sts	-9100
▁nan	-9101
▁seaf	-9102
▁Lower	-9103
▁Short	-9104
▁sides	-9105
opathic	-9106
▁Effect	-9107
▁NSAIDs	-9108
▁Single	-9109
▁Stress	-9110
▁assays	-9111
rapeutic	-9112
▁implants	-9113
▁numerous	-9114
▁propofol	-9115
▁Procedure	-9116
▁favorable	-9117
▁congestion	-9118
bilirubinemia	-9119
WI	-9120
dis	-9121
asks	-9122
cons	-9123
plen	-9124
▁MIC	-9125
actin	-9126
borne	-9127
feron	-9128
▁Even	-9129
▁edge	-9130
radiol	-9131
thesis	-9132
▁Apply	-9133
▁ELISA	-9134
▁Exper	-9135
▁Tests	-9136
ologists	-9137
▁varices	-9138
▁analysed	-9139
▁cytology	-9140
▁hypothal	-9141
▁Fractures	-9142
▁uncertain	-9143
▁vaginitis	-9144
82	-9145
ued	-9146
▁(0,	-9147
▁2.1	-9148
▁SpO	-9149
▁(27.	-9150
▁Angi	-9151
▁fine	-9152
▁protr	-9153
pection	-9154
▁cornea	-9155
▁embryo	-9156
cephalus	-9157
ephrosis	-9158
▁volunte	-9159
typically	-9160
▁gingival	-9161
▁quantity	-9162
▁recognize	-9163
▁collateral	-9164
▁dilatation	-9165
▁deformities	-9166
▁intrahepatic	-9167
▁perioperative	-9168
inct	-9169
rimal	-9170
▁clus	-9171
▁film	-9172
▁tone	-9173
apular	-9174
ishing	-9175
▁Thien	-9176
▁denti	-9177
▁plane	-9178
▁toxins	-9179
▁unable	-9180
▁urgent	-9181
▁visits	-9182
▁conduct	-9183
▁spondyl	-9184
▁volumes	-9185
▁traction	-9186
▁activated	-9187
▁corrected	-9188
▁lymphocyte	-9189
▁degenerative	-9190
▁Mo	-9191
gluc	-9192
▁85%	-9193
▁Cro	-9194
▁VND	-9195
▁cit	-9196
▁jun	-9197
▁try	-9198
▁irre	-9199
▁RESUL	-9200
▁allog	-9201
▁ducts	-9202
▁Biopsy	-9203
ogastric	-9204
▁Despite	-9205
▁sediment	-9206
▁subacute	-9207
▁Pneumonia	-9208
▁antihyper	-9209
▁molecules	-9210
▁colonoscopy	-9211
▁developmental	-9212
63	-9213
toc	-9214
▁Ki	-9215
ulse	-9216
▁Max	-9217
▁0.5%	-9218
▁wear	-9219
<0.05.	-9220
▁front	-9221
▁Therapy	-9222
ditionally	-9223
▁recipients	-9224
▁continuously	-9225
93	-9226
AUC	-9227
CMO	-9228
The	-9229
ham	-9230
▁Ext	-9231
▁Smo	-9232
legia	-9233
▁spir	-9234
▁wind	-9235
▁Psych	-9236
▁raise	-9237
▁focused	-9238
abilities	-9239
▁Compared	-9240
▁concerns	-9241
▁reflexes	-9242
▁Administration	-9243
/12	-9244
4),	-9245
was	-9246
▁SS	-9247
▁Lar	-9248
▁mer	-9249
ethyl	-9250
osity	-9251
▁(23.	-9252
▁(32.	-9253
▁SOFA	-9254
▁exon	-9255
▁rich	-9256
ptions	-9257
ulinum	-9258
▁spasm	-9259
▁hypoph	-9260
▁patent	-9261
▁tablet	-9262
▁triple	-9263
▁clinics	-9264
▁outflow	-9265
arachnoid	-9266
▁Warnings	-9267
▁formulation	-9268
▁schizophrenia	-9269
▁anticoagulants	-9270
62	-9271
▁ON	-9272
othy	-9273
▁Lim	-9274
about	-9275
dible	-9276
▁2001	-9277
▁WITH	-9278
▁kill	-9279
▁sent	-9280
▁sore	-9281
oiding	-9282
litaxel	-9283
▁Pelvic	-9284
▁bronchi	-9285
orescence	-9286
▁Positive	-9287
▁assigned	-9288
▁elsewhere	-9289
▁predictor	-9290
▁initiation	-9291
0%.	-9292
▁OS	-9293
acid	-9294
derg	-9295
odon	-9296
week	-9297
▁Paren	-9298
▁supra	-9299
ractive	-9300
▁mature	-9301
▁supine	-9302
▁Monitor	-9303
▁helping	-9304
producing	-9305
▁Diagnose	-9306
▁preserved	-9307
▁transferred	-9308
▁antidepressants	-9309
ARY	-9310
▁TH	-9311
▁[1	-9312
▁Bar	-9313
▁QRS	-9314
▁cis	-9315
▁walk	-9316
▁ways	-9317
▁6/201	-9318
▁beats	-9319
ramatic	-9320
ourished	-9321
▁society	-9322
▁familial	-9323
▁managing	-9324
▁tympanic	-9325
▁personnel	-9326
▁artificial	-9327
▁cerebellar	-9328
▁regulations	-9329
▁electrophoresis	-9330
3.1.	-9331
ares	-9332
carb	-9333
tite	-9334
ulus	-9335
umed	-9336
▁Mass	-9337
▁germ	-9338
argest	-9339
osphol	-9340
veitis	-9341
▁mimic	-9342
▁moist	-9343
▁ovary	-9344
▁disadv	-9345
▁Catheter	-9346
▁European	-9347
▁Moderate	-9348
▁melanoma	-9349
▁standing	-9350
▁correctly	-9351
▁hypokalemia	-9352
▁musculoskeletal	-9353
▁09	-9354
▁88	-9355
▁PH	-9356
FABP	-9357
▁7%,	-9358
▁Amp	-9359
abdom	-9360
▁Form	-9361
▁cool	-9362
▁photo	-9363
▁refers	-9364
▁jugular	-9365
▁carrying	-9366
▁purulent	-9367
▁solitary	-9368
▁penetrating	-9369
▁recombinant	-9370
▁specialized	-9371
▁Intervention	-9372
▁applications	-9373
61	-9374
don	-9375
zhe	-9376
▁07	-9377
▁UV	-9378
▁DHF	-9379
▁Lew	-9380
▁alb	-9381
▁pin	-9382
/2020	-9383
▁(62.	-9384
▁decl	-9385
imetry	-9386
▁Thuan	-9387
acillus	-9388
▁apical	-9389
▁disapp	-9390
ospadias	-9391
tilation	-9392
▁sensiti	-9393
▁multiplex	-9394
▁connective	-9395
▁thyroiditis	-9396
proliferative	-9397
▁FAC	-9398
ement	-9399
▁Beta	-9400
▁glut	-9401
graphy	-9402
▁gonad	-9403
▁allele	-9404
▁compos	-9405
▁diverse	-9406
▁empiric	-9407
▁purpura	-9408
▁substit	-9409
▁necrotic	-9410
▁stopping	-9411
ronidazole	-9412
▁vestibular	-9413
▁eosinophilic	-9414
=2.	-9415
mod	-9416
▁83	-9417
▁CF	-9418
▁5%,	-9419
epsin	-9420
▁pric	-9421
▁soil	-9422
posing	-9423
▁TREAT	-9424
▁takes	-9425
idement	-9426
▁<0.05.	-9427
▁Pancre	-9428
orporeal	-9429
▁(100%),	-9430
▁largest	-9431
▁malaise	-9432
▁cruciate	-9433
▁unlikely	-9434
▁serotonin	-9435
▁splenomegaly	-9436
FN	-9437
OA	-9438
SE	-9439
eled	-9440
idge	-9441
▁2.2	-9442
▁gia	-9443
▁sap	-9444
aments	-9445
ignant	-9446
▁precise	-9447
▁inability	-9448
▁hemoptysis	-9449
▁vasopressin	-9450
▁standardized	-9451
55	-9452
▁TI	-9453
-200	-9454
▁AML	-9455
▁hcm	-9456
retro	-9457
▁(57.	-9458
dergart	-9459
omatosis	-9460
spectrum	-9461
▁dramatic	-9462
▁researches	-9463
▁arthroplasty	-9464
▁laboratories	-9465
▁pathogenesis	-9466
▁77	-9467
iclo	-9468
▁2.3	-9469
▁Whe	-9470
endix	-9471
▁(44.	-9472
▁2002	-9473
▁Aden	-9474
▁Isol	-9475
▁firm	-9476
▁Fetal	-9477
▁NSCLC	-9478
▁paran	-9479
▁organic	-9480
▁totally	-9481
▁Anterior	-9482
▁adulthood	-9483
▁discontin	-9484
▁cardiogenic	-9485
▁encountered	-9486
▁concentrated	-9487
▁staphylococc	-9488
kyl	-9489
▁pa	-9490
rele	-9491
▁600	-9492
▁Neu	-9493
▁knew	-9494
etracy	-9495
steine	-9496
▁ulnar	-9497
ulative	-9498
▁analog	-9499
▁checked	-9500
▁elastic	-9501
▁sigmoid	-9502
▁coverage	-9503
▁erectile	-9504
▁interrup	-9505
▁validity	-9506
▁Situation	-9507
▁hypogonad	-9508
▁immunization	-9509
▁uncontrolled	-9510
41	-9511
83	-9512
MB	-9513
=1.	-9514
inea	-9515
uits	-9516
▁140	-9517
▁17,	-9518
▁pad	-9519
▁(54.	-9520
ceived	-9521
▁inner	-9522
▁overl	-9523
lycerid	-9524
respons	-9525
ensional	-9526
▁America	-9527
▁plantar	-9528
pulmonary	-9529
▁opposite	-9530
▁produces	-9531
▁released	-9532
▁descending	-9533
▁fertilization	-9534
▁predominantly	-9535
BV	-9536
-20	-9537
muc	-9538
rum	-9539
caus	-9540
▁vic	-9541
algia	-9542
▁Magn	-9543
▁Oper	-9544
▁York	-9545
▁asym	-9546
▁pacem	-9547
riteria	-9548
havioral	-9549
▁Protein	-9550
▁incident	-9551
ochondrial	-9552
▁lobectomy	-9553
▁distributed	-9554
▁ingredients	-9555
TN	-9556
acry	-9557
agen	-9558
hind	-9559
icol	-9560
ulum	-9561
▁CMV	-9562
atism	-9563
oding	-9564
▁(61.	-9565
▁Hand	-9566
gested	-9567
ighted	-9568
▁scars	-9569
▁cortex	-9570
reactive	-9571
▁Adolesc	-9572
▁gradient	-9573
▁schedule	-9574
▁locations	-9575
▁myocarditis	-9576
▁hypocalcemia	-9577
NE	-9578
aco	-9579
▁HE	-9580
olin	-9581
▁gar	-9582
farin	-9583
retin	-9584
▁(20.	-9585
▁Rest	-9586
▁doxy	-9587
▁Alzhe	-9588
▁bundle	-9589
▁tampon	-9590
▁worker	-9591
pression	-9592
relation	-9593
▁maximal	-9594
ventional	-9595
▁parasite	-9596
▁tolerate	-9597
▁Incidence	-9598
▁Recurrent	-9599
ronephrosis	-9600
▁microorgan	-9601
▁intercourse	-9602
▁postmenopausal	-9603
FDG	-9604
▁3%,	-9605
▁ART	-9606
▁GFR	-9607
▁pol	-9608
▁(42.	-9609
▁Leuk	-9610
▁town	-9611
ostrid	-9612
▁Joint	-9613
gencies	-9614
▁Psycho	-9615
▁Detection	-9616
▁inhalation	-9617
▁kindergart	-9618
▁dexamethasone	-9619
09	-9620
che	-9621
yed	-9622
▁(2,	-9623
▁Hol	-9624
▁ICD	-9625
▁(51.	-9626
▁dinh	-9627
▁swab	-9628
▁vill	-9629
angeal	-9630
omycin	-9631
▁NIHSS	-9632
▁Trung	-9633
▁aware	-9634
▁incis	-9635
lamydia	-9636
ostatic	-9637
▁extend	-9638
▁goiter	-9639
▁latent	-9640
▁places	-9641
▁scales	-9642
▁Special	-9643
▁passive	-9644
diagnosed	-9645
gesterone	-9646
▁presents	-9647
▁terminal	-9648
▁diffusion	-9649
▁metformin	-9650
▁electronic	-9651
▁hematocrit	-9652
raperitoneal	-9653
▁Enterobacter	-9654
DI	-9655
-10	-9656
▁3:	-9657
fers	-9658
rose	-9659
▁baby	-9660
titude	-9661
▁Often	-9662
uodenal	-9663
clerotic	-9664
▁collect	-9665
▁combine	-9666
▁fluores	-9667
copically	-9668
▁duodenum	-9669
onographic	-9670
intervention	-9671
DH	-9672
pe	-9673
top	-9674
▁SI	-9675
▁Mel	-9676
acing	-9677
▁tape	-9678
▁upon	-9679
▁Score	-9680
▁track	-9681
segment	-9682
tective	-9683
arbonate	-9684
inations	-9685
▁Gastric	-9686
▁bipolar	-9687
pretation	-9688
▁Findings	-9689
▁microscopy	-9690
▁malabsorption	-9691
▁immobilization	-9692
NO	-9693
COS	-9694
▁RE	-9695
▁TP	-9696
/100	-9697
illo	-9698
▁Las	-9699
avian	-9700
toxic	-9701
▁(34.	-9702
▁wire	-9703
stream	-9704
▁Japan	-9705
▁axial	-9706
▁crani	-9707
▁datab	-9708
ologies	-9709
▁elements	-9710
▁clinician	-9711
▁arthroscopic	-9712
▁recommendation	-9713
84	-9714
tu	-9715
ply	-9716
▁EP	-9717
▁RA	-9718
Step	-9719
life	-9720
▁(12	-9721
abdomy	-9722
encies	-9723
veolar	-9724
▁patch	-9725
▁helped	-9726
▁mandible	-9727
▁radiographic	-9728
LH	-9729
appa	-9730
▁ath	-9731
eptid	-9732
▁(86.	-9733
▁Deep	-9734
▁Tips	-9735
▁date	-9736
▁eros	-9737
▁brown	-9738
otropic	-9739
utional	-9740
▁atrium	-9741
▁fibers	-9742
oflurane	-9743
versible	-9744
▁midline	-9745
▁nodular	-9746
▁appetite	-9747
▁original	-9748
▁promptly	-9749
▁outbreaks	-9750
▁rheumatic	-9751
▁ulceration	-9752
▁doxycycline	-9753
▁subarachnoid	-9754
02	-9755
CF	-9756
ua	-9757
SDs	-9758
nex	-9759
sho	-9760
tle	-9761
▁fo	-9762
disc	-9763
omed	-9764
▁FSH	-9765
▁Ver	-9766
▁adi	-9767
▁osm	-9768
▁hook	-9769
ademic	-9770
▁Place	-9771
▁entry	-9772
▁equip	-9773
▁Public	-9774
▁bloody	-9775
▁micros	-9776
▁Alcohol	-9777
▁Another	-9778
▁astrocy	-9779
▁classes	-9780
▁dioxide	-9781
nourished	-9782
▁cultured	-9783
▁laceration	-9784
▁Sensitivity	-9785
▁sarcoidosis	-9786
▁preeclampsia	-9787
81	-9788
▁gr	-9789
iles	-9790
oric	-9791
▁1/3	-9792
▁10-	-9793
▁MET	-9794
▁inn	-9795
▁spi	-9796
ipple	-9797
uccal	-9798
itance	-9799
tioned	-9800
▁lepro	-9801
▁nicot	-9802
▁shift	-9803
▁think	-9804
clavian	-9805
▁Tricks	-9806
▁agreed	-9807
osporine	-9808
▁meeting	-9809
▁reflect	-9810
▁facility	-9811
▁suppress	-9812
▁antipsycho	-9813
▁benzodiazep	-9814
▁proportions	-9815
▁contraception	-9816
aph	-9817
▁97	-9818
orus	-9819
yelo	-9820
▁125	-9821
ethox	-9822
often	-9823
▁(91.	-9824
▁Poor	-9825
ulture	-9826
▁Image	-9827
▁novel	-9828
vaginal	-9829
▁hypere	-9830
▁locally	-9831
erculosis	-9832
thromycin	-9833
▁PATIENTS	-9834
▁fluoride	-9835
▁partners	-9836
▁exclusive	-9837
▁methadone	-9838
▁prosthetic	-9839
▁Preoperative	-9840
▁appropriately	-9841
▁subcutaneously	-9842
py	-9843
due	-9844
▁LH	-9845
▁Rot	-9846
▁fit	-9847
▁toe	-9848
▁Conf	-9849
platin	-9850
tensor	-9851
▁angio	-9852
▁Analyz	-9853
▁splint	-9854
▁Outcome	-9855
▁created	-9856
▁harmful	-9857
▁stenting	-9858
▁deposition	-9859
ez	-9860
antit	-9861
▁(29.	-9862
▁(36.	-9863
▁(64.	-9864
turnal	-9865
▁2021,	-9866
▁error	-9867
iolitis	-9868
kalemia	-9869
▁Thorac	-9870
▁accepted	-9871
▁fistulas	-9872
▁choledoch	-9873
▁influenzae	-9874
▁relaxation	-9875
▁diverticulum	-9876
▁erythematous	-9877
▁21,	-9878
▁onc	-9879
▁por	-9880
emias	-9881
while	-9882
▁(81.	-9883
openem	-9884
▁Their	-9885
▁10/201	-9886
▁acetyl	-9887
▁rhinos	-9888
orrhagic	-9889
▁discrim	-9890
▁wearing	-9891
▁Recently	-9892
▁Regional	-9893
▁Posterior	-9894
▁processed	-9895
▁sympathetic	-9896
enh	-9897
leg	-9898
▁Ed	-9899
▁Vu	-9900
nife	-9901
iteal	-9902
▁0.9%	-9903
▁Four	-9904
▁VATS	-9905
▁femur	-9906
▁mucus	-9907
▁Odonto	-9908
ensitive	-9909
▁private	-9910
▁replace	-9911
▁Practice	-9912
▁childrens	-9913
▁Esophageal	-9914
▁influenced	-9915
AF	-9916
xys	-9917
▁SL	-9918
ceps	-9919
▁Fac	-9920
▁gly	-9921
izure	-9922
table	-9923
▁(3).	-9924
▁(65.	-9925
▁Nang	-9926
▁cada	-9927
▁flag	-9928
▁Commun	-9929
▁microm	-9930
blastoma	-9931
▁solvent	-9932
▁inclusion	-9933
▁scoliosis	-9934
▁horizontal	-9935
▁circumstances	-9936
oC	-9937
tos	-9938
▁GH	-9939
▁Go	-9940
▁160	-9941
▁uni	-9942
ussus	-9943
water	-9944
▁(55.	-9945
▁Cyst	-9946
▁White	-9947
▁drink	-9948
▁intim	-9949
▁gingiv	-9950
▁lavage	-9951
▁stools	-9952
soriatic	-9953
▁hemangi	-9954
▁leprosy	-9955
▁fragment	-9956
▁lowering	-9957
▁oncology	-9958
▁subgroup	-9959
▁Decreased	-9960
▁Metabolic	-9961
▁advantage	-9962
▁phenotype	-9963
▁stimulate	-9964
▁reconstruc	-9965
▁variations	-9966
▁participated	-9967
▁pericarditis	-9968
▁deterioration	-9969
mc	-9970
▁0)	-9971
▁du	-9972
aint	-9973
pres	-9974
▁3.4	-9975
▁Obs	-9976
iforn	-9977
vival	-9978
▁(38.	-9979
▁100,	-9980
▁lock	-9981
▁perf	-9982
▁STEMI	-9983
▁gives	-9984
▁route	-9985
▁sizes	-9986
▁behind	-9987
▁flavon	-9988
▁reveal	-9989
▁RESULTS	-9990
▁evident	-9991
▁parotid	-9992
▁sarcoma	-9993
▁Criteria	-9994
▁Alzheimer	-9995
▁Bacterial	-9996
▁displaced	-9997
▁headaches	-9998
▁convenient	-9999
▁circulatory	-10000
▁erythrocyte	-10001
▁SV	-10002
arum	-10003
▁12-	-10004
▁Ess	-10005
atios	-10006
▁(52.	-10007
▁(77.	-10008
▁Coll	-10009
▁beam	-10010
NSAIDs	-10011
leukin	-10012
usions	-10013
▁Venti	-10014
▁tyros	-10015
▁remark	-10016
ereology	-10017
itations	-10018
▁Nursing	-10019
▁burning	-10020
▁embryos	-10021
▁readily	-10022
▁biopsies	-10023
▁colistin	-10024
▁reaching	-10025
▁parasites	-10026
▁hypospadias	-10027
▁suppression	-10028
rie	-10029
tem	-10030
▁106	-10031
▁7.5	-10032
▁bis	-10033
sided	-10034
▁2.1.	-10035
▁Resp	-10036
▁arms	-10037
▁oxide	-10038
iveness	-10039
▁Aortic	-10040
▁folate	-10041
▁inject	-10042
▁manual	-10043
endazole	-10044
▁acceler	-10045
▁express	-10046
▁Tropical	-10047
▁Cutaneous	-10048
▁partially	-10049
▁Functional	-10050
▁bicarbonate	-10051
▁bradycardia	-10052
ux	-10053
7).	-10054
aim	-10055
apid	-10056
body	-10057
▁Pot	-10058
▁QoL	-10059
▁TCD	-10060
▁cul	-10061
▁Fail	-10062
▁Need	-10063
▁Will	-10064
ansion	-10065
osperm	-10066
▁Adults	-10067
▁valves	-10068
▁explore	-10069
▁Pressure	-10070
▁antihist	-10071
▁numbness	-10072
▁referral	-10073
▁estradiol	-10074
▁pressures	-10075
▁acetaminophen	-10076
7;	-10077
la	-10078
▁PP	-10079
▁Its	-10080
▁gut	-10081
▁(39.	-10082
▁gave	-10083
ivered	-10084
▁Crohn	-10085
▁giang	-10086
Results	-10087
▁Period	-10088
ituximab	-10089
▁Vaccine	-10090
▁frailty	-10091
▁urethra	-10092
▁Thoracic	-10093
▁hypoplas	-10094
▁synovial	-10095
▁variceal	-10096
▁discussion	-10097
▁hemostasis	-10098
▁Furthermore	-10099
▁anthropometric	-10100
1-	-10101
CDC	-10102
RIs	-10103
hCG	-10104
▁Bu	-10105
0.0%	-10106
ACHE	-10107
yees	-10108
▁CEA	-10109
cytic	-10110
▁ARDS	-10111
▁Elev	-10112
▁odor	-10113
clovir	-10114
cythem	-10115
▁moving	-10116
▁vulner	-10117
▁appendix	-10118
▁analyzing	-10119
▁continues	-10120
▁illnesses	-10121
▁myasthenia	-10122
▁specialist	-10123
▁ulcerative	-10124
▁tuberculous	-10125
▁105	-10126
ortal	-10127
▁(25.	-10128
▁(87.	-10129
▁drow	-10130
▁extr	-10131
▁Weight	-10132
▁uptake	-10133
▁zoster	-10134
▁forward	-10135
▁macroph	-10136
▁teachers	-10137
▁depressed	-10138
▁amputation	-10139
▁Correlation	-10140
▁candidiasis	-10141
▁debridement	-10142
NAL	-10143
▁98	-10144
▁LA	-10145
toid	-10146
▁Fal	-10147
▁phy	-10148
▁tel	-10149
▁(37.	-10150
▁(96.	-10151
▁blue	-10152
oconst	-10153
rected	-10154
tation	-10155
▁Appro	-10156
▁hypov	-10157
▁tried	-10158
ynchron	-10159
economic	-10160
ronchial	-10161
▁equally	-10162
▁Californ	-10163
▁avoidance	-10164
▁transurethral	-10165
ari	-10166
▁AM	-10167
▁Dr	-10168
▁Ke	-10169
▁nm	-10170
odal	-10171
ript	-10172
▁AVM	-10173
eliac	-10174
okine	-10175
raine	-10176
▁bath	-10177
▁coron	-10178
▁plain	-10179
▁Mening	-10180
▁births	-10181
▁carpal	-10182
▁cement	-10183
cythemia	-10184
ethoprim	-10185
▁gangren	-10186
▁sulfate	-10187
▁cytokine	-10188
▁eligible	-10189
▁remained	-10190
▁Immediate	-10191
▁surfactant	-10192
▁penetration	-10193
▁hydrocephalus	-10194
HI	-10195
mm	-10196
pg	-10197
MRI	-10198
asts	-10199
▁TAP	-10200
▁dog	-10201
ikacin	-10202
▁genit	-10203
ectable	-10204
▁autism	-10205
▁emphys	-10206
▁grades	-10207
hicillin	-10208
▁Electro	-10209
▁company	-10210
▁explain	-10211
▁inverse	-10212
▁redness	-10213
umulative	-10214
▁challeng	-10215
▁pathways	-10216
▁treament	-10217
▁cavernous	-10218
▁correlate	-10219
▁decisions	-10220
▁lymphomas	-10221
▁California	-10222
▁categories	-10223
▁commercial	-10224
oa	-10225
▁bit	-10226
atars	-10227
ensus	-10228
▁Acid	-10229
▁pull	-10230
bicans	-10231
▁Upper	-10232
▁ultim	-10233
Hodgkin	-10234
chronic	-10235
hydroxy	-10236
▁effort	-10237
▁gravis	-10238
▁ratios	-10239
▁aerobic	-10240
▁distinct	-10241
▁dopamine	-10242
▁thrombus	-10243
▁obstetrics	-10244
▁influencing	-10245
▁undernutrition	-10246
Tn	-10247
▁Gu	-10248
▁IS	-10249
ames	-10250
rich	-10251
▁unw	-10252
▁Serv	-10253
▁appl	-10254
lottic	-10255
roxine	-10256
terase	-10257
▁pupil	-10258
▁sphen	-10259
▁Asthma	-10260
▁missed	-10261
▁Between	-10262
▁motility	-10263
egalovirus	-10264
loblastoma	-10265
▁caesarean	-10266
▁employees	-10267
▁perforated	-10268
▁Dermatology	-10269
▁anastomotic	-10270
▁precautions	-10271
▁respiration	-10272
aki	-10273
dil	-10274
Barr	-10275
axia	-10276
fuse	-10277
lers	-10278
▁VAP	-10279
▁led	-10280
▁(48.	-10281
▁leth	-10282
▁meal	-10283
▁pure	-10284
acillin	-10285
▁Salmon	-10286
▁blocks	-10287
▁resemb	-10288
▁peptide	-10289
▁agonists	-10290
▁attempts	-10291
▁vitamins	-10292
▁aesthetic	-10293
▁epithelium	-10294
▁Preliminary	-10295
▁intracerebral	-10296
▁hydronephrosis	-10297
KD	-10298
LR	-10299
dy	-10300
iO	-10301
has	-10302
▁BR	-10303
▁TA	-10304
argy	-10305
▁ERCP	-10306
▁Khanh	-10307
▁disco	-10308
▁stern	-10309
ourinary	-10310
▁humeral	-10311
▁subtype	-10312
▁alkaline	-10313
▁maneuver	-10314
▁prevents	-10315
▁geriatric	-10316
ventilation	-10317
▁cystectomy	-10318
▁detachment	-10319
▁fibrinogen	-10320
▁parenchymal	-10321
▁phosphatase	-10322
▁prematurity	-10323
▁Malnutrition	-10324
▁bronchoscopy	-10325
▁diaphragmatic	-10326
▁22,	-10327
▁(71.	-10328
▁50%.	-10329
▁VIII	-10330
acchar	-10331
accoun	-10332
called	-10333
itoneum	-10334
section	-10335
▁counter	-10336
▁paralle	-10337
▁actually	-10338
calcitonin	-10339
▁delivered	-10340
▁adequately	-10341
▁irreversible	-10342
fem	-10343
haps	-10344
such	-10345
▁Ten	-10346
arial	-10347
▁(60.	-10348
▁ever	-10349
▁pust	-10350
cystic	-10351
▁Ratio	-10352
▁Retro	-10353
▁depos	-10354
▁promo	-10355
▁speed	-10356
▁cutoff	-10357
▁linked	-10358
▁nguyen	-10359
▁parent	-10360
▁street	-10361
arseness	-10362
▁Hepatic	-10363
▁Insulin	-10364
▁Urology	-10365
▁partner	-10366
▁pemphig	-10367
▁sutures	-10368
▁Duration	-10369
▁resource	-10370
▁anaerobic	-10371
▁erythropo	-10372
▁limitation	-10373
▁mountainous	-10374
▁necrotizing	-10375
▁paracetamol	-10376
▁recognition	-10377
▁associations	-10378
▁availability	-10379
▁rhinosinusitis	-10380
RH	-10381
ada	-10382
ora	-10383
±2.	-10384
▁19,	-10385
▁rop	-10386
clude	-10387
uated	-10388
▁Chau	-10389
▁GERD	-10390
▁Hong	-10391
▁Nons	-10392
0.001.	-10393
ramine	-10394
▁hemip	-10395
heresis	-10396
▁APACHE	-10397
▁Excess	-10398
▁canals	-10399
▁Vaginal	-10400
▁careful	-10401
▁sinuses	-10402
voflurane	-10403
▁collecting	-10404
▁hypertrophic	-10405
▁supplemental	-10406
▁transfusions	-10407
GS	-10408
KA	-10409
pm	-10410
6).	-10411
pon	-10412
▁91	-10413
▁Kh	-10414
▁tu	-10415
▁CAD	-10416
▁Feb	-10417
▁ham	-10418
/2021	-10419
ostal	-10420
▁(56.	-10421
▁Bart	-10422
▁mode	-10423
inting	-10424
oluble	-10425
▁Asian	-10426
▁empty	-10427
▁manip	-10428
▁nodal	-10429
▁copies	-10430
▁indust	-10431
▁neutral	-10432
▁overlap	-10433
▁sciatic	-10434
▁hormonal	-10435
▁describes	-10436
triglycerid	-10437
▁clindamycin	-10438
▁fluoroquinol	-10439
▁hypogonadism	-10440
▁esophagectomy	-10441
▁prescriptions	-10442
▁uncomplicated	-10443
TER	-10444
aft	-10445
dys	-10446
oles	-10447
▁Dig	-10448
▁IOP	-10449
▁Saf	-10450
abine	-10451
▁(76.	-10452
▁Late	-10453
▁Rout	-10454
3.3%),	-10455
smotic	-10456
innitus	-10457
isation	-10458
itional	-10459
▁astigm	-10460
▁gently	-10461
▁promot	-10462
▁Hodgkin	-10463
▁bedside	-10464
onecrosis	-10465
▁Injuries	-10466
▁warfarin	-10467
▁TREATMENT	-10468
▁Development	-10469
▁angioplasty	-10470
▁variability	-10471
54	-10472
6;	-10473
▁SM	-10474
▁fa	-10475
tify	-10476
▁2.9	-10477
ishes	-10478
ismus	-10479
▁acqu	-10480
▁opac	-10481
▁project	-10482
▁auditory	-10483
▁vasoconst	-10484
▁gallstones	-10485
▁prescribing	-10486
/7	-10487
▁Ge	-10488
▁rs	-10489
burg	-10490
tick	-10491
▁0%,	-10492
▁law	-10493
antial	-10494
iation	-10495
▁lasts	-10496
▁Predic	-10497
▁chills	-10498
▁filter	-10499
▁search	-10500
▁turbin	-10501
▁dehydro	-10502
▁lasting	-10503
▁building	-10504
▁extensor	-10505
▁parasitic	-10506
▁indicating	-10507
▁inspection	-10508
▁correlations	-10509
▁cephalosporin	-10510
▁radiofrequency	-10511
▁anticholinergic	-10512
glut	-10513
▁1%,	-10514
▁25,	-10515
▁bin	-10516
minth	-10517
▁(82.	-10518
▁Iron	-10519
▁Loss	-10520
▁kind	-10521
▁Large	-10522
▁Nerve	-10523
▁terat	-10524
▁Figure	-10525
▁condom	-10526
▁dermal	-10527
▁fourth	-10528
▁hybrid	-10529
▁titers	-10530
hexidine	-10531
▁Obesity	-10532
▁Various	-10533
▁advised	-10534
▁compati	-10535
▁restore	-10536
▁univers	-10537
vertebral	-10538
▁perinatal	-10539
▁synthetic	-10540
ussusception	-10541
▁conjunctival	-10542
▁Endocrinology	-10543
ALT	-10544
iep	-10545
lig	-10546
▁PI	-10547
▁VI	-10548
▁102	-10549
idase	-10550
ionuc	-10551
matic	-10552
▁hold	-10553
▁stro	-10554
ancial	-10555
oderma	-10556
▁Report	-10557
▁assist	-10558
▁passage	-10559
▁uveitis	-10560
lactamase	-10561
sometimes	-10562
▁Maternal	-10563
▁Pregnant	-10564
▁Previous	-10565
▁cortical	-10566
▁reactive	-10567
▁Neurology	-10568
▁neutrophil	-10569
▁Investigating	-10570
▁oropharyngeal	-10571
ica	-10572
▁92	-10573
auge	-10574
trin	-10575
vest	-10576
irsch	-10577
▁bony	-10578
▁conv	-10579
▁isot	-10580
embran	-10581
▁scans	-10582
amethox	-10583
angiect	-10584
▁Africa	-10585
▁duplic	-10586
▁Salmonella	-10587
▁urinalysis	-10588
OX	-10589
rasp	-10590
▁(18	-10591
▁Are	-10592
azine	-10593
▁comm	-10594
▁farm	-10595
▁here	-10596
▁pork	-10597
chemic	-10598
▁drops	-10599
▁infra	-10600
▁noise	-10601
olecular	-10602
▁massage	-10603
▁resting	-10604
▁Nowadays	-10605
▁adenomas	-10606
▁enhanced	-10607
51	-10608
NC	-10609
ICS	-10610
aud	-10611
elt	-10612
ita	-10613
▁IP	-10614
5%);	-10615
asic	-10616
ylar	-10617
▁3.8	-10618
▁Muc	-10619
▁sar	-10620
3.3%.	-10621
▁(95.	-10622
▁kept	-10623
▁rick	-10624
phosph	-10625
▁Techn	-10626
▁annual	-10627
▁inactiv	-10628
▁surveyed	-10629
acerations	-10630
ospholipid	-10631
▁diagnoses	-10632
▁vertebrae	-10633
▁structured	-10634
▁antagonists	-10635
▁elimination	-10636
▁hematologic	-10637
▁eosinophilia	-10638
▁amplification	-10639
▁ciprofloxacin	-10640
ADS	-10641
fen	-10642
ogy	-10643
avir	-10644
▁Lip	-10645
metry	-10646
score	-10647
▁(88.	-10648
▁Thuy	-10649
▁pron	-10650
▁tele	-10651
inseng	-10652
▁2008.	-10653
▁Value	-10654
▁bolus	-10655
▁sweat	-10656
affected	-10657
▁Calcium	-10658
▁Allergic	-10659
▁Shoulder	-10660
▁aminoglyc	-10661
▁keratitis	-10662
▁nocturnal	-10663
▁placental	-10664
▁tamponade	-10665
▁voluntary	-10666
▁antagonist	-10667
▁Thalassemia	-10668
▁antiplatelet	-10669
FI	-10670
bec	-10671
-19.	-10672
▁8%,	-10673
▁Tre	-10674
▁cav	-10675
▁ult	-10676
gauge	-10677
ietin	-10678
stood	-10679
▁Thir	-10680
▁chin	-10681
▁lute	-10682
▁pyel	-10683
▁Antic	-10684
▁Optim	-10685
▁Rapid	-10686
▁taste	-10687
▁Herpes	-10688
▁Insert	-10689
▁chance	-10690
▁perone	-10691
▁reality	-10692
▁scoring	-10693
▁weaning	-10694
ofloxacin	-10695
▁agreement	-10696
▁separation	-10697
▁Significant	-10698
▁utilization	-10699
▁modification	-10700
▁Alternatively	-10701
59	-10702
▁3.9	-10703
▁esc	-10704
▁(24.	-10705
▁STUD	-10706
▁cast	-10707
osides	-10708
▁Ulcer	-10709
▁adren	-10710
▁Dental	-10711
▁epidid	-10712
▁hemisp	-10713
▁sitting	-10714
▁warning	-10715
▁diuretic	-10716
▁agitation	-10717
▁concerned	-10718
▁hemodynam	-10719
▁gynecology	-10720
▁represents	-10721
cardiographic	-10722
ISH	-10723
▁LI	-10724
rent	-10725
▁3%.	-10726
▁3.7	-10727
▁PPV	-10728
▁Down	-10729
▁Indi	-10730
▁curc	-10731
chymal	-10732
oduoden	-10733
arterial	-10734
obiliary	-10735
ogeneous	-10736
▁Failure	-10737
▁rotator	-10738
▁vasodil	-10739
▁relieved	-10740
▁depletion	-10741
▁pacemaker	-10742
▁promising	-10743
▁introduced	-10744
▁phenomenon	-10745
ME	-10746
ken	-10747
▁4)	-10748
▁HA	-10749
▁Ple	-10750
▁Six	-10751
ollen	-10752
▁(72.	-10753
theria	-10754
▁ethyl	-10755
▁induc	-10756
otropin	-10757
▁mobile	-10758
▁online	-10759
▁victim	-10760
ithelial	-10761
▁targets	-10762
▁absorbed	-10763
▁palpated	-10764
▁alcoholic	-10765
▁deficient	-10766
▁Neurologic	-10767
▁challenging	-10768
▁immunoglobulin	-10769
▁microbiological	-10770
Bs	-10771
sin	-10772
▁93	-10773
illa	-10774
oflu	-10775
▁4%,	-10776
▁4.2	-10777
▁50,	-10778
▁Lev	-10779
▁She	-10780
rains	-10781
ystem	-10782
▁didn	-10783
iaceae	-10784
▁knees	-10785
hythmic	-10786
▁Europe	-10787
▁Intrac	-10788
▁crisis	-10789
uricemia	-10790
▁Students	-10791
▁academic	-10792
▁creating	-10793
▁painless	-10794
retroviral	-10795
tomatology	-10796
▁expansion	-10797
▁cumulative	-10798
▁extubation	-10799
amethoxazole	-10800
▁splenectomy	-10801
▁participation	-10802
",	-10803
opy	-10804
▁CS	-10805
▁ot	-10806
ifth	-10807
ancer	-10808
asaki	-10809
ectom	-10810
hoter	-10811
▁(70.	-10812
▁(90.	-10813
▁mini	-10814
▁skill	-10815
istaxis	-10816
▁formed	-10817
▁sector	-10818
ribution	-10819
▁Prolong	-10820
▁decades	-10821
▁allowing	-10822
▁supports	-10823
▁ascending	-10824
▁haemorrhage	-10825
▁bronchiolitis	-10826
4-	-10827
52	-10828
bul	-10829
mcg	-10830
▁5)	-10831
.201	-10832
heti	-10833
iples	-10834
▁95%:	-10835
▁Cent	-10836
▁apex	-10837
atinib	-10838
ulsive	-10839
▁monon	-10840
▁plans	-10841
ections	-10842
ickness	-10843
limited	-10844
▁parest	-10845
▁Foreign	-10846
▁agonist	-10847
▁trachea	-10848
▁Chemical	-10849
▁epidermal	-10850
▁monotherapy	-10851
▁professionals	-10852
8;	-10853
SM	-10854
ART	-10855
URE	-10856
nit	-10857
tee	-10858
▁Gn	-10859
umps	-10860
▁40,	-10861
▁den	-10862
monic	-10863
▁(69.	-10864
▁3.1.	-10865
▁Thua	-10866
▁fold	-10867
▁fram	-10868
▁mRNA	-10869
▁oint	-10870
trauma	-10871
▁2020,	-10872
▁cured	-10873
▁heard	-10874
▁inten	-10875
▁Benign	-10876
▁Establ	-10877
▁divers	-10878
▁matrix	-10879
contrast	-10880
learning	-10881
▁Compare	-10882
▁clothing	-10883
▁impacted	-10884
▁psoriatic	-10885
▁ambulatory	-10886
▁diminished	-10887
▁Investigate	-10888
▁displacement	-10889
▁bronchiectasis	-10890
01	-10891
Ds	-10892
ude	-10893
down	-10894
zema	-10895
▁24,	-10896
▁Noi	-10897
anine	-10898
▁Poss	-10899
rogens	-10900
ulates	-10901
▁Hypot	-10902
▁crown	-10903
▁jejun	-10904
seizure	-10905
▁Recent	-10906
▁postop	-10907
▁tumour	-10908
enhanced	-10909
▁anticip	-10910
oblastoma	-10911
▁suicidal	-10912
▁blindness	-10913
▁prevented	-10914
▁substantial	-10915
▁preoperatively	-10916
mium	-10917
opos	-10918
▁FOR	-10919
▁Hor	-10920
hanol	-10921
▁0.01	-10922
uptake	-10923
▁colle	-10924
blastic	-10925
ococcus	-10926
requent	-10927
▁fields	-10928
▁formal	-10929
analysis	-10930
▁believe	-10931
▁desired	-10932
▁largely	-10933
▁nuclear	-10934
▁spastic	-10935
available	-10936
electasis	-10937
▁albicans	-10938
▁parallel	-10939
▁irritability	-10940
▁autoantibodies	-10941
▁contraceptives	-10942
OV	-10943
▁94	-10944
▁Cu	-10945
▁ye	-10946
azep	-10947
▁7%.	-10948
▁eti	-10949
▁lam	-10950
▁sin	-10951
▁unf	-10952
/2008	-10953
arers	-10954
ashes	-10955
years	-10956
▁ears	-10957
▁Death	-10958
▁crack	-10959
▁ultra	-10960
atellar	-10961
issions	-10962
otyping	-10963
▁inflam	-10964
▁termed	-10965
▁tympan	-10966
▁varying	-10967
▁database	-10968
▁lethargy	-10969
▁expensive	-10970
▁compromise	-10971
▁disruption	-10972
▁refractive	-10973
▁adolescence	-10974
▁astigmatism	-10975
▁cholestasis	-10976
▁combinations	-10977
triglyceridemia	-10978
▁Identification	-10979
▁Cat	-10980
▁cam	-10981
alpha	-10982
▁topic	-10983
<0.01).	-10984
ancreat	-10985
▁applic	-10986
▁passed	-10987
▁tended	-10988
uricular	-10989
▁rubella	-10990
▁attached	-10991
cardiogram	-10992
▁dystrophy	-10993
▁experiment	-10994
▁coordination	-10995
▁triglycerides	-10996
BA	-10997
chan	-10998
▁cmH	-10999
▁fun	-11000
aries	-11001
▁(43.	-11002
▁sure	-11003
▁virt	-11004
ourses	-11005
imaging	-11006
▁Airway	-11007
▁Poison	-11008
▁Social	-11009
▁ataxia	-11010
▁retrie	-11011
▁Smoking	-11012
▁vertigo	-11013
▁androgen	-11014
▁Monitoring	-11015
▁conjunctiv	-11016
▁stratification	-11017
04	-11018
Gy	-11019
cel	-11020
fect	-11021
▁2.7	-11022
▁6%,	-11023
▁GLS	-11024
▁IFN	-11025
▁Mus	-11026
▁Nai	-11027
▁ask	-11028
▁Diss	-11029
▁Side	-11030
3.3%).	-11031
▁Ankle	-11032
▁atten	-11033
▁Sepsis	-11034
▁desire	-11035
▁losses	-11036
▁Routine	-11037
▁loading	-11038
▁waiting	-11039
perfusion	-11040
▁Relative	-11041
▁consolid	-11042
▁complexes	-11043
▁indicator	-11044
▁initiated	-11045
▁toxicities	-11046
▁hallucinations	-11047
▁gastroenteritis	-11048
CNL	-11049
lin	-11050
non	-11051
xin	-11052
▁DP	-11053
wire	-11054
▁2%,	-11055
▁30-	-11056
▁Ach	-11057
▁aph	-11058
▁gal	-11059
chang	-11060
▁(199	-11061
▁50%,	-11062
▁Gest	-11063
▁None	-11064
▁heal	-11065
▁resc	-11066
▁destro	-11067
▁serial	-11068
▁tables	-11069
ibration	-11070
utations	-11071
▁bullous	-11072
traumatic	-11073
oplasmosis	-11074
▁allergens	-11075
▁allergies	-11076
▁documents	-11077
▁Successful	-11078
▁dependence	-11079
▁interferon	-11080
▁macrophages	-11081
▁thoracotomy	-11082
▁pyelonephritis	-11083
03	-11084
ERS	-11085
eat	-11086
nee	-11087
▁CC	-11088
▁MA	-11089
heal	-11090
olol	-11091
▁(11	-11092
▁23,	-11093
▁mom	-11094
3.3%)	-11095
agers	-11096
antic	-11097
▁(40.	-11098
▁(85.	-11099
▁ECMO	-11100
▁aver	-11101
/2021.	-11102
eminal	-11103
▁Atrial	-11104
▁Graves	-11105
▁discre	-11106
▁Cushing	-11107
▁barrier	-11108
▁capable	-11109
▁deltoid	-11110
▁Location	-11111
▁meconium	-11112
▁exclusion	-11113
▁transition	-11114
▁unexpected	-11115
▁communities	-11116
▁streptococci	-11117
-1,	-11118
▁FR	-11119
▁PS	-11120
▁Ve	-11121
ECTS	-11122
otax	-11123
▁sul	-11124
▁(92.	-11125
▁tree	-11126
inally	-11127
irable	-11128
▁SPECT	-11129
▁Viral	-11130
▁reass	-11131
▁Sexual	-11132
▁saliva	-11133
▁varied	-11134
▁window	-11135
▁station	-11136
▁ingested	-11137
▁repaired	-11138
▁sickness	-11139
▁stations	-11140
▁Effective	-11141
▁Essential	-11142
▁achieving	-11143
▁cytotoxic	-11144
▁decompens	-11145
▁consisting	-11146
▁encouraged	-11147
▁radioactive	-11148
RF	-11149
kg	-11150
uz	-11151
ONG	-11152
ief	-11153
orb	-11154
▁GC	-11155
▁ame	-11156
▁oxy	-11157
▁(53.	-11158
▁dong	-11159
▁want	-11160
▁0.05)	-11161
▁Trich	-11162
▁peria	-11163
▁rigid	-11164
gnition	-11165
▁Bacter	-11166
▁subtle	-11167
▁warran	-11168
centesis	-11169
heochrom	-11170
▁prostat	-11171
▁scrotal	-11172
hotericin	-11173
occlusion	-11174
▁Comments	-11175
▁botulinum	-11176
▁seriously	-11177
heochromocy	-11178
▁subclavian	-11179
throcentesis	-11180
.,	-11181
IU	-11182
7),	-11183
8).	-11184
EAR	-11185
ael	-11186
gor	-11187
cher	-11188
▁6%.	-11189
▁800	-11190
▁Jef	-11191
▁sen	-11192
ading	-11193
ochle	-11194
▁(63.	-11195
▁call	-11196
▁vivo	-11197
▁blast	-11198
▁overe	-11199
▁vehic	-11200
olality	-11201
ription	-11202
verting	-11203
▁larynx	-11204
adjuvant	-11205
ospermia	-11206
▁context	-11207
▁focuses	-11208
▁tendons	-11209
▁Training	-11210
▁annually	-11211
▁curative	-11212
antitative	-11213
responsive	-11214
tralateral	-11215
▁Reduction	-11216
▁epileptic	-11217
▁pollution	-11218
▁separated	-11219
▁shortness	-11220
▁hoarseness	-11221
▁Adolescents	-11222
▁aldosterone	-11223
▁chlorhexidine	-11224
▁intracellular	-11225
▁atherosclerotic	-11226
HCC	-11227
WHO	-11228
det	-11229
icit	-11230
ocys	-11231
▁(15	-11232
▁Idi	-11233
▁bac	-11234
▁bif	-11235
/2010	-11236
letes	-11237
utter	-11238
▁MRSA	-11239
▁Role	-11240
commun	-11241
mittee	-11242
ubated	-11243
xysmal	-11244
ariable	-11245
▁gloves	-11246
▁unique	-11247
▁crystal	-11248
▁falling	-11249
▁Applying	-11250
▁consumed	-11251
▁reserved	-11252
▁vesicles	-11253
dimensional	-11254
▁analytical	-11255
▁ultimately	-11256
▁understood	-11257
▁mediastinum	-11258
oduodenectomy	-11259
▁Multivariate	-11260
/9	-11261
DF	-11262
TA	-11263
equ	-11264
het	-11265
arks	-11266
teen	-11267
▁DSA	-11268
▁EEG	-11269
▁ICP	-11270
▁INR	-11271
▁MPH	-11272
▁hiv	-11273
▁sea	-11274
inger	-11275
ritic	-11276
▁loud	-11277
▁palm	-11278
▁pter	-11279
▁rats	-11280
INICAL	-11281
erally	-11282
vation	-11283
▁2007.	-11284
▁curet	-11285
▁leave	-11286
aminase	-11287
defined	-11288
welling	-11289
▁immuno	-11290
▁courses	-11291
▁docking	-11292
▁composed	-11293
▁purposes	-11294
▁Prolonged	-11295
▁papilloma	-11296
▁ceftriaxone	-11297
▁hematological	-11298
▁cephalosporins	-11299
▁microorganisms	-11300
."	-11301
6),	-11302
UCT	-11303
ley	-11304
aban	-11305
acet	-11306
agit	-11307
gram	-11308
what	-11309
▁131	-11310
▁ABO	-11311
▁Anx	-11312
▁say	-11313
▁(84.	-11314
▁0.1%	-11315
▁Haem	-11316
▁diph	-11317
▁econ	-11318
cancer	-11319
hesias	-11320
inates	-11321
▁pairs	-11322
▁warts	-11323
▁adjunc	-11324
▁phases	-11325
▁sheath	-11326
eprazole	-11327
▁10.1016	-11328
▁grading	-11329
▁hydroxy	-11330
▁swollen	-11331
▁Northern	-11332
▁expectancy	-11333
▁predispose	-11334
▁improvements	-11335
iRNA	-11336
▁109	-11337
▁(67.	-11338
▁Lact	-11339
=0.001	-11340
▁Estim	-11341
▁Fluid	-11342
▁Saint	-11343
▁dissec	-11344
▁stored	-11345
bleeding	-11346
toxicity	-11347
▁Ventric	-11348
▁fibrous	-11349
▁atrophic	-11350
▁deletion	-11351
▁concluded	-11352
▁neuralgia	-11353
▁concerning	-11354
▁mastectomy	-11355
▁presentations	-11356
▁prospectively	-11357
TM	-11358
hid	-11359
ycl	-11360
▁Br	-11361
icyl	-11362
▁(-)	-11363
▁Har	-11364
▁etc	-11365
▁(93.	-11366
▁Auto	-11367
▁glob	-11368
▁stri	-11369
abolism	-11370
▁Visual	-11371
▁adding	-11372
▁raised	-11373
ultation	-11374
▁Abscess	-11375
▁allowed	-11376
▁symtoms	-11377
▁exertion	-11378
▁perineal	-11379
▁tinnitus	-11380
infectious	-11381
▁financial	-11382
▁ligaments	-11383
▁amoxicillin	-11384
▁contributed	-11385
▁esophagitis	-11386
▁neutrophils	-11387
▁pharmacists	-11388
▁ropivacaine	-11389
▁hepatomegaly	-11390
▁metronidazole	-11391
▁opportunistic	-11392
uum	-11393
ovir	-11394
▁Bal	-11395
▁GBS	-11396
▁sta	-11397
iscus	-11398
▁(94.	-11399
▁erup	-11400
▁feed	-11401
queous	-11402
▁Focal	-11403
▁worms	-11404
entorial	-11405
▁crucial	-11406
▁stromal	-11407
▁sphenoid	-11408
▁suddenly	-11409
▁palpation	-11410
▁recipient	-11411
igmentation	-11412
▁Eosinophil	-11413
▁Identifying	-11414
▁malnourished	-11415
▁proportional	-11416
▁Rehabilitation	-11417
OMA	-11418
▁ta	-11419
avul	-11420
▁2%.	-11421
▁CAN	-11422
▁why	-11423
/2012	-11424
Table	-11425
lopec	-11426
▁(75.	-11427
▁Life	-11428
▁lips	-11429
gorith	-11430
▁<0.05	-11431
▁Laser	-11432
▁polys	-11433
▁(100%)	-11434
▁recomm	-11435
▁osmotic	-11436
▁Clostrid	-11437
▁adhesive	-11438
▁curcumin	-11439
▁feelings	-11440
▁inhibits	-11441
▁ligation	-11442
▁rhabdomy	-11443
▁Childrens	-11444
▁Comparing	-11445
▁Idiopathic	-11446
▁background	-11447
▁industrial	-11448
▁Histopatholog	-11449
Hb	-11450
▁JA	-11451
amus	-11452
skin	-11453
uses	-11454
▁1%.	-11455
▁Bur	-11456
▁jud	-11457
▁seb	-11458
▁Coun	-11459
▁Reco	-11460
▁mist	-11461
▁wrap	-11462
ensiti	-11463
urgery	-11464
▁bound	-11465
▁herbs	-11466
▁lamin	-11467
<0.05),	-11468
discipl	-11469
ifferen	-11470
▁nipple	-11471
▁notice	-11472
▁transl	-11473
▁anomaly	-11474
▁bearing	-11475
▁gradual	-11476
▁septice	-11477
medullary	-11478
thostatic	-11479
▁Arterial	-11480
▁methanol	-11481
▁subdural	-11482
▁emphysema	-11483
ofiltration	-11484
▁Mechanical	-11485
▁osmolality	-11486
▁eosinophils	-11487
▁nasogastric	-11488
▁Sn	-11489
etts	-11490
omia	-11491
tors	-11492
▁4.6	-11493
/2011	-11494
bound	-11495
etics	-11496
forts	-11497
hobia	-11498
icken	-11499
▁ACTH	-11500
▁hund	-11501
amicin	-11502
dermal	-11503
minant	-11504
▁Avoid	-11505
▁hypop	-11506
▁perme	-11507
▁Cephal	-11508
▁Virgin	-11509
▁bright	-11510
▁irradi	-11511
▁policy	-11512
▁categor	-11513
▁couples	-11514
▁Computed	-11515
▁Headache	-11516
▁Outcomes	-11517
▁choosing	-11518
▁collapse	-11519
▁maturation	-11520
▁dissolution	-11521
▁hemorrhages	-11522
▁contractions	-11523
▁sedimentation	-11524
▁SG	-11525
▁Eth	-11526
▁KAP	-11527
▁Sol	-11528
▁map	-11529
angle	-11530
romas	-11531
▁0.12	-11532
▁Code	-11533
▁felt	-11534
ercise	-11535
iogram	-11536
▁Aspir	-11537
▁Backg	-11538
▁tibia	-11539
agittal	-11540
▁Lympho	-11541
▁sensor	-11542
▁doppler	-11543
▁dynamic	-11544
▁micromol	-11545
▁sedative	-11546
inesterase	-11547
▁lipoprotein	-11548
▁unsuccessful	-11549
▁contralateral	-11550
▁quantification	-11551
/8	-11552
RP	-11553
/24	-11554
AVA	-11555
▁Em	-11556
fied	-11557
onus	-11558
▁5.5	-11559
▁>0,	-11560
▁ACL	-11561
▁DIS	-11562
▁Doc	-11563
▁PAP	-11564
▁PDA	-11565
▁aff	-11566
early	-11567
gered	-11568
▁amen	-11569
oprost	-11570
orphic	-11571
ticles	-11572
▁arous	-11573
▁legal	-11574
▁myocl	-11575
▁notic	-11576
▁fruits	-11577
▁submuc	-11578
▁surviv	-11579
▁trocar	-11580
▁reticul	-11581
▁blockade	-11582
▁constric	-11583
▁migraine	-11584
▁occupied	-11585
▁disappear	-11586
▁infective	-11587
▁multidrug	-11588
▁candidates	-11589
▁motivation	-11590
▁sevoflurane	-11591
▁practitioner	-11592
▁disadvantages	-11593
▁antihistamines	-11594
▁transformation	-11595
".	-11596
06	-11597
▁PC	-11598
nios	-11599
poss	-11600
▁oss	-11601
ampin	-11602
immun	-11603
▁oval	-11604
phthal	-11605
▁Color	-11606
▁Hoang	-11607
▁offer	-11608
▁Sample	-11609
▁carrier	-11610
▁cooking	-11611
▁Circular	-11612
converting	-11613
▁consensus	-11614
▁fragments	-11615
▁restricted	-11616
▁atelectasis	-11617
▁pharyngitis	-11618
▁confirmation	-11619
ORS	-11620
▁Pr	-11621
ENCE	-11622
beta	-11623
edic	-11624
stry	-11625
▁VSD	-11626
bowel	-11627
formed	-11628
ometer	-11629
oustic	-11630
▁Defin	-11631
▁antis	-11632
▁imbal	-11633
▁wards	-11634
ematous	-11635
ophilus	-11636
▁0.01).	-11637
▁Target	-11638
▁really	-11639
▁bedtime	-11640
▁policies	-11641
▁returned	-11642
▁sleeping	-11643
▁contained	-11644
▁ovulation	-11645
▁assistance	-11646
▁vulnerable	-11647
▁orientation	-11648
▁thrombectomy	-11649
▁genitourinary	-11650
9;	-11651
VC	-11652
lay	-11653
mat	-11654
adic	-11655
cele	-11656
idor	-11657
utin	-11658
yema	-11659
▁CHD	-11660
▁Ear	-11661
▁SCI	-11662
lasts	-11663
never	-11664
oides	-11665
▁(97.	-11666
▁NAVA	-11667
<0.05)	-11668
▁2019,	-11669
▁folds	-11670
▁phaco	-11671
▁seven	-11672
alities	-11673
orption	-11674
▁Granul	-11675
▁sports	-11676
ceptions	-11677
ophthalm	-11678
▁Confirm	-11679
▁daytime	-11680
▁hernias	-11681
ionuclide	-11682
▁oximetry	-11683
▁Psoriasis	-11684
▁composite	-11685
▁intrinsic	-11686
▁nutrients	-11687
▁protocols	-11688
▁myocardium	-11689
▁subjective	-11690
▁amyloidosis	-11691
▁glucocortic	-11692
MM	-11693
lip	-11694
▁(4,	-11695
▁101	-11696
▁45%	-11697
▁PEX	-11698
▁bat	-11699
▁bud	-11700
▁MSDs	-11701
▁West	-11702
▁midw	-11703
▁James	-11704
▁stere	-11705
develop	-11706
lopecia	-11707
opelvic	-11708
▁coming	-11709
▁compet	-11710
▁modest	-11711
▁digoxin	-11712
▁mastoid	-11713
▁needles	-11714
▁tetanus	-11715
▁Virginia	-11716
▁fertility	-11717
▁Anesthesia	-11718
▁recommends	-11719
disciplinary	-11720
nce	-11721
ups	-11722
asms	-11723
▁HRV	-11724
▁VII	-11725
▁gum	-11726
isomy	-11727
urred	-11728
▁Burn	-11729
▁mesh	-11730
ecture	-11731
omotor	-11732
ulence	-11733
uretic	-11734
▁Occup	-11735
▁dried	-11736
▁feces	-11737
hancing	-11738
▁cardio	-11739
▁cramps	-11740
▁office	-11741
omycosis	-11742
▁Examine	-11743
▁Typical	-11744
▁cutting	-11745
▁infancy	-11746
▁perhaps	-11747
▁Elevated	-11748
▁Standard	-11749
▁nicotine	-11750
epithelial	-11751
▁Malignant	-11752
▁mentioned	-11753
▁perceived	-11754
▁negatively	-11755
▁infiltrates	-11756
▁prostatectomy	-11757
oparathyroidism	-11758
▁cerebrovascular	-11759
ibr	-11760
▁BC	-11761
▁LC	-11762
oney	-11763
▁(3,	-11764
▁8%.	-11765
▁AFB	-11766
▁lax	-11767
eless	-11768
emuls	-11769
▁Open	-11770
▁Work	-11771
▁lose	-11772
▁visc	-11773
genase	-11774
inosis	-11775
▁Thach	-11776
▁maxim	-11777
▁smell	-11778
ensions	-11779
iabetic	-11780
tenatal	-11781
▁Simple	-11782
thickness	-11783
▁cleaning	-11784
illofacial	-11785
▁Molecular	-11786
▁preschool	-11787
▁Associated	-11788
▁challenges	-11789
▁meningioma	-11790
▁Gestational	-11791
▁Statistical	-11792
▁q	-11793
iff	-11794
tia	-11795
▁CB	-11796
gias	-11797
▁(25	-11798
▁ADR	-11799
▁Lao	-11800
▁SUR	-11801
dimer	-11802
ferson	-11803
ophyll	-11804
person	-11805
▁weigh	-11806
▁Dermat	-11807
▁aggreg	-11808
▁emphas	-11809
sthoracic	-11810
▁hydrogen	-11811
▁Jefferson	-11812
▁Similarly	-11813
▁Overweight	-11814
▁Persistent	-11815
▁ampicillin	-11816
▁hyperkalemia	-11817
▁progesterone	-11818
▁intussusception	-11819
4+	-11820
94	-11821
pa	-11822
8),	-11823
cis	-11824
roc	-11825
▁BL	-11826
▁ACS	-11827
▁NPV	-11828
▁OSA	-11829
▁Tes	-11830
/2014	-11831
▁doub	-11832
▁gray	-11833
▁01/01	-11834
▁Influ	-11835
▁deeper	-11836
▁hazard	-11837
▁lichen	-11838
▁potent	-11839
▁season	-11840
▁sought	-11841
▁Adrenal	-11842
▁offered	-11843
▁placing	-11844
diagnostic	-11845
▁Aspergill	-11846
▁seafarers	-11847
▁reperfusion	-11848
▁threatening	-11849
▁cyclosporine	-11850
▁micronutrient	-11851
▁Recommendations	-11852
HP	-11853
VI	-11854
9).	-11855
▁Lo	-11856
edes	-11857
foot	-11858
▁35%	-11859
▁IOL	-11860
▁Lak	-11861
▁Mer	-11862
▁Yes	-11863
/2007	-11864
odopa	-11865
▁Uter	-11866
▁corp	-11867
▁falc	-11868
agland	-11869
▁Onset	-11870
▁semen	-11871
▁snake	-11872
▁unpro	-11873
▁simply	-11874
communic	-11875
osurgery	-11876
▁Anxiety	-11877
▁chewing	-11878
▁cluster	-11879
▁strokes	-11880
▁Cerebral	-11881
▁analyses	-11882
▁kitchens	-11883
osclerosis	-11884
▁cigarette	-11885
▁varicella	-11886
▁menopausal	-11887
▁principles	-11888
▁hypoglycemic	-11889
▁lymphoblastic	-11890
▁benzodiazepines	-11891
CNS	-11892
ney	-11893
arth	-11894
coun	-11895
iage	-11896
oure	-11897
seal	-11898
▁0%.	-11899
▁29,	-11900
▁3.6	-11901
▁Due	-11902
comas	-11903
ulous	-11904
▁(59.	-11905
▁(78.	-11906
▁negl	-11907
thromb	-11908
venile	-11909
▁decay	-11910
▁levob	-11911
▁panel	-11912
▁works	-11913
▁Rectal	-11914
▁lenses	-11915
▁vector	-11916
▁0.001),	-11917
▁blocker	-11918
▁infarct	-11919
▁missing	-11920
▁reveals	-11921
▁limiting	-11922
▁optimize	-11923
▁reuptake	-11924
▁Hochiminh	-11925
▁Pathology	-11926
▁psychosis	-11927
▁residents	-11928
▁triggered	-11929
▁connection	-11930
▁unaffected	-11931
▁pneumonitis	-11932
do	-11933
200	-11934
gar	-11935
▁EBV	-11936
▁Roc	-11937
uffer	-11938
▁Bien	-11939
▁MDCT	-11940
▁evac	-11941
▁odds	-11942
▁surv	-11943
▁trap	-11944
mented	-11945
▁Black	-11946
▁serve	-11947
▁Status	-11948
▁pseudo	-11949
▁Diffuse	-11950
▁forceps	-11951
▁prepare	-11952
▁classify	-11953
▁confused	-11954
▁contacts	-11955
▁overdose	-11956
▁amplitude	-11957
▁calculate	-11958
▁narrowing	-11959
▁definition	-11960
▁mycobacter	-11961
▁paclitaxel	-11962
▁repetitive	-11963
▁chromosomes	-11964
▁preexisting	-11965
▁respondents	-11966
05	-11967
RR	-11968
atz	-11969
▁MO	-11970
▁VA	-11971
band	-11972
esia	-11973
plan	-11974
▁ARI	-11975
▁Act	-11976
▁Pho	-11977
▁hus	-11978
estic	-11979
iding	-11980
lopia	-11981
▁Circ	-11982
▁Exam	-11983
▁dual	-11984
▁util	-11985
▁Hydro	-11986
orbital	-11987
▁Venous	-11988
estation	-11989
▁Analges	-11990
▁margins	-11991
▁precurs	-11992
▁tetracy	-11993
ilization	-11994
▁Diabetic	-11995
▁Neonates	-11996
▁inflamed	-11997
olithiasis	-11998
▁postnatal	-11999
acupuncture	-12000
▁ventilated	-12001
▁microsurgery	-12002
▁trimethoprim	-12003
▁consideration	-12004
▁endometriosis	-12005
▁nephrolithotomy	-12006
91	-12007
.10	-12008
gun	-12009
ini	-12010
uts	-12011
▁9%,	-12012
▁let	-12013
ducer	-12014
emble	-12015
ulins	-12016
ustry	-12017
ystag	-12018
▁(74.	-12019
▁Dose	-12020
▁STAT	-12021
iparum	-12022
ishman	-12023
▁METHO	-12024
▁ruled	-12025
quamous	-12026
ramnios	-12027
▁Metast	-12028
▁ductal	-12029
diabetes	-12030
▁Glucose	-12031
▁Objects	-12032
▁neurons	-12033
vacizumab	-12034
▁biologic	-12035
▁somewhat	-12036
▁troponin	-12037
accounting	-12038
oagulation	-12039
▁alkalosis	-12040
▁eliminate	-12041
▁Pancreatic	-12042
▁modalities	-12043
▁bloodstream	-12044
ofluorescence	-12045
▁polycythemia	-12046
▁neurovascular	-12047
▁postoperation	-12048
67%	-12049
aze	-12050
ails	-12051
▁12%	-12052
▁175	-12053
▁25-	-12054
▁33,	-12055
▁HSV	-12056
▁tal	-12057
/2013	-12058
acarp	-12059
atile	-12060
creat	-12061
heres	-12062
senic	-12063
▁(68.	-12064
▁20%.	-12065
▁PEEP	-12066
▁Very	-12067
▁asth	-12068
▁caud	-12069
▁ethn	-12070
▁iris	-12071
▁punc	-12072
▁unre	-12073
▁humer	-12074
▁trach	-12075
▁Growth	-12076
▁expend	-12077
▁multim	-12078
▁vascul	-12079
▁Sterile	-12080
▁reading	-12081
▁equation	-12082
▁Carcinoma	-12083
▁addiction	-12084
▁caregiver	-12085
▁institute	-12086
plenomegaly	-12087
▁angioedema	-12088
▁Symptomatic	-12089
▁consequence	-12090
▁unavailable	-12091
▁tonsillectomy	-12092
HT	-12093
IPS	-12094
ffe	-12095
ols	-12096
tin	-12097
▁Az	-12098
▁la	-12099
azid	-12100
echo	-12101
zyme	-12102
▁Anh	-12103
▁Nas	-12104
ticip	-12105
ulose	-12106
▁Real	-12107
▁vera	-12108
ralogy	-12109
rophys	-12110
▁Nasal	-12111
▁rough	-12112
astatin	-12113
gesting	-12114
▁fascia	-12115
duodenal	-12116
▁Erythem	-12117
▁analyse	-12118
oxication	-12119
requently	-12120
▁Severity	-12121
▁Survival	-12122
▁Techniqu	-12123
▁happened	-12124
▁retained	-12125
▁accessory	-12126
▁Continuous	-12127
▁Increasing	-12128
▁describing	-12129
▁septicemia	-12130
▁thoroughly	-12131
▁volunteers	-12132
▁restoration	-12133
▁ventilatory	-12134
▁carbohydrate	-12135
▁palpitations	-12136
▁independently	-12137
▁procalcitonin	-12138
EW	-12139
HL	-12140
ns	-12141
▁SF	-12142
days	-12143
▁(30	-12144
▁(50	-12145
▁ALL	-12146
▁AMI	-12147
▁Cyt	-12148
▁Ref	-12149
▁Tim	-12150
▁ips	-12151
▁kyp	-12152
heses	-12153
icine	-12154
▁(1):	-12155
▁curv	-12156
▁eGFR	-12157
ACTERI	-12158
uresis	-12159
▁STUDY	-12160
▁cords	-12161
▁physi	-12162
▁pills	-12163
ilities	-12164
ivacain	-12165
urrence	-12166
▁Nurses	-12167
▁celiac	-12168
▁retard	-12169
▁colleag	-12170
▁sternal	-12171
▁voiding	-12172
▁Ophthalm	-12173
▁actively	-12174
▁adhesion	-12175
▁epididym	-12176
▁lacrimal	-12177
▁preserve	-12178
▁presepsin	-12179
▁complaints	-12180
▁alterations	-12181
▁coagulopathy	-12182
▁progressively	-12183
▁hemofiltration	-12184
07	-12185
-2-	-12186
rub	-12187
-19,	-12188
ustr	-12189
▁28,	-12190
▁Don	-12191
▁Pac	-12192
EARCH	-12193
▁(33.	-12194
▁(89.	-12195
▁proc	-12196
▁spot	-12197
▁Green	-12198
ochlear	-12199
rolimus	-12200
▁easier	-12201
▁ground	-12202
▁insert	-12203
<0.001),	-12204
natremia	-12205
▁Michael	-12206
▁proceed	-12207
▁imipenem	-12208
▁classical	-12209
▁incorrect	-12210
▁optimized	-12211
▁responded	-12212
albuminuria	-12213
▁epigastric	-12214
▁hemophilia	-12215
▁Additionally	-12216
▁erythromycin	-12217
▁pneumococcal	-12218
Ab	-12219
▁GR	-12220
▁HD	-12221
▁TT	-12222
chia	-12223
erly	-12224
iant	-12225
▁CAR	-12226
▁iod	-12227
elior	-12228
force	-12229
iamin	-12230
teric	-12231
▁(83.	-12232
▁0.02	-12233
▁CPAP	-12234
▁held	-12235
▁hole	-12236
▁elast	-12237
▁input	-12238
▁nails	-12239
▁Manual	-12240
▁Oxygen	-12241
▁socket	-12242
▁vacuum	-12243
▁papules	-12244
▁survive	-12245
▁Magnetic	-12246
▁RESEARCH	-12247
▁asthmatic	-12248
▁incubation	-12249
▁leukocytes	-12250
▁positioning	-12251
▁extrahepatic	-12252
▁dehydrogenase	-12253
▁psychotherapy	-12254
MW	-12255
yme	-12256
±3.	-12257
,...	-12258
berg	-12259
epid	-12260
male	-12261
rung	-12262
▁IVF	-12263
ident	-12264
ietal	-12265
wards	-12266
▁FACP	-12267
usting	-12268
▁asphy	-12269
▁dress	-12270
▁sexes	-12271
▁eczema	-12272
▁fluctu	-12273
retinoin	-12274
▁Related	-12275
▁Uterine	-12276
▁fibroid	-12277
ocentesis	-12278
ocysteine	-12279
▁algorith	-12280
▁clotting	-12281
▁Intestinal	-12282
▁biomarkers	-12283
▁regulation	-12284
▁lymphocytic	-12285
▁prothrombin	-12286
ancreatography	-12287
▁Interpretation	-12288
▁antipsychotics	-12289
▁IB	-12290
CPAP	-12291
hoid	-12292
▁GDM	-12293
▁Mes	-12294
▁Nit	-12295
▁Nov	-12296
▁Pet	-12297
▁Set	-12298
class	-12299
stomy	-12300
▁CHAR	-12301
▁Char	-12302
▁Kinh	-12303
▁mand	-12304
▁ovar	-12305
methyl	-12306
orectal	-12307
▁Muscle	-12308
aturated	-12309
▁Success	-12310
▁Whether	-12311
▁noticed	-12312
hoblastic	-12313
▁External	-12314
▁Response	-12315
▁modality	-12316
▁sessions	-12317
▁shunting	-12318
tivariable	-12319
▁neoplasia	-12320
▁sequences	-12321
▁Vancomycin	-12322
▁mobilizing	-12323
▁methicillin	-12324
▁supplemented	-12325
▁.	-12326
▁FI	-12327
▁TE	-12328
▁4%.	-12329
▁Dam	-12330
▁FDA	-12331
▁IUD	-12332
▁Ste	-12333
▁ran	-12334
▁vig	-12335
ginal	-12336
▁Self	-12337
▁2018,	-12338
▁mediat	-12339
▁proton	-12340
▁detects	-12341
▁empyema	-12342
▁enteral	-12343
▁observe	-12344
▁reaches	-12345
▁cystatin	-12346
▁helminth	-12347
▁metatars	-12348
tiocytosis	-12349
▁Meanwhile	-12350
▁antivenom	-12351
▁leukocyte	-12352
▁vegetable	-12353
▁attributed	-12354
▁falciparum	-12355
▁accompanying	-12356
▁microvascular	-12357
itz	-12358
benz	-12359
fish	-12360
hand	-12361
▁(13	-12362
▁(17	-12363
▁4.1	-12364
▁45,	-12365
▁627	-12366
▁Asy	-12367
▁INF	-12368
marks	-12369
▁Lyme	-12370
▁keto	-12371
athiop	-12372
▁autom	-12373
▁begun	-12374
▁diets	-12375
▁eight	-12376
▁rules	-12377
▁trich	-12378
▁vuong	-12379
▁Strong	-12380
▁radius	-12381
▁thirds	-12382
▁weekly	-12383
▁advances	-12384
▁expendit	-12385
▁marginal	-12386
▁resolved	-12387
▁tendency	-12388
▁Discussion	-12389
phospholipid	-12390
▁Obstructive	-12391
▁disabilities	-12392
▁hyperuricemia	-12393
▁mitochondrial	-12394
▁extracorporeal	-12395
▁pathophysiology	-12396
▁pharmacological	-12397
YT	-12398
▁Mc	-12399
▁Pe	-12400
gnes	-12401
list	-12402
rand	-12403
tium	-12404
▁Lab	-12405
▁Tet	-12406
▁fed	-12407
▁son	-12408
▁sum	-12409
iably	-12410
mouth	-12411
tumor	-12412
▁Norm	-12413
▁fiss	-12414
▁autog	-12415
▁spots	-12416
release	-12417
thalass	-12418
▁Physic	-12419
▁fairly	-12420
▁spasms	-12421
orbidity	-12422
▁adenoid	-12423
▁ganglia	-12424
▁locking	-12425
▁stimuli	-12426
▁suspect	-12427
▁Absolute	-12428
▁incorpor	-12429
▁overview	-12430
▁resected	-12431
▁resemble	-12432
ignificant	-12433
▁Chlamydia	-12434
▁epistaxis	-12435
▁explained	-12436
omandibular	-12437
▁polyphenol	-12438
▁Measurement	-12439
▁Immunization	-12440
▁heterozygous	-12441
▁Abnormalities	-12442
vO	-12443
9),	-12444
del	-12445
thy	-12446
also	-12447
▁27,	-12448
▁4.4	-12449
▁CBD	-12450
▁Che	-12451
▁Rad	-12452
incre	-12453
▁Colo	-12454
▁Flex	-12455
▁Prec	-12456
▁coex	-12457
anotic	-12458
icidal	-12459
tiated	-12460
▁001).	-12461
▁10.11	-12462
▁33.3%	-12463
▁Adult	-12464
irschsp	-12465
▁Global	-12466
▁drying	-12467
hidrosis	-12468
▁Faculty	-12469
▁amelior	-12470
▁ginseng	-12471
upivacain	-12472
▁Exposure	-12473
▁Ischemic	-12474
▁Particip	-12475
▁examiner	-12476
▁ointment	-12477
▁tyrosine	-12478
▁Initially	-12479
▁attending	-12480
▁criterion	-12481
▁follicular	-12482
▁inspiratory	-12483
CBC	-12484
ITY	-12485
iar	-12486
▁Hu	-12487
acia	-12488
bite	-12489
▁ice	-12490
▁soy	-12491
/2016	-12492
▁ADHD	-12493
▁Neck	-12494
▁PASI	-12495
▁clon	-12496
▁reim	-12497
stroke	-12498
▁Fluor	-12499
▁Micro	-12500
▁lives	-12501
▁vitre	-12502
▁wrong	-12503
▁Mitral	-12504
▁layers	-12505
▁menses	-12506
▁testes	-12507
▁upward	-12508
alveolar	-12509
▁Removal	-12510
▁brought	-12511
▁neither	-12512
▁Lymphoma	-12513
▁Platelet	-12514
▁Services	-12515
athioprine	-12516
▁meropenem	-12517
▁reporting	-12518
▁thickened	-12519
▁comparative	-12520
▁demonstrate	-12521
▁hypovolemia	-12522
▁intercostal	-12523
▁ipsilateral	-12524
▁percentages	-12525
▁prediabetes	-12526
0.5	-12527
IGO	-12528
enn	-12529
uth	-12530
▁TM	-12531
▁6.2	-12532
▁Bul	-12533
akers	-12534
evalu	-12535
ubric	-12536
▁Acad	-12537
▁dext	-12538
▁dyss	-12539
▁writ	-12540
cortis	-12541
meters	-12542
▁2012,	-12543
▁Chrom	-12544
▁fibro	-12545
▁knife	-12546
▁split	-12547
tivated	-12548
▁Gender	-12549
▁hyperp	-12550
▁junior	-12551
▁lipids	-12552
▁pacing	-12553
luxation	-12554
transmit	-12555
ystagmus	-12556
▁Ovarian	-12557
▁acutely	-12558
▁airflow	-12559
▁dystonia	-12560
▁ensuring	-12561
▁Cognitive	-12562
▁colectomy	-12563
▁exhibited	-12564
▁colleagues	-12565
availability	-12566
communicable	-12567
▁supervision	-12568
▁physiological	-12569
▁histopathologic	-12570
Wh	-12571
cap	-12572
mid	-12573
urt	-12574
▁[2	-12575
▁ic	-12576
▁pig	-12577
▁0.25	-12578
▁20.0	-12579
▁barb	-12580
▁leng	-12581
▁opin	-12582
growth	-12583
▁Unlike	-12584
▁previa	-12585
phincter	-12586
▁aqueous	-12587
▁Prostate	-12588
▁balanced	-12589
▁industry	-12590
▁profound	-12591
▁thoughts	-12592
▁relations	-12593
irschsprung	-12594
▁cholangiop	-12595
▁continuing	-12596
▁antiseizure	-12597
▁Tuberculosis	-12598
▁transplanted	-12599
▁antiretroviral	-12600
▁cytomegalovirus	-12601
▁ophthalmologist	-12602
Ch	-12603
ius	-12604
▁BI	-12605
▁PL	-12606
▁nh	-12607
▁om	-12608
best	-12609
fast	-12610
heic	-12611
late	-12612
truc	-12613
▁43,	-12614
▁Den	-12615
▁HAP	-12616
▁som	-12617
▁(73.	-12618
▁(98.	-12619
▁Past	-12620
avicle	-12621
ignment	-12622
omiasis	-12623
▁fisher	-12624
▁palmar	-12625
▁testis	-12626
lessness	-12627
surgical	-12628
▁African	-12629
▁address	-12630
▁concept	-12631
▁follicle	-12632
▁southern	-12633
▁Committee	-12634
▁Excessive	-12635
▁Surveying	-12636
▁antenatal	-12637
▁exposures	-12638
▁microbial	-12639
▁Geriatrics	-12640
▁frequencies	-12641
▁interleukin	-12642
▁perforators	-12643
▁temporarily	-12644
▁consolidation	-12645
▁trophoblastic	-12646
▁transportation	-12647
08	-12648
ALU	-12649
fed	-12650
sup	-12651
grad	-12652
iral	-12653
▁Hop	-12654
▁SURG	-12655
echiae	-12656
ferent	-12657
▁Colon	-12658
▁ileal	-12659
▁ileum	-12660
▁incon	-12661
▁panic	-12662
▁robot	-12663
▁tasks	-12664
istingu	-12665
tracted	-12666
▁Immune	-12667
diabetic	-12668
oplasmic	-12669
▁endodon	-12670
▁patency	-12671
▁incisors	-12672
▁priority	-12673
▁rigidity	-12674
examination	-12675
▁attachment	-12676
▁hemorrhoid	-12677
▁meningiomas	-12678
▁methodology	-12679
▁mobilization	-12680
▁predisposing	-12681
▁complementary	-12682
▁osteomyelitis	-12683
pi	-12684
▁Py	-12685
▁35,	-12686
▁4.9	-12687
▁Adj	-12688
▁Pal	-12689
▁Pat	-12690
▁Spl	-12691
▁mir	-12692
▁Dien	-12693
▁GnRH	-12694
▁enema	-12695
▁grams	-12696
▁juice	-12697
▁Lumbar	-12698
▁Object	-12699
▁Within	-12700
▁cities	-12701
▁exists	-12702
▁fundus	-12703
lamydial	-12704
olateral	-12705
▁Endomet	-12706
▁keratin	-12707
▁tapered	-12708
▁CLINICAL	-12709
▁choledoc	-12710
▁construc	-12711
▁division	-12712
▁handling	-12713
▁official	-12714
arrhythmic	-12715
neuropathy	-12716
▁Arthritis	-12717
▁anorectal	-12718
▁assistant	-12719
▁creatinin	-12720
▁inspected	-12721
▁prolactin	-12722
▁providers	-12723
▁psychotic	-12724
▁rituximab	-12725
oprotective	-12726
▁Combination	-12727
▁cannulation	-12728
ij	-12729
zo	-12730
95%	-12731
obl	-12732
udy	-12733
▁4:	-12734
▁DO	-12735
▁NA	-12736
enza	-12737
high	-12738
▁198	-12739
▁Neg	-12740
▁apo	-12741
antho	-12742
ulism	-12743
▁King	-12744
▁herb	-12745
▁kary	-12746
▁oils	-12747
▁paid	-12748
▁pock	-12749
aresis	-12750
imming	-12751
minute	-12752
vement	-12753
▁apart	-12754
itabine	-12755
prednis	-12756
▁Safety	-12757
enchymal	-12758
odynamic	-12759
▁patches	-12760
▁soluble	-12761
▁crystals	-12762
▁Generally	-12763
▁migration	-12764
▁statistic	-12765
▁defecation	-12766
▁dimensions	-12767
▁coronavirus	-12768
▁amphotericin	-12769
▁azithromycin	-12770
▁incidentally	-12771
UM	-12772
col	-12773
▁IA	-12774
▁Nh	-12775
▁RF	-12776
▁Su	-12777
▁[3	-12778
ague	-12779
iber	-12780
▁104	-12781
▁ICH	-12782
▁hos	-12783
/2015	-12784
place	-12785
vents	-12786
▁Five	-12787
▁Trig	-12788
▁bott	-12789
▁caly	-12790
ingham	-12791
olemic	-12792
omatis	-12793
vidone	-12794
▁newer	-12795
obactam	-12796
▁emboli	-12797
▁govern	-12798
▁overex	-12799
▁stores	-12800
oprostol	-12801
ynchrony	-12802
▁efforts	-12803
▁lacking	-12804
▁propose	-12805
▁signals	-12806
▁collabor	-12807
▁formulas	-12808
▁levodopa	-12809
behavioral	-12810
resolution	-12811
▁curettage	-12812
▁occlusive	-12813
▁endogenous	-12814
▁Ventricular	-12815
▁spondylitis	-12816
▁Chemotherapy	-12817
▁gonadotropin	-12818
▁instructions	-12819
▁radiological	-12820
heochromocytoma	-12821
-6,	-12822
UTI	-12823
]),	-12824
ald	-12825
dip	-12826
ilo	-12827
▁PM	-12828
▁PO	-12829
▁RSV	-12830
▁acy	-12831
▁rod	-12832
lored	-12833
rying	-12834
unted	-12835
▁MSCT	-12836
▁Paul	-12837
▁bind	-12838
▁perp	-12839
escent	-12840
odular	-12841
retory	-12842
series	-12843
uching	-12844
▁Creat	-12845
▁casts	-12846
▁chart	-12847
▁flank	-12848
▁shaft	-12849
binding	-12850
soluble	-12851
▁0.05),	-12852
▁Change	-12853
▁lesser	-12854
▁pteryg	-12855
▁pulses	-12856
▁Staging	-12857
▁impacts	-12858
▁monthly	-12859
▁Fracture	-12860
▁coughing	-12861
▁unwanted	-12862
▁whenever	-12863
▁difficile	-12864
▁fractions	-12865
▁hematomas	-12866
▁compatible	-12867
▁leukopenia	-12868
▁thrombotic	-12869
▁inheritance	-12870
▁transferrin	-12871
▁malocclusion	-12872
▁paresthesias	-12873
/30	-12874
▁6)	-12875
▁NS	-12876
kins	-12877
rink	-12878
▁4.3	-12879
▁5%)	-12880
▁EFF	-12881
▁Hum	-12882
▁(80.	-12883
▁3.2.	-12884
▁Line	-12885
▁Phil	-12886
▁Thap	-12887
▁Youn	-12888
▁deaf	-12889
▁slit	-12890
▁wild	-12891
ashing	-12892
▁chond	-12893
▁solub	-12894
osocial	-12895
▁aspart	-12896
▁outlet	-12897
▁partly	-12898
▁arousal	-12899
▁deposits	-12900
▁bisphosph	-12901
thalassemia	-12902
▁CHARACTERI	-12903
▁gentamicin	-12904
▁nucleotide	-12905
▁resorption	-12906
▁lacerations	-12907
▁Inflammatory	-12908
▁diverticulitis	-12909
Tr	-12910
ALL	-12911
cha	-12912
emp	-12913
jac	-12914
oto	-12915
aire	-12916
amel	-12917
fact	-12918
ohol	-12919
wann	-12920
▁36,	-12921
ergen	-12922
issue	-12923
lopid	-12924
pregn	-12925
▁10.0	-12926
▁>0.0	-12927
▁Cann	-12928
▁HFMD	-12929
▁PaCO	-12930
▁Sten	-12931
▁seas	-12932
▁troc	-12933
ancing	-12934
antile	-12935
ipital	-12936
▁Hered	-12937
▁Trang	-12938
▁miRNA	-12939
rection	-12940
ressant	-12941
surgery	-12942
▁Instit	-12943
▁buccal	-12944
▁expert	-12945
▁flexed	-12946
▁reserv	-12947
▁retina	-12948
acidosis	-12949
leveland	-12950
▁married	-12951
▁nanopar	-12952
▁Exercise	-12953
▁believed	-12954
▁collagen	-12955
▁percenti	-12956
roglobulin	-12957
▁automatic	-12958
▁turbinate	-12959
▁eliminated	-12960
▁trigeminal	-12961
▁Therapeutic	-12962
▁unresponsive	-12963
▁polymorphisms	-12964
ava	-12965
exp	-12966
fol	-12967
tise	-12968
▁BMD	-12969
▁PHO	-12970
ogrel	-12971
▁Acet	-12972
▁acup	-12973
▁awak	-12974
=0.000	-12975
▁Lewis	-12976
orrheic	-12977
▁Having	-12978
▁Osteop	-12979
▁nitric	-12980
▁spaces	-12981
▁suprac	-12982
▁pharynx	-12983
▁robotic	-12984
▁snoring	-12985
locations	-12986
▁confirms	-12987
lopidogrel	-12988
▁Analyzing	-12989
▁Cleveland	-12990
▁consulted	-12991
▁residence	-12992
▁Differenti	-12993
▁hypoplasia	-12994
▁pharmacies	-12995
▁validation	-12996
▁Psychiatric	-12997
▁albuminuria	-12998
▁Occupational	-12999
▁considerable	-13000
▁levofloxacin	-13001
2/	-13002
iny	-13003
uty	-13004
▁(40	-13005
▁Ane	-13006
▁Asc	-13007
▁CPR	-13008
▁PVT	-13009
▁SUV	-13010
entin	-13011
ontan	-13012
tilis	-13013
▁1500	-13014
▁80%,	-13015
▁hcmc	-13016
▁nmol	-13017
▁subc	-13018
ofovir	-13019
vessel	-13020
▁2017,	-13021
▁State	-13022
▁arise	-13023
▁dense	-13024
otaxime	-13025
▁Centre	-13026
▁Septic	-13027
▁demyel	-13028
▁mutant	-13029
▁Lateral	-13030
▁climate	-13031
▁enteric	-13032
▁exactly	-13033
▁optical	-13034
▁athletes	-13035
▁covering	-13036
▁existing	-13037
ocytopenia	-13038
▁Endocrine	-13039
▁encourage	-13040
▁infertile	-13041
▁accordance	-13042
▁neurogenic	-13043
▁stimulates	-13044
▁radiographs	-13045
2:	-13046
As	-13047
PL	-13048
Chi	-13049
QoL	-13050
ault	-13051
uana	-13052
▁ADC	-13053
▁Atl	-13054
▁tan	-13055
/2019	-13056
depth	-13057
unate	-13058
▁(49.	-13059
▁1.2.	-13060
▁Foot	-13061
▁Gall	-13062
▁Sens	-13063
▁toes	-13064
jected	-13065
▁Cases	-13066
▁Urine	-13067
▁edges	-13068
▁endos	-13069
▁radic	-13070
alcohol	-13071
otactic	-13072
▁chains	-13073
▁compan	-13074
▁flexor	-13075
▁member	-13076
▁switch	-13077
▁theory	-13078
▁vulvar	-13079
▁network	-13080
▁reserve	-13081
▁reservo	-13082
▁stained	-13083
▁uniform	-13084
▁Bacillus	-13085
▁business	-13086
▁emptying	-13087
▁excreted	-13088
oposterior	-13089
esterolemia	-13090
▁completion	-13091
▁obstructed	-13092
▁pharyngeal	-13093
▁manufacture	-13094
▁trachomatis	-13095
▁Distribution	-13096
▁sufficiently	-13097
▁microsurgical	-13098
▁streptococcal	-13099
▁CG	-13100
▁Vi	-13101
▁rol	-13102
zolid	-13103
▁Cord	-13104
▁Neut	-13105
▁hyal	-13106
aceous	-13107
flexia	-13108
ftazid	-13109
proced	-13110
rounds	-13111
▁flags	-13112
▁outer	-13113
▁recto	-13114
imental	-13115
thermia	-13116
▁allevi	-13117
▁Without	-13118
▁alleles	-13119
▁ophthal	-13120
▁progest	-13121
▁stridor	-13122
▁vehicle	-13123
▁avulsion	-13124
▁barriers	-13125
▁blockage	-13126
▁bursitis	-13127
▁identity	-13128
▁subtilis	-13129
▁fulminant	-13130
▁Myocardial	-13131
▁irrigating	-13132
▁suspension	-13133
▁Vaccination	-13134
▁choledochal	-13135
▁recurrences	-13136
▁dramatically	-13137
emulsification	-13138
3-	-13139
pen	-13140
▁Ka	-13141
airy	-13142
apor	-13143
elph	-13144
ione	-13145
▁CON	-13146
▁lin	-13147
assay	-13148
hroom	-13149
lands	-13150
ospho	-13151
under	-13152
▁Have	-13153
▁Knee	-13154
▁abor	-13155
▁pect	-13156
▁Denti	-13157
olinium	-13158
omagnes	-13159
▁lubric	-13160
ovaginal	-13161
▁bullosa	-13162
▁leaving	-13163
▁thermal	-13164
lammation	-13165
oencephal	-13166
▁Contrast	-13167
▁Toxicity	-13168
▁mushroom	-13169
centration	-13170
▁customers	-13171
▁neoplasms	-13172
▁compressed	-13173
▁correlates	-13174
▁pediatrics	-13175
▁thereafter	-13176
▁anesthetics	-13177
▁prostagland	-13178
▁Epidemiology	-13179
▁formulations	-13180
▁granulomatous	-13181
▁bioavailability	-13182
PE	-13183
-2,	-13184
OME	-13185
TNF	-13186
▁LR	-13187
orep	-13188
stra	-13189
trim	-13190
vert	-13191
▁37,	-13192
▁66,	-13193
apine	-13194
ianal	-13195
iodar	-13196
▁10%.	-13197
▁Chor	-13198
▁East	-13199
▁PCNL	-13200
▁TIMI	-13201
▁seal	-13202
ospasm	-13203
▁flora	-13204
▁gases	-13205
▁loose	-13206
▁renin	-13207
▁tracts	-13208
▁watery	-13209
oblastic	-13210
▁Epstein	-13211
▁demands	-13212
adolinium	-13213
▁dressings	-13214
▁Hemoglobin	-13215
▁amenorrhea	-13216
▁conjunctiva	-13217
▁replication	-13218
▁neuroimaging	-13219
▁subsequently	-13220
▁Arthrocentesis	-13221
WL	-13222
0%;	-13223
dec	-13224
▁26,	-13225
▁85,	-13226
▁Emp	-13227
▁dox	-13228
copro	-13229
▁90%.	-13230
▁dial	-13231
▁heel	-13232
▁kcal	-13233
▁link	-13234
▁rear	-13235
▁rein	-13236
before	-13237
ectric	-13238
ubicin	-13239
▁2006.	-13240
▁China	-13241
▁Hypog	-13242
▁PHOTO	-13243
counter	-13244
▁appropri	-13245
▁cadavers	-13246
▁greatest	-13247
▁humidity	-13248
▁profiles	-13249
▁synchron	-13250
▁varicose	-13251
▁landmarks	-13252
▁symmetric	-13253
▁unrelated	-13254
▁bronchodil	-13255
▁comfortable	-13256
▁consistency	-13257
▁mammography	-13258
▁experiencing	-13259
▁Breastfeeding	-13260
▁visualization	-13261
▁Gy	-13262
▁SH	-13263
▁il	-13264
ball	-13265
trop	-13266
uris	-13267
▁(16	-13268
▁126	-13269
▁135	-13270
▁33%	-13271
▁9%.	-13272
▁Ill	-13273
▁Leg	-13274
▁Sug	-13275
▁4.1.	-13276
▁Pren	-13277
▁nhan	-13278
▁roll	-13279
enosis	-13280
estion	-13281
itates	-13282
▁alert	-13283
▁ideal	-13284
▁resin	-13285
▁share	-13286
▁trait	-13287
▁trabec	-13288
▁consent	-13289
▁domains	-13290
cortisone	-13291
▁alveolus	-13292
▁gangrene	-13293
▁immature	-13294
▁steroids	-13295
▁youngest	-13296
▁Frequency	-13297
▁anestheti	-13298
▁autograft	-13299
▁cognition	-13300
▁consumers	-13301
▁curvature	-13302
▁intention	-13303
▁particles	-13304
▁principal	-13305
▁compresses	-13306
▁authorities	-13307
▁duplication	-13308
▁electrophys	-13309
▁hypothalamic	-13310
▁implementing	-13311
▁periodically	-13312
1:	-13313
▁HT	-13314
burn	-13315
▁1).	-13316
▁Lai	-13317
▁Tam	-13318
/2017	-13319
atins	-13320
eneic	-13321
tiary	-13322
▁80%.	-13323
▁PCOS	-13324
▁univ	-13325
ocious	-13326
oquine	-13327
ornell	-13328
▁Alpha	-13329
▁Shock	-13330
▁chron	-13331
▁touch	-13332
▁Hormon	-13333
▁forces	-13334
▁handle	-13335
▁impairs	-13336
▁Combined	-13337
▁Examples	-13338
▁Squamous	-13339
▁metacarp	-13340
▁fishermen	-13341
▁guidewire	-13342
arrhythmias	-13343
▁transplants	-13344
▁CHARACTERIST	-13345
▁commercially	-13346
▁homocysteine	-13347
▁intoxication	-13348
▁hyperlipidemia	-13349
▁levobupivacaine	-13350
URP	-13351
fts	-13352
▁AE	-13353
▁NO	-13354
▁TC	-13355
▁Ta	-13356
ASIK	-13357
lice	-13358
odic	-13359
omod	-13360
▁240	-13361
▁52,	-13362
▁80,	-13363
▁Fer	-13364
▁IMT	-13365
▁Pri	-13366
▁dro	-13367
haled	-13368
illip	-13369
▁Pall	-13370
▁ejac	-13371
▁perm	-13372
▁quit	-13373
alasia	-13374
▁Cereb	-13375
▁abdom	-13376
▁depri	-13377
▁fails	-13378
▁frame	-13379
average	-13380
causing	-13381
urgical	-13382
▁Middle	-13383
▁cleans	-13384
▁oldest	-13385
ocolitis	-13386
peritone	-13387
▁arthral	-13388
▁chicken	-13389
▁cocaine	-13390
tractable	-13391
▁Southern	-13392
▁managers	-13393
▁Dentistry	-13394
▁Exclusion	-13395
▁Traumatic	-13396
▁estimates	-13397
▁recording	-13398
▁comparable	-13399
▁paroxysmal	-13400
▁references	-13401
▁Recommended	-13402
▁conservation	-13403
▁transthoracic	-13404
AE	-13405
jo	-13406
ADH	-13407
▁7)	-13408
eria	-13409
etin	-13410
mark	-13411
ming	-13412
▁51,	-13413
▁83,	-13414
▁HLH	-13415
▁Rub	-13416
▁dic	-13417
▁eff	-13418
▁rim	-13419
▁sor	-13420
/1.73	-13421
▁(79.	-13422
▁cour	-13423
▁mono	-13424
▁pole	-13425
▁says	-13426
acious	-13427
idated	-13428
titial	-13429
▁2005.	-13430
▁Gynec	-13431
▁drawn	-13432
▁tubal	-13433
tensity	-13434
ulsions	-13435
▁Damage	-13436
▁employ	-13437
▁lessen	-13438
▁lethal	-13439
▁caution	-13440
▁dispers	-13441
▁weather	-13442
▁Features	-13443
▁drowning	-13444
▁overlying	-13445
▁substanti	-13446
▁Carbapenem	-13447
▁Postpartum	-13448
▁bronchitis	-13449
▁hydrochlor	-13450
▁phosphorus	-13451
▁accelerated	-13452
▁leukocytosis	-13453
▁organization	-13454
▁Intraoperative	-13455
QI	-13456
Ray	-13457
amb	-13458
ino	-13459
▁ET	-13460
▁ii	-13461
▁vi	-13462
ubic	-13463
▁(14	-13464
▁38,	-13465
▁44,	-13466
▁hoa	-13467
▁sit	-13468
BRARY	-13469
etent	-13470
wenty	-13471
▁12.5	-13472
▁Acne	-13473
▁FACT	-13474
▁wine	-13475
aortic	-13476
ardiac	-13477
hedema	-13478
otypic	-13479
▁Crypt	-13480
▁Types	-13481
▁lobes	-13482
portion	-13483
▁adhere	-13484
▁degrad	-13485
▁multic	-13486
▁sickle	-13487
alangeal	-13488
▁LIBRARY	-13489
▁Similar	-13490
▁Suspect	-13491
▁damages	-13492
▁ovaries	-13493
▁running	-13494
▁Dementia	-13495
▁clavicle	-13496
▁cochlear	-13497
▁rifampin	-13498
▁thinking	-13499
▁comprised	-13500
▁flavonoid	-13501
▁granuloma	-13502
▁opacities	-13503
▁warranted	-13504
▁Hereditary	-13505
▁preferably	-13506
▁fluconazole	-13507
▁irradiation	-13508
▁neoadjuvant	-13509
▁orthostatic	-13510
ifferentiated	-13511
▁dyssynchrony	-13512
▁neurotransmit	-13513
ao	-13514
VAS	-13515
ika	-13516
▁AI	-13517
▁DL	-13518
▁TV	-13519
aims	-13520
rias	-13521
▁121	-13522
▁46,	-13523
▁58,	-13524
▁70,	-13525
▁Well	-13526
▁foci	-13527
▁mins	-13528
▁wash	-13529
ibling	-13530
median	-13531
paring	-13532
▁Gamma	-13533
▁Phase	-13534
▁dying	-13535
▁lived	-13536
▁today	-13537
▁toile	-13538
▁627201	-13539
▁broken	-13540
▁bullae	-13541
▁presum	-13542
formerly	-13543
iodarone	-13544
ociative	-13545
▁Partial	-13546
▁Profess	-13547
▁choices	-13548
▁fetuses	-13549
▁tearing	-13550
▁urgency	-13551
▁mediated	-13552
alassaemia	-13553
▁Mutations	-13554
▁mediators	-13555
▁nystagmus	-13556
▁similarly	-13557
▁Especially	-13558
▁acetylchol	-13559
▁asymmetric	-13560
▁circumflex	-13561
▁collective	-13562
▁sanitation	-13563
▁sleepiness	-13564
▁Haemophilus	-13565
▁immunologic	-13566
▁institution	-13567
orepinephrine	-13568
▁Differential	-13569
▁augmentation	-13570
▁decompensated	-13571
▁extracellular	-13572
▁osteonecrosis	-13573
XA	-13574
ERY	-13575
▁9)	-13576
▁AA	-13577
7%);	-13578
base	-13579
post	-13580
▁(4)	-13581
▁oct	-13582
aving	-13583
hysis	-13584
isson	-13585
oglob	-13586
▁Free	-13587
▁UTIs	-13588
▁plug	-13589
▁rhiz	-13590
▁soap	-13591
ococci	-13592
▁66.7%	-13593
▁David	-13594
▁rated	-13595
changed	-13596
pliance	-13597
▁Morpho	-13598
▁Source	-13599
▁Wilson	-13600
▁buffer	-13601
▁contag	-13602
▁enamel	-13603
▁healed	-13604
▁orific	-13605
▁stream	-13606
ectomies	-13607
▁Aneurys	-13608
▁Corneal	-13609
▁SCIENCE	-13610
▁farmers	-13611
▁humerus	-13612
▁alopecia	-13613
▁amikacin	-13614
▁neoplasm	-13615
▁parental	-13616
▁Endoscopy	-13617
▁follicles	-13618
▁penetrate	-13619
▁principle	-13620
Stomatology	-13621
▁Colorectal	-13622
▁borderline	-13623
▁gingivitis	-13624
▁preserving	-13625
▁rhinorrhea	-13626
▁Spontaneous	-13627
▁diverticula	-13628
▁mesenchymal	-13629
▁Hirschsprung	-13630
▁thrombolysis	-13631
▁proliferative	-13632
▁Hepatocellular	-13633
▁erythropoietin	-13634
ny	-13635
hin	-13636
▁SB	-13637
▁[4	-13638
3%);	-13639
ampa	-13640
scan	-13641
▁107	-13642
▁5.2	-13643
▁98%	-13644
▁BNP	-13645
▁Hip	-13646
▁JAK	-13647
▁Kim	-13648
▁fig	-13649
▁mas	-13650
<0.05	-13651
arche	-13652
iesis	-13653
UCTION	-13654
dontic	-13655
▁Motor	-13656
▁Video	-13657
▁views	-13658
osporin	-13659
▁Satisf	-13660
▁became	-13661
▁cranio	-13662
▁gained	-13663
▁genome	-13664
▁mildly	-13665
▁remote	-13666
▁theore	-13667
▁Washing	-13668
▁umbilic	-13669
▁willing	-13670
▁brushing	-13671
▁calculus	-13672
▁lifetime	-13673
▁peroneal	-13674
▁reflects	-13675
▁subtotal	-13676
▁supplied	-13677
▁vitreous	-13678
▁biomarker	-13679
▁breakdown	-13680
▁medullary	-13681
▁Nephrology	-13682
▁determines	-13683
▁evacuation	-13684
▁expiratory	-13685
▁minimizing	-13686
▁solubility	-13687
▁Backgrounds	-13688
▁hyperactivity	-13689
▁immunotherapy	-13690
HOP	-13691
vus	-13692
iast	-13693
obes	-13694
oxif	-13695
when	-13696
▁56,	-13697
▁ADA	-13698
▁ASD	-13699
▁Nat	-13700
▁YAG	-13701
▁boy	-13702
inity	-13703
outhe	-13704
uents	-13705
ypsin	-13706
▁ends	-13707
▁reag	-13708
onasal	-13709
▁2013,	-13710
▁Delta	-13711
▁Water	-13712
▁hight	-13713
▁react	-13714
copenia	-13715
through	-13716
▁Academ	-13717
▁Twenty	-13718
▁nasoph	-13719
▁relate	-13720
tigraphy	-13721
▁Bladder	-13722
▁Culture	-13723
▁Program	-13724
▁Serious	-13725
▁conflic	-13726
▁longest	-13727
▁picture	-13728
▁Prenatal	-13729
▁asphyxia	-13730
▁hydroxide	-13731
▁Resistance	-13732
▁Aspergillus	-13733
▁infestation	-13734
▁neuropathic	-13735
▁transcatheter	-13736
lab	-13737
sub	-13738
▁Ly	-13739
6%);	-13740
orge	-13741
pnea	-13742
vage	-13743
wave	-13744
▁320	-13745
▁73,	-13746
▁bub	-13747
▁sof	-13748
▁wed	-13749
oprop	-13750
▁club	-13751
▁spin	-13752
▁tien	-13753
▁2009,	-13754
▁Wound	-13755
▁defib	-13756
▁diarr	-13757
▁roles	-13758
density	-13759
derived	-13760
lebitis	-13761
oplatin	-13762
▁gentle	-13763
▁things	-13764
pressure	-13765
▁keeping	-13766
▁shorten	-13767
▁somatic	-13768
▁upright	-13769
chanteric	-13770
menorrhea	-13771
sequently	-13772
▁Diarrhea	-13773
▁Impaired	-13774
▁allergen	-13775
▁category	-13776
▁determin	-13777
▁midwives	-13778
▁Serologic	-13779
▁accompany	-13780
▁cataracts	-13781
▁companies	-13782
iperacillin	-13783
▁hemostatic	-13784
▁interested	-13785
▁multifocal	-13786
▁astrocytoma	-13787
effectiveness	-13788
▁ketoacidosis	-13789
-17	-13790
wor	-13791
acea	-13792
hole	-13793
olip	-13794
▁86,	-13795
▁90,	-13796
▁pit	-13797
abies	-13798
kerat	-13799
▁Prem	-13800
▁dogs	-13801
▁unin	-13802
/2020.	-13803
gnized	-13804
iphong	-13805
openic	-13806
▁31/12	-13807
▁nasol	-13808
▁price	-13809
▁relig	-13810
▁salts	-13811
▁yeast	-13812
▁youth	-13813
eptides	-13814
ophobia	-13815
▁Bronch	-13816
▁advice	-13817
▁rescue	-13818
angiitis	-13819
weighted	-13820
▁Preterm	-13821
▁actions	-13822
▁planned	-13823
▁tumours	-13824
▁Acquired	-13825
▁premolar	-13826
▁tracking	-13827
terstitial	-13828
▁Obstetric	-13829
▁hochiminh	-13830
▁splinting	-13831
▁survivors	-13832
▁Outpatient	-13833
▁coexisting	-13834
▁Environment	-13835
▁inspiration	-13836
▁precipitate	-13837
▁restrictive	-13838
▁retardation	-13839
▁stimulating	-13840
▁independence	-13841
▁investigating	-13842
▁clarithromycin	-13843
nat	-13844
▁BY	-13845
▁EC	-13846
▁Ro	-13847
8%);	-13848
phar	-13849
▁48,	-13850
▁Lan	-13851
▁Tex	-13852
▁azo	-13853
brain	-13854
fizer	-13855
illes	-13856
inase	-13857
mesis	-13858
vulus	-13859
▁Face	-13860
▁Give	-13861
▁addi	-13862
▁ausc	-13863
▁mole	-13864
▁orch	-13865
<0.000	-13866
atella	-13867
filled	-13868
ijuana	-13869
orrhoe	-13870
otoxin	-13871
▁Chlor	-13872
▁Kerat	-13873
entical	-13874
▁0.001)	-13875
▁clavul	-13876
▁dissol	-13877
▁perine	-13878
▁transf	-13879
▁(100%).	-13880
▁Biliary	-13881
▁Rupture	-13882
▁thymoma	-13883
▁checking	-13884
▁entering	-13885
▁quantify	-13886
▁awakening	-13887
▁cisplatin	-13888
▁contusion	-13889
▁converted	-13890
▁enhancing	-13891
▁examining	-13892
▁generated	-13893
▁oxidative	-13894
▁precision	-13895
▁relapsing	-13896
angiectasia	-13897
▁Medication	-13898
▁mosquitoes	-13899
▁subluxation	-13900
▁colonization	-13901
▁radiosurgery	-13902
▁carbohydrates	-13903
▁hepatobiliary	-13904
=1	-13905
MO	-13906
hr	-13907
irc	-13908
▁8)	-13909
idin	-13910
poly	-13911
scre	-13912
▁78,	-13913
▁ATP	-13914
▁DFS	-13915
▁Exp	-13916
▁Mat	-13917
▁ber	-13918
▁fur	-13919
burgh	-13920
jejun	-13921
osure	-13922
total	-13923
▁(0.0	-13924
▁Amin	-13925
▁IABP	-13926
▁Phuc	-13927
▁Vein	-13928
▁Xuan	-13929
adelph	-13930
▁Antim	-13931
▁Minim	-13932
▁embol	-13933
▁groin	-13934
▁posts	-13935
because	-13936
thening	-13937
vitamin	-13938
▁Thirty	-13939
▁crying	-13940
▁debris	-13941
▁longus	-13942
▁opened	-13943
▁phuong	-13944
adelphia	-13945
▁Friends	-13946
▁besides	-13947
▁dysuria	-13948
▁hundred	-13949
▁matched	-13950
▁nucleus	-13951
▁plateau	-13952
arctation	-13953
azobactam	-13954
ferential	-13955
okinetics	-13956
▁Normally	-13957
▁acoustic	-13958
▁blocking	-13959
▁restored	-13960
▁sporadic	-13961
proportion	-13962
▁Selective	-13963
▁administr	-13964
▁acceptance	-13965
▁influences	-13966
▁inhibiting	-13967
▁spectrometry	-13968
-8	-13969
rea	-13970
adox	-13971
afil	-13972
▁39,	-13973
▁5.4	-13974
▁65%	-13975
▁76,	-13976
▁CTA	-13977
▁Cai	-13978
▁DSS	-13979
▁GCS	-13980
▁SSI	-13981
▁ros	-13982
itely	-13983
▁(4).	-13984
▁DPPH	-13985
▁ball	-13986
▁ment	-13987
▁pill	-13988
bactam	-13989
itinib	-13990
tussis	-13991
▁Lupus	-13992
▁Struc	-13993
▁caffe	-13994
▁covid	-13995
▁tuber	-13996
▁walls	-13997
▁serous	-13998
▁biology	-13999
▁breasts	-14000
▁victims	-14001
▁worsens	-14002
▁Urethral	-14003
▁encoding	-14004
▁postural	-14005
▁remedies	-14006
aryngology	-14007
▁abduction	-14008
▁arteritis	-14009
▁imbalance	-14010
▁spreading	-14011
▁travelers	-14012
▁Recurrence	-14013
▁exacerbate	-14014
▁granulomas	-14015
▁percentile	-14016
▁polycystic	-14017
▁rebleeding	-14018
▁submucosal	-14019
▁Participants	-14020
▁malignancies	-14021
▁neuropathies	-14022
▁CHARACTERISTICS	-14023
UE	-14024
sal	-14025
iomy	-14026
left	-14027
lymp	-14028
mann	-14029
need	-14030
raph	-14031
real	-14032
rive	-14033
▁(19	-14034
▁1/2	-14035
▁20-	-14036
▁4.7	-14037
▁54,	-14038
▁Cap	-14039
▁Ves	-14040
eside	-14041
heart	-14042
inted	-14043
phone	-14044
▁Here	-14045
▁pale	-14046
idious	-14047
▁GRACE	-14048
▁shell	-14049
▁spent	-14050
▁stran	-14051
▁12/200	-14052
▁Levels	-14053
▁island	-14054
▁plates	-14055
▁stasis	-14056
▁Parents	-14057
▁William	-14058
▁lecture	-14059
▁thiamin	-14060
▁Erythema	-14061
▁Haiphong	-14062
▁Removing	-14063
▁expanded	-14064
▁retraction	-14065
▁anaesthesia	-14066
▁Quantitative	-14067
▁considerably	-14068
▁enterocolitis	-14069
▁gynecological	-14070
Ad	-14071
FT	-14072
MG	-14073
ANG	-14074
INE	-14075
RAS	-14076
RBC	-14077
▁Eb	-14078
▁Et	-14079
acil	-14080
cein	-14081
urod	-14082
▁112	-14083
▁65,	-14084
▁96%	-14085
▁96,	-14086
▁HCO	-14087
▁RIF	-14088
▁web	-14089
ancre	-14090
erman	-14091
itual	-14092
pharm	-14093
▁(50.	-14094
▁0.03	-14095
▁Gene	-14096
▁merc	-14097
▁misc	-14098
riasis	-14099
▁palms	-14100
blocker	-14101
escence	-14102
idation	-14103
lycerin	-14104
▁Candid	-14105
▁lactic	-14106
orphyria	-14107
▁glasses	-14108
▁infused	-14109
▁oxidase	-14110
▁padding	-14111
▁sibling	-14112
▁visited	-14113
▁diplopia	-14114
osynthesis	-14115
▁aspirated	-14116
▁automated	-14117
omagnesemia	-14118
▁Friendship	-14119
▁Preventive	-14120
▁integrated	-14121
ochromatosis	-14122
▁anticipated	-14123
▁deprivation	-14124
oembolization	-14125
▁Transmission	-14126
▁contractures	-14127
nm	-14128
▁-,	-14129
▁[8	-14130
▁ct	-14131
even	-14132
feed	-14133
lass	-14134
pled	-14135
▁BRA	-14136
▁Bay	-14137
▁CVP	-14138
▁FNA	-14139
▁HAI	-14140
▁tex	-14141
atern	-14142
icill	-14143
iling	-14144
izers	-14145
▁BRCA	-14146
▁INTR	-14147
▁clip	-14148
▁cone	-14149
▁hope	-14150
▁mess	-14151
▁sept	-14152
▁stoc	-14153
common	-14154
inence	-14155
▁Aedes	-14156
▁Sinus	-14157
▁ankyl	-14158
▁clamp	-14159
▁pubic	-14160
▁purch	-14161
lingual	-14162
▁Active	-14163
▁Fallot	-14164
▁attach	-14165
▁bridge	-14166
▁infect	-14167
▁update	-14168
exposure	-14169
orubicin	-14170
▁forming	-14171
▁Function	-14172
▁Majority	-14173
▁hookworm	-14174
▁meniscus	-14175
▁molecule	-14176
▁adenosine	-14177
▁connected	-14178
▁maneuvers	-14179
▁medically	-14180
▁aesthetics	-14181
▁hemangioma	-14182
▁manifested	-14183
▁univariate	-14184
▁contribution	-14185
▁hyperthermia	-14186
▁phototherapy	-14187
We	-14188
exy	-14189
ethe	-14190
gren	-14191
igan	-14192
itar	-14193
▁(5,	-14194
▁(60	-14195
▁4.8	-14196
▁62,	-14197
▁MAC	-14198
▁Tak	-14199
▁meg	-14200
eckel	-14201
uloin	-14202
▁3%).	-14203
▁60%.	-14204
▁Phen	-14205
▁dend	-14206
▁push	-14207
▁2011,	-14208
▁Cause	-14209
▁Larry	-14210
▁acrom	-14211
▁aggra	-14212
insulin	-14213
vesical	-14214
▁Micros	-14215
▁answer	-14216
▁deeply	-14217
▁fungus	-14218
▁phenyl	-14219
▁rubber	-14220
▁stents	-14221
▁summar	-14222
valvular	-14223
▁Genital	-14224
▁Johnson	-14225
▁college	-14226
▁shallow	-14227
▁updated	-14228
alcoholic	-14229
endocrine	-14230
▁Cesarean	-14231
▁Imipenem	-14232
▁emission	-14233
▁flushing	-14234
▁povidone	-14235
▁sciatica	-14236
▁transmit	-14237
▁alternate	-14238
▁attempted	-14239
▁electromy	-14240
▁herniated	-14241
▁hydration	-14242
▁insidious	-14243
▁signaling	-14244
▁implicated	-14245
prednisolone	-14246
▁Appropriate	-14247
▁Generalized	-14248
▁azathioprine	-14249
▁hypothalamus	-14250
▁laryngoscopy	-14251
▁kindergartens	-14252
▁Epidemiological	-14253
▁differentiating	-14254
WS	-14255
fs	-14256
PCI	-14257
Rel	-14258
ana	-14259
▁ML	-14260
long	-14261
osse	-14262
plex	-14263
ulla	-14264
▁41,	-14265
▁7%)	-14266
▁Bot	-14267
▁Cox	-14268
▁PPI	-14269
▁bru	-14270
▁cag	-14271
-2021	-14272
child	-14273
▁bill	-14274
/2015.	-14275
▁Virus	-14276
▁aeros	-14277
▁alive	-14278
▁blade	-14279
▁centr	-14280
▁dural	-14281
▁imper	-14282
▁malle	-14283
awasaki	-14284
forming	-14285
▁drinks	-14286
▁pallor	-14287
complete	-14288
tensives	-14289
▁Delayed	-14290
▁impulse	-14291
▁pyloric	-14292
aglobulin	-14293
▁Epidural	-14294
▁crackles	-14295
▁fibroids	-14296
▁reversal	-14297
▁sunlight	-14298
▁consuming	-14299
▁inserting	-14300
▁stabilize	-14301
▁adenopathy	-14302
▁prostheses	-14303
▁similarity	-14304
▁arthroscopy	-14305
▁categorized	-14306
▁thoracoscopy	-14307
▁nanoparticles	-14308
▁hepatotoxicity	-14309
▁retinoblastoma	-14310
HIV	-14311
TnT	-14312
amn	-14313
osi	-14314
▁da	-14315
dehy	-14316
duct	-14317
oley	-14318
▁3).	-14319
▁5.8	-14320
▁Arr	-14321
▁Bio	-14322
▁INS	-14323
▁Kap	-14324
▁PCA	-14325
▁Tod	-14326
▁ppm	-14327
▁tic	-14328
fluor	-14329
udine	-14330
ultin	-14331
urate	-14332
▁0.04	-14333
▁20%,	-14334
▁Cycl	-14335
▁Rock	-14336
▁Weak	-14337
▁word	-14338
coplas	-14339
energy	-14340
ounced	-14341
severe	-14342
▁Apgar	-14343
▁Infer	-14344
▁chief	-14345
▁hence	-14346
▁stron	-14347
randial	-14348
▁Holter	-14349
▁eradic	-14350
▁happen	-14351
▁pestic	-14352
▁pleura	-14353
▁recall	-14354
ogenetic	-14355
▁booster	-14356
▁trocars	-14357
romatosis	-14358
▁occasion	-14359
▁swimming	-14360
patibility	-14361
▁Depending	-14362
▁Transient	-14363
▁scheduled	-14364
▁Dermatitis	-14365
▁Washington	-14366
▁deliveries	-14367
▁elevations	-14368
▁Obstruction	-14369
ulointerstitial	-14370
▁Characteristic	-14371
▁polyneuropathy	-14372
FP	-14373
Ms	-14374
ACS	-14375
±4.	-14376
▁UK	-14377
olet	-14378
thir	-14379
▁127	-14380
▁6.5	-14381
▁Rob	-14382
▁Vin	-14383
STEMI	-14384
sized	-14385
utery	-14386
▁Palp	-14387
▁Shig	-14388
▁arom	-14389
▁code	-14390
▁popl	-14391
▁seed	-14392
▁tail	-14393
abling	-14394
assess	-14395
ginine	-14396
▁EVALU	-14397
▁Inher	-14398
▁undet	-14399
genesis	-14400
iclovir	-14401
▁Prepar	-14402
▁Tissue	-14403
▁brings	-14404
▁enters	-14405
▁multis	-14406
▁neuron	-14407
▁transp	-14408
obladder	-14409
outheast	-14410
▁adipose	-14411
▁details	-14412
▁exudate	-14413
▁eyelids	-14414
▁possess	-14415
▁seeking	-14416
▁trisomy	-14417
coprotein	-14418
▁Bacteria	-14419
▁Negative	-14420
▁Stenosis	-14421
▁peripher	-14422
▁Improving	-14423
▁Synthesis	-14424
▁behaviour	-14425
▁dimension	-14426
▁exception	-14427
▁introduce	-14428
ophagocytic	-14429
▁Thrombosis	-14430
▁indwelling	-14431
▁metaplasia	-14432
Thalassaemia	-14433
▁expenditure	-14434
▁kindergarten	-14435
▁Resuscitation	-14436
▁cephalometric	-14437
▁epidemiologic	-14438
▁transposition	-14439
▁aminoglycoside	-14440
▁discrimination	-14441
▁discontinuation	-14442
DT	-14443
nt	-14444
AKI	-14445
oon	-14446
▁LT	-14447
▁ms	-14448
elly	-14449
held	-14450
imab	-14451
orch	-14452
ower	-14453
rops	-14454
site	-14455
▁42,	-14456
▁6.0	-14457
▁ACR	-14458
▁DIC	-14459
▁TNM	-14460
▁TOF	-14461
reads	-14462
tices	-14463
▁90%,	-14464
▁GIST	-14465
▁Prom	-14466
▁pent	-14467
arming	-14468
except	-14469
violet	-14470
▁2010,	-14471
▁2015,	-14472
▁Stone	-14473
▁Toxic	-14474
▁safer	-14475
tsburgh	-14476
▁Daniel	-14477
▁Perfor	-14478
▁fibrob	-14479
▁taught	-14480
▁tuberc	-14481
isthesis	-14482
▁inhaler	-14483
▁patiens	-14484
▁spreads	-14485
▁sustain	-14486
▁Isolated	-14487
▁dextrose	-14488
▁interact	-14489
▁Establish	-14490
▁Operative	-14491
▁gonorrhoe	-14492
▁laterally	-14493
▁Autoimmune	-14494
▁gadolinium	-14495
ammaglobulin	-14496
▁compromised	-14497
▁photophobia	-14498
▁Asymptomatic	-14499
▁Philadelphia	-14500
▁antiarrhythmic	-14501
Pro	-14502
eba	-14503
fil	-14504
uer	-14505
zia	-14506
▁IX	-14507
▁MY	-14508
AIDS	-14509
atid	-14510
ifer	-14511
opho	-14512
▁5.7	-14513
▁6.6	-14514
▁81,	-14515
▁ABC	-14516
▁Mil	-14517
▁tac	-14518
/2005	-14519
Metho	-14520
lique	-14521
▁Heat	-14522
▁Peri	-14523
▁ScvO	-14524
▁adhe	-14525
▁apop	-14526
▁inoc	-14527
▁kine	-14528
▁leuc	-14529
▁mind	-14530
▁task	-14531
▁tria	-14532
ismuth	-14533
izures	-14534
ulator	-14535
▁Prior	-14536
▁delta	-14537
▁orbit	-14538
▁strep	-14539
▁thanh	-14540
cinomas	-14541
onychia	-14542
▁Fisher	-14543
▁Killip	-14544
▁Remove	-14545
▁barium	-14546
▁immers	-14547
▁preval	-14548
▁rabies	-14549
cognized	-14550
▁Fentanyl	-14551
▁sections	-14552
▁chlamydial	-14553
▁infiltrate	-14554
▁meaningful	-14555
▁maxillofacial	-14556
▁opportunities	-14557
▁stabilization	-14558
▁papillomavirus	-14559
CU	-14560
NB	-14561
Na	-14562
PW	-14563
WF	-14564
yr	-14565
12,	-14566
ASE	-14567
dig	-14568
vec	-14569
▁Sa	-14570
2%);	-14571
angl	-14572
eric	-14573
ylol	-14574
▁Dao	-14575
▁PRI	-14576
▁Phy	-14577
▁obt	-14578
echol	-14579
igher	-14580
osome	-14581
▁HOMA	-14582
▁Soft	-14583
▁aids	-14584
▁rins	-14585
arment	-14586
dehyde	-14587
ogenes	-14588
oralis	-14589
ranged	-14590
vaccin	-14591
▁grass	-14592
<0.001)	-14593
entanil	-14594
▁Nausea	-14595
▁PharmD	-14596
▁Temple	-14597
▁Volume	-14598
▁centre	-14599
▁curves	-14600
▁facing	-14601
▁undert	-14602
esirable	-14603
icardial	-14604
opressin	-14605
▁Academy	-14606
▁element	-14607
▁harvest	-14608
▁miscarr	-14609
▁quadrup	-14610
▁sharing	-14611
lavicular	-14612
production	-14613
▁Bilateral	-14614
▁belonging	-14615
▁ethnicity	-14616
ophalangeal	-14617
▁cardiology	-14618
▁detectable	-14619
▁diphtheria	-14620
▁endodontic	-14621
▁etiologies	-14622
▁refraction	-14623
▁stillbirth	-14624
▁stimulated	-14625
▁fluorescent	-14626
▁gynecologic	-14627
▁hemodynamics	-14628
▁introduction	-14629
▁contributions	-14630
BM	-14631
aur	-14632
aut	-14633
iqu	-14634
▁ME	-14635
▁fu	-14636
rick	-14637
step	-14638
▁(24	-14639
▁128	-14640
▁3%)	-14641
▁75,	-14642
▁88,	-14643
▁Cut	-14644
▁IBS	-14645
▁Sci	-14646
▁Vom	-14647
▁arc	-14648
▁cow	-14649
▁hCG	-14650
▁ton	-14651
/2006	-14652
inone	-14653
night	-14654
toxin	-14655
▁dysf	-14656
▁pool	-14657
entary	-14658
utches	-14659
▁Rober	-14660
▁adnex	-14661
▁colic	-14662
▁fifth	-14663
▁postp	-14664
▁recre	-14665
▁sling	-14666
oactive	-14667
[...]
