<pad>	0
<unk>	0
<s>	0
</s>	0
▁t	-0
ng	-1
▁c	-2
nh	-3
▁đ	-4
▁th	-5
▁v	-6
▁l	-7
▁h	-8
▁b	-9
▁tr	-10
▁k	-11
▁s	-12
▁m	-13
▁ch	-14
▁nh	-15
▁d	-16
▁g	-17
▁p	-18
▁ph	-19
▁kh	-20
▁và	-21
▁n	-22
iệ	-23
▁ng	-24
ác	-25
ên	-26
▁gi	-27
ệnh	-28
▁có	-29
▁T	-30
qu	-31
ân	-32
▁qu	-33
ượ	-34
▁(	-35
▁bệnh	-36
uy	-37
ườ	-38
ết	-39
▁là	-40
▁ti	-41
an	-42
ch	-43
▁x	-44
▁C	-45
ến	-46
▁các	-47
ong	-48
ới	-49
▁r	-50
ều	-51
ược	-52
ươ	-53
ương	-54
ường	-55
ông	-56
iên	-57
iều	-58
▁ho	-59
▁củ	-60
▁của	-61
▁1	-62
▁nhân	-63
ất	-64
▁được	-65
▁độ	-66
ại	-67
iện	-68
▁N	-69
▁thu	-70
▁trong	-71
ần	-72
ình	-73
▁2	-74
ặc	-75
▁ngh	-76
ối	-77
▁với	-78
▁thể	-79
iể	-80
▁ở	-81
▁Đ	-82
inh	-83
ứng	-84
ung	-85
au	-86
▁K	-87
▁trị	-88
ột	-89
in	-90
▁quả	-91
iệu	-92
ăng	-93
▁phá	-94
▁B	-95
ận	-96
▁số	-97
ức	-98
ật	-99
ổi	-100
▁không	-101
▁cứ	-102
ao	-103
▁cứu	-104
▁điều	-105
▁dụ	-106
▁mạ	-107
▁M	-108
ực	-109
àng	-110
âm	-111
ai	-112
▁H	-113
áng	-114
▁tu	-115
▁hoặc	-116
ếu	-117
▁một	-118
▁đến	-119
ày	-120
ướ	-121
▁chứng	-122
ầu	-123
▁vi	-124
êm	-125
oá	-126
▁tí	-127
▁3	-128
▁má	-129
ẩn	-130
ang	-131
▁P	-132
▁lo	-133
ây	-134
▁S	-135
▁cơ	-136
ẫu	-137
ợp	-138
▁hợp	-139
▁cho	-140
ốc	-141
ống	-142
▁thường	-143
iểm	-144
▁sinh	-145
▁giả	-146
▁giá	-147
▁lệ	-148
ạn	-149
▁tại	-150
▁sau	-151
ấp	-152
0,	-153
).	-154
▁khi	-155
▁máu	-156
ánh	-157
▁trên	-158
▁thuật	-159
▁dụng	-160
ượng	-161
iễ	-162
ội	-163
iến	-164
ằng	-165
▁từ	-166
ắt	-167
ơn	-168
▁hiện	-169
êu	-170
ước	-171
ùng	-172
▁pháp	-173
▁y	-174
▁Th	-175
▁mạch	-176
▁Kết	-177
▁quan	-178
▁V	-179
am	-180
ững	-181
ay	-182
ành	-183
▁đị	-184
eo	-185
ười	-186
▁nghiên	-187
▁cao	-188
en	-189
▁cả	-190
àn	-191
ọc	-192
er	-193
▁nguy	-194
▁do	-195
▁định	-196
▁động	-197
uyết	-198
▁người	-199
▁tính	-200
▁bằng	-201
iệt	-202
▁như	-203
on	-204
▁viện	-205
▁4	-206
▁tăng	-207
▁phẫu	-208
óm	-209
▁/	-210
▁5	-211
▁thuốc	-212
▁Ng	-213
ục	-214
ồng	-215
▁về	-216
▁điểm	-217
▁tố	-218
ái	-219
▁Ch	-220
ời	-221
iễm	-222
▁mô	-223
▁tuổi	-224
▁sử	-225
▁huyết	-226
▁kho	-227
▁giảm	-228
01	-229
),	-230
▁hơn	-231
▁Tr	-232
ài	-233
▁ra	-234
▁những	-235
▁để	-236
▁6	-237
oán	-238
▁0,	-239
▁phát	-240
ăm	-241
ạng	-242
▁đường	-243
▁kết	-244
▁biến	-245
▁nhóm	-246
▁-	-247
▁trung	-248
▁Các	-249
▁đoán	-250
▁sự	-251
▁nhiễm	-252
▁thực	-253
ào	-254
ền	-255
▁D	-256
▁hiệu	-257
▁trường	-258
ắc	-259
▁tiêu	-260
▁so	-261
▁liên	-262
▁thương	-263
▁dị	-264
▁Ph	-265
▁sàng	-266
▁theo	-267
▁gây	-268
▁u	-269
00	-270
ấy	-271
▁bị	-272
▁bình	-273
▁viêm	-274
▁đầu	-275
▁tế	-276
▁lượng	-277
▁tháng	-278
▁trẻ	-279
▁L	-280
▁dư	-281
▁yếu	-282
▁chi	-283
▁Bệnh	-284
ạt	-285
áp	-286
▁khác	-287
▁chỉ	-288
▁lâm	-289
ặt	-290
▁này	-291
▁Nh	-292
▁phương	-293
▁thời	-294
▁A	-295
▁học	-296
ol	-297
anh	-298
▁đặc	-299
ích	-300
ấn	-301
ải	-302
▁to	-303
òng	-304
id	-305
em	-306
▁hoá	-307
▁tổ	-308
▁thi	-309
▁năng	-310
▁hình	-311
▁đó	-312
▁nội	-313
▁nhất	-314
▁G	-315
▁tim	-316
ăn	-317
ữa	-318
▁lu	-319
▁phân	-320
ập	-321
▁nghiệ	-322
▁dịch	-323
ôi	-324
▁Kh	-325
al	-326
▁7	-327
ản	-328
iểu	-329
▁tử	-330
▁kháng	-331
▁gian	-332
ro	-333
ét	-334
▁làm	-335
ếm	-336
%.	-337
▁thành	-338
▁9	-339
uẩn	-340
▁năm	-341
▁đo	-342
▁cắt	-343
▁chất	-344
▁tỷ	-345
%,	-346
▁vào	-347
▁cấp	-348
áo	-349
▁8	-350
▁nhiều	-351
ic	-352
at	-353
▁nghiệm	-354
iệc	-355
▁cầu	-356
▁chẩn	-357
▁thư	-358
▁cần	-359
▁I	-360
▁kinh	-361
▁Ngh	-362
▁ngày	-363
▁loạn	-364
▁bào	-365
ẫn	-366
ồi	-367
▁thận	-368
▁luận	-369
ồm	-370
▁đã	-371
▁±	-372
uất	-373
▁lý	-374
▁phổi	-375
▁gồm	-376
▁áp	-377
ảo	-378
ảy	-379
▁loại	-380
▁toàn	-381
▁Nghiên	-382
▁triệu	-383
▁trước	-384
▁nguyên	-385
ar	-386
▁ứng	-387
▁biệt	-388
ạo	-389
▁mức	-390
▁ung	-391
▁đau	-392
ảnh	-393
/2	-394
st	-395
▁trạng	-396
or	-397
ấu	-398
▁thấy	-399
út	-400
,5	-401
ặp	-402
▁tác	-403
▁việc	-404
ảng	-405
▁qua	-406
▁đối	-407
▁đánh	-408
▁phải	-409
▁tổn	-410
▁thần	-411
et	-412
iển	-413
ão	-414
▁lớ	-415
ính	-416
ạch	-417
▁xương	-418
▁bao	-419
▁lần	-420
▁tình	-421
▁mổ	-422
▁xác	-423
▁chủ	-424
,3	-425
▁thông	-426
úng	-427
▁giữa	-428
ọng	-429
▁X	-430
ac	-431
▁tương	-432
▁chế	-433
▁ngo	-434
▁R	-435
▁ảnh	-436
▁gan	-437
▁sống	-438
uyến	-439
ph	-440
▁rối	-441
▁thai	-442
▁<	-443
▁tiế	-444
,7	-445
▁tỉ	-446
▁suy	-447
ặng	-448
▁khoa	-449
ưở	-450
▁dưới	-451
▁da	-452
ưởng	-453
▁gặp	-454
át	-455
▁đoạn	-456
▁nặng	-457
▁xuất	-458
▁âm	-459
▁não	-460
▁tự	-461
,2	-462
▁tâm	-463
▁tượng	-464
it	-465
ũng	-466
ine	-467
▁thức	-468
▁phần	-469
úc	-470
▁ý	-471
▁chiếm	-472
▁quản	-473
as	-474
▁tích	-475
▁phụ	-476
▁hành	-477
▁dự	-478
▁Đánh	-479
▁xét	-480
▁đề	-481
▁chuy	-482
▁khuẩn	-483
ẩm	-484
▁Mục	-485
uyền	-486
▁cũng	-487
▁trùng	-488
,6	-489
,1	-490
▁trình	-491
02	-492
,4	-493
▁nhưng	-494
▁nữ	-495
,8	-496
▁tả	-497
ỏi	-498
▁vị	-499
âu	-500
▁tiến	-501
▁Từ	-502
%)	-503
▁nước	-504
▁nên	-505
▁thấp	-506
ví	-507
▁tiếp	-508
▁dẫn	-509
ỡng	-510
▁công	-511
▁lại	-512
▁lớn	-513
▁(1	-514
▁soi	-515
▁truyền	-516
▁10	-517
▁Đối	-518
os	-519
▁sát	-520
▁tiể	-521
▁tiểu	-522
▁nhận	-523
óc	-524
òn	-525
ám	-526
ít	-527
▁mặt	-528
▁0,0	-529
%),	-530
,9	-531
▁chức	-532
▁thống	-533
▁triển	-534
▁liệu	-535
▁vấn	-536
iêm	-537
▁tuyến	-538
im	-539
▁khối	-540
▁thay	-541
ưa	-542
▁biểu	-543
▁hồi	-544
▁đa	-545
ộc	-546
▁đổi	-547
ép	-548
▁khoá	-549
ớp	-550
▁hai	-551
▁đồng	-552
▁mạc	-553
ĩnh	-554
ằm	-555
ừa	-556
ển	-557
▁trọng	-558
▁12	-559
▁nhiên	-560
▁gia	-561
▁can	-562
ồn	-563
▁di	-564
▁khớp	-565
▁hội	-566
▁thiếu	-567
▁dùng	-568
▁tốt	-569
▁cảm	-570
ởi	-571
▁thiết	-572
éo	-573
▁Điều	-574
ộng	-575
▁hệ	-576
▁lực	-577
▁bộ	-578
▁sức	-579
▁thanh	-580
▁U	-581
▁lư	-582
▁hoạt	-583
us	-584
▁Tỷ	-585
▁giới	-586
▁dạng	-587
▁bất	-588
▁dưỡng	-589
▁tạo	-590
▁Trong	-591
▁vong	-592
▁chuyển	-593
▁giai	-594
▁hưởng	-595
▁trí	-596
▁chính	-597
is	-598
▁dài	-599
▁gh	-600
▁cách	-601
▁vùng	-602
▁an	-603
il	-604
▁phòng	-605
▁E	-606
iệp	-607
%).	-608
el	-609
▁ống	-610
▁màng	-611
uyên	-612
▁khí	-613
án	-614
▁còn	-615
óng	-616
iêu	-617
ĩa	-618
▁Phương	-619
▁Có	-620
▁mắc	-621
▁tiên	-622
iễn	-623
▁sản	-624
ầm	-625
ãn	-626
▁tĩnh	-627
ợi	-628
ắn	-629
▁tái	-630
▁cung	-631
ia	-632
▁–	-633
▁viên	-634
/201	-635
▁o	-636
▁lên	-637
▁quá	-638
▁khả	-639
▁kiểm	-640
▁201	-641
ướng	-642
▁xảy	-643
▁tiền	-644
▁(2	-645
▁tay	-646
▁nam	-647
▁giải	-648
▁thế	-649
▁rất	-650
▁ăn	-651
es	-652
uột	-653
▁thiệp	-654
▁ít	-655
▁tuần	-656
▁em	-657
▁chúng	-658
▁nghĩa	-659
▁mạn	-660
▁nồng	-661
▁ngoài	-662
▁thất	-663
ốt	-664
úp	-665
ụng	-666
▁độc	-667
▁nếu	-668
▁khám	-669
▁tràng	-670
▁Q	-671
▁thở	-672
▁đại	-673
▁cu	-674
▁giúp	-675
oát	-676
▁giờ	-677
lo	-678
▁cổ	-679
▁dấu	-680
▁đơn	-681
▁phổ	-682
▁F	-683
▁>	-684
▁tôi	-685
ậu	-686
▁liều	-687
um	-688
▁ngang	-689
▁0	-690
▁hướng	-691
▁mg	-692
▁chống	-693
▁kích	-694
▁kỹ	-695
▁kỳ	-696
õi	-697
▁Y	-698
▁Gi	-699
ôn	-700
▁phẩm	-701
▁uống	-702
▁hoàn	-703
▁thích	-704
▁Những	-705
ớm	-706
▁hấp	-707
▁sớm	-708
▁sóc	-709
▁niệu	-710
▁tiết	-711
▁dõi	-712
▁Một	-713
▁bụng	-714
▁kê	-715
▁vì	-716
▁=	-717
▁bên	-718
▁đều	-719
▁cân	-720
ụp	-721
▁tắc	-722
▁mất	-723
▁gen	-724
,0	-725
▁răng	-726
▁tiêm	-727
▁khoảng	-728
ọn	-729
▁vật	-730
▁tuỷ	-731
▁Chẩn	-732
om	-733
▁đột	-734
▁quy	-735
▁sơ	-736
▁mật	-737
▁miễn	-738
▁ngoại	-739
th	-740
ul	-741
▁thân	-742
▁dày	-743
-1	-744
▁cải	-745
▁mối	-746
▁mà	-747
tr	-748
▁0,05	-749
▁15	-750
▁đi	-751
▁thủ	-752
▁Việt	-753
▁trực	-754
ũi	-755
▁hạn	-756
ỗi	-757
▁nhau	-758
▁mắt	-759
▁khó	-760
▁nhỏ	-761
yc	-762
▁nó	-763
▁ruột	-764
▁chảy	-765
▁chuẩn	-766
oc	-767
▁nhập	-768
▁khoẻ	-769
▁Nam	-770
▁bởi	-771
▁đạt	-772
▁cận	-773
▁thứ	-774
▁tháo	-775
▁202	-776
▁siêu	-777
▁chăm	-778
▁mu	-779
▁chưa	-780
▁mẫu	-781
▁quang	-782
ẹp	-783
▁11	-784
▁hay	-785
▁BN	-786
▁thiện	-787
▁dạ	-788
▁giác	-789
▁bỏ	-790
▁chọn	-791
àm	-792
0%	-793
▁ngực	-794
..	-795
▁thì	-796
▁ban	-797
5%	-798
▁dương	-799
▁đồ	-800
yl	-801
▁mũi	-802
ip	-803
▁bảo	-804
▁ca	-805
▁tinh	-806
▁dinh	-807
▁ổ	-808
▁chân	-809
▁rõ	-810
▁thêm	-811
▁Trung	-812
▁bạch	-813
▁nào	-814
▁Tuy	-815
▁(3	-816
▁đặt	-817
ách	-818
▁giáp	-819
te	-820
▁ức	-821
▁soát	-822
oid	-823
uồn	-824
▁kéo	-825
▁đái	-826
▁mẹ	-827
ềm	-828
▁trợ	-829
ấm	-830
▁kiến	-831
ẳng	-832
▁dục	-833
▁co	-834
▁nhanh	-835
▁hết	-836
iết	-837
▁chấn	-838
▁xạ	-839
▁tai	-840
▁sẽ	-841
ơi	-842
▁phản	-843
▁thị	-844
▁phục	-845
ạy	-846
ster	-847
▁mang	-848
one	-849
▁hỗ	-850
▁phù	-851
ịp	-852
ậy	-853
▁dựa	-854
▁đáp	-855
▁mm	-856
op	-857
▁ghép	-858
▁100	-859
iếm	-860
ưng	-861
▁nhẹ	-862
ter	-863
▁tỉnh	-864
ed	-865
▁Qu	-866
ửa	-867
▁lọc	-868
▁chụp	-869
▁hô	-870
▁thái	-871
▁phút	-872
ir	-873
▁vận	-874
lu	-875
▁căn	-876
▁nhằm	-877
%;	-878
ượt	-879
▁xơ	-880
▁Nếu	-881
▁lưu	-882
▁tập	-883
▁cáo	-884
▁cụ	-885
▁f	-886
▁báo	-887
▁pro	-888
ắng	-889
▁II	-890
▁điện	-891
ym	-892
▁trở	-893
▁khu	-894
yp	-895
▁a	-896
ứa	-897
▁thuộc	-898
CT	-899
ìm	-900
▁tin	-901
▁24	-902
ãy	-903
amin	-904
▁tra	-905
▁nhạy	-906
▁sỏi	-907
▁đang	-908
▁máy	-909
▁cùng	-910
▁sốt	-911
▁đủ	-912
le	-913
▁(4	-914
▁dây	-915
▁nằm	-916
▁30	-917
▁Khảo	-918
▁chung	-919
▁cộng	-920
▁tổng	-921
▁Không	-922
▁trái	-923
▁lá	-924
▁13	-925
▁nhi	-926
▁18	-927
▁O	-928
ep	-929
▁hàng	-930
▁sĩ	-931
1.	-932
▁ngừa	-933
ốn	-934
▁lập	-935
▁lấy	-936
▁đạo	-937
▁CT	-938
▁14	-939
▁hàm	-940
▁xo	-941
▁tư	-942
▁20	-943
▁hạ	-944
▁Theo	-945
▁Đặt	-946
iệng	-947
▁Tổ	-948
▁vết	-949
▁nu	-950
▁ương	-951
▁(5	-952
▁200	-953
-2	-954
▁mới	-955
TT	-956
▁miệng	-957
▁Thời	-958
▁vẫn	-959
ựa	-960
▁đây	-961
▁Viêm	-962
▁bắt	-963
▁vòng	-964
ện	-965
▁dân	-966
▁nang	-967
▁nhịp	-968
▁lợi	-969
ase	-970
▁≥	-971
ệt	-972
xy	-973
▁rộng	-974
úi	-975
iv	-976
▁Sự	-977
re	-978
▁chu	-979
▁tục	-980
▁Tỉ	-981
èm	-982
▁mở	-983
▁hạch	-984
▁con	-985
▁đáng	-986
oa	-987
▁Xác	-988
ID	-989
▁bàn	-990
▁bác	-991
▁kể	-992
ậm	-993
▁gần	-994
▁16	-995
▁khảo	-996
▁tìm	-997
▁kèm	-998
▁trú	-999
▁in	-1000
▁tới	-1001
▁lượt	-1002
▁phí	-1003
▁tất	-1004
▁xu	-1005
▁Ở	-1006
▁19	-1007
▁dù	-1008
ạm	-1009
▁(6	-1010
ầy	-1011
▁van	-1012
ate	-1013
▁Thu	-1014
▁họ	-1015
▁+	-1016
▁vệ	-1017
▁liệt	-1018
▁tối	-1019
▁nghi	-1020
tein	-1021
▁đôi	-1022
▁đình	-1023
eth	-1024
▁xuyên	-1025
▁lao	-1026
▁kg	-1027
▁mỗi	-1028
▁Mô	-1029
▁vai	-1030
ot	-1031
ri	-1032
▁dung	-1033
▁trừ	-1034
▁bu	-1035
▁nhu	-1036
▁biết	-1037
▁TH	-1038
▁xâm	-1039
▁chỉnh	-1040
▁xã	-1041
▁hẹp	-1042
▁sắc	-1043
▁Phẫu	-1044
▁25	-1045
▁lớp	-1046
▁phế	-1047
▁ghi	-1048
▁sở	-1049
az	-1050
▁hậu	-1051
▁Sau	-1052
▁thước	-1053
▁hỏi	-1054
ưu	-1055
▁trầm	-1056
▁phố	-1057
ort	-1058
▁cấy	-1059
▁rút	-1060
▁càng	-1061
▁vành	-1062
▁rằng	-1063
un	-1064
▁chỗ	-1065
▁Nội	-1066
▁Tu	-1067
▁diện	-1068
ạp	-1069
▁sâu	-1070
▁túi	-1071
▁thừa	-1072
▁Đặc	-1073
▁(7	-1074
▁ngủ	-1075
▁mục	-1076
▁bổ	-1077
▁hiếm	-1078
▁suất	-1079
ion	-1080
▁nhà	-1081
▁cứng	-1082
▁thang	-1083
▁phối	-1084
▁bản	-1085
▁(8	-1086
▁thụ	-1087
▁cực	-1088
▁hầu	-1089
▁vú	-1090
▁thắt	-1091
▁(9	-1092
▁sánh	-1093
ent	-1094
▁xem	-1095
ỏng	-1096
óp	-1097
/202	-1098
ảm	-1099
uyện	-1100
▁sọ	-1101
▁phì	-1102
▁al	-1103
▁nhĩ	-1104
▁kế	-1105
ón	-1106
ulin	-1107
▁đưa	-1108
▁tật	-1109
▁ml	-1110
▁xúc	-1111
▁ngay	-1112
▁hút	-1113
▁dòng	-1114
▁trưởng	-1115
ạnh	-1116
▁đông	-1117
▁lúc	-1118
▁ưu	-1119
▁CO	-1120
▁50	-1121
est	-1122
▁đúng	-1123
▁chủng	-1124
/1	-1125
▁60	-1126
▁cố	-1127
▁tồn	-1128
▁lựa	-1129
▁Triệu	-1130
▁oxy	-1131
ide	-1132
▁môi	-1133
▁trứng	-1134
▁mạnh	-1135
▁ích	-1136
ap	-1137
▁dược	-1138
iền	-1139
▁of	-1140
▁duy	-1141
▁thử	-1142
2.	-1143
▁ké	-1144
▁17	-1145
IV	-1146
▁W	-1147
▁vậy	-1148
oster	-1149
▁béo	-1150
▁tham	-1151
▁tránh	-1152
▁hu	-1153
▁[	-1154
▁nghiêm	-1155
la	-1156
);	-1157
od	-1158
▁khuyến	-1159
▁lòng	-1160
ừng	-1161
▁tuỵ	-1162
▁mềm	-1163
▁giãn	-1164
▁gãy	-1165
▁kim	-1166
▁Chúng	-1167
▁cuộc	-1168
▁ngờ	-1169
▁non	-1170
▁nấm	-1171
ẽn	-1172
▁kém	-1173
▁nghẽn	-1174
luc	-1175
▁nuôi	-1176
▁lành	-1177
▁0,05).	-1178
ox	-1179
▁0,001	-1180
▁chí	-1181
ill	-1182
▁MD	-1183
▁trò	-1184
▁tê	-1185
▁cột	-1186
▁sung	-1187
▁cá	-1188
▁trì	-1189
▁Tuổi	-1190
▁Thuốc	-1191
▁Đại	-1192
og	-1193
▁Thg	-1194
▁vô	-1195
▁nối	-1196
▁nôn	-1197
▁chiều	-1198
▁protein	-1199
▁gốc	-1200
ur	-1201
▁tuy	-1202
▁ngăn	-1203
TC	-1204
▁21	-1205
▁nhiệt	-1206
▁Cần	-1207
▁Phân	-1208
▁chuyên	-1209
ob	-1210
▁Nguyên	-1211
▁cường	-1212
ướu	-1213
ig	-1214
▁ngắn	-1215
▁bước	-1216
ọi	-1217
/200	-1218
▁vit	-1219
act	-1220
▁kính	-1221
ex	-1222
CR	-1223
▁nghị	-1224
ữu	-1225
yd	-1226
▁Nhóm	-1227
▁bẩm	-1228
ab	-1229
▁lan	-1230
▁biện	-1231
▁bàng	-1232
▁cục	-1233
▁cm	-1234
▁mê	-1235
▁40	-1236
ẫy	-1237
ortic	-1238
SA	-1239
▁môn	-1240
ẩy	-1241
...	-1242
▁nhồi	-1243
NA	-1244
ag	-1245
▁ac	-1246
▁hồng	-1247
ymph	-1248
ùi	-1249
▁cấu	-1250
▁cơn	-1251
▁khởi	-1252
▁Đa	-1253
▁cảnh	-1254
ec	-1255
▁điển	-1256
ụt	-1257
▁Việc	-1258
▁nguồn	-1259
▁Khi	-1260
▁01	-1261
▁HIV	-1262
▁xoang	-1263
▁Hội	-1264
▁vực	-1265
▁xử	-1266
▁chậm	-1267
▁kiện	-1268
▁loét	-1269
0.	-1270
ad	-1271
▁đích	-1272
RI	-1273
▁phác	-1274
▁vụ	-1275
ers	-1276
▁quanh	-1277
▁J	-1278
▁Nhiễm	-1279
▁lây	-1280
ose	-1281
▁kiểu	-1282
▁Nhi	-1283
▁dễ	-1284
▁cuối	-1285
▁lymph	-1286
▁3.	-1287
▁chứa	-1288
▁nay	-1289
▁ba	-1290
▁1.	-1291
▁vài	-1292
-19	-1293
▁tuân	-1294
▁bảng	-1295
▁bài	-1296
▁hiểu	-1297
▁ngón	-1298
▁lưng	-1299
atin	-1300
▁Hà	-1301
▁lấn	-1302
▁ngược	-1303
▁đầy	-1304
▁Chỉ	-1305
▁khá	-1306
ộn	-1307
▁22	-1308
▁95%	-1309
▁Nồng	-1310
▁trúc	-1311
▁sốc	-1312
▁Ngo	-1313
▁2.	-1314
quang	-1315
▁chậu	-1316
NG	-1317
▁đốt	-1318
▁minh	-1319
xem	-1320
▁ác	-1321
TĐ	-1322
▁31	-1323
▁đỏ	-1324
ễn	-1325
▁vitamin	-1326
âng	-1327
▁nói	-1328
▁tiếng	-1329
▁màu	-1330
▁gợi	-1331
,3%	-1332
▁phóng	-1333
,5%	-1334
▁thiểu	-1335
▁23	-1336
bin	-1337
òi	-1338
▁thuận	-1339
ụn	-1340
▁gấp	-1341
▁lip	-1342
▁Med	-1343
▁dần	-1344
AS	-1345
▁Do	-1346
▁Tổng	-1347
▁từng	-1348
▁huyện	-1349
,7%	-1350
▁đóng	-1351
▁xe	-1352
▁gluc	-1353
▁vir	-1354
ẹn	-1355
▁ổn	-1356
▁Số	-1357
▁35	-1358
ing	-1359
▁lỗ	-1360
▁hoà	-1361
ib	-1362
▁48	-1363
▁Ung	-1364
▁hữu	-1365
enz	-1366
▁vạt	-1367
▁28	-1368
▁giật	-1369
xi	-1370
▁Minh	-1371
ượu	-1372
▁nâng	-1373
▁phía	-1374
CM	-1375
▁Tất	-1376
êng	-1377
▁Bình	-1378
3.	-1379
▁họng	-1380
ợt	-1381
▁vỡ	-1382
ype	-1383
▁hạt	-1384
▁car	-1385
ity	-1386
▁bán	-1387
▁tài	-1388
▁bướu	-1389
▁vắc	-1390
▁bố	-1391
▁tần	-1392
▁TP	-1393
▁Tăng	-1394
rom	-1395
▁Thông	-1396
▁36	-1397
▁hoại	-1398
▁rượu	-1399
▁cản	-1400
▁mL	-1401
000	-1402
TN	-1403
▁niêm	-1404
▁niên	-1405
▁III	-1406
osph	-1407
▁câu	-1408
▁Tình	-1409
xit	-1410
ịch	-1411
OR	-1412
▁xa	-1413
ót	-1414
▁quỵ	-1415
▁tho	-1416
▁Hồ	-1417
▁cortic	-1418
▁xuống	-1419
▁khỏi	-1420
▁dựng	-1421
▁thập	-1422
▁bạn	-1423
▁góp	-1424
ãng	-1425
▁Rối	-1426
ạc	-1427
ắp	-1428
▁am	-1429
osteroid	-1430
▁sang	-1431
vir	-1432
▁muốn	-1433
▁ràng	-1434
▁Chí	-1435
▁buồng	-1436
▁Khoa	-1437
▁32	-1438
VID	-1439
▁nhãn	-1440
▁nghiệp	-1441
▁pol	-1442
▁lâu	-1443
ếp	-1444
sulin	-1445
▁45	-1446
▁Thực	-1447
▁khuyết	-1448
▁10,	-1449
▁Medic	-1450
ìn	-1451
▁su	-1452
▁COVID	-1453
▁0,01	-1454
ole	-1455
▁mặc	-1456
kin	-1457
▁phức	-1458
▁Un	-1459
BV	-1460
,6%	-1461
▁hài	-1462
▁Bảng	-1463
▁phúc	-1464
▁33	-1465
▁trưng	-1466
▁26	-1467
MI	-1468
▁đợt	-1469
▁ký	-1470
▁tiện	-1471
ium	-1472
▁giống	-1473
▁địa	-1474
▁Xét	-1475
▁nhánh	-1476
▁Sử	-1477
▁27	-1478
▁An	-1479
▁chiết	-1480
▁lipid	-1481
▁gối	-1482
,2%	-1483
iếu	-1484
▁sáng	-1485
kh	-1486
▁ĐM	-1487
ivers	-1488
▁Hầu	-1489
▁tràn	-1490
▁lympho	-1491
▁Độ	-1492
if	-1493
▁xin	-1494
atri	-1495
▁giao	-1496
,8%	-1497
▁Univers	-1498
▁chữa	-1499
▁diễn	-1500
ói	-1501
▁Trẻ	-1502
▁2021	-1503
▁Dấu	-1504
▁hộ	-1505
SS	-1506
ẵn	-1507
▁University	-1508
▁tụ	-1509
▁canxi	-1510
ặn	-1511
▁phép	-1512
áy	-1513
▁hụt	-1514
▁Dược	-1515
▁vừa	-1516
ãi	-1517
▁mỡ	-1518
▁Ho	-1519
eta	-1520
▁insulin	-1521
cin	-1522
2,	-1523
▁Sinh	-1524
,4%	-1525
▁ép	-1526
▁virus	-1527
▁Đồng	-1528
TM	-1529
/3	-1530
▁bà	-1531
ma	-1532
▁dữ	-1533
▁quyết	-1534
▁muộn	-1535
ycin	-1536
▁Tác	-1537
▁axit	-1538
▁sữa	-1539
▁mãn	-1540
▁100%	-1541
▁khăn	-1542
,1%	-1543
ram	-1544
▁thượng	-1545
▁glucose	-1546
oái	-1547
▁sẵn	-1548
èn	-1549
ne	-1550
▁loài	-1551
▁Chợ	-1552
ess	-1553
ut	-1554
and	-1555
8.	-1556
▁yêu	-1557
,9%	-1558
lyc	-1559
▁dò	-1560
▁chị	-1561
▁đùi	-1562
CC	-1563
▁Hoa	-1564
▁IV	-1565
▁Phòng	-1566
-3	-1567
ẹo	-1568
▁Hiệu	-1569
▁So	-1570
▁Mở	-1571
pl	-1572
▁nền	-1573
▁chương	-1574
▁29	-1575
▁giáo	-1576
yt	-1577
BN	-1578
▁tá	-1579
▁chuột	-1580
▁Ngoài	-1581
▁tạng	-1582
▁MRI	-1583
▁mi	-1584
▁corticosteroid	-1585
▁Rẫy	-1586
▁Tổn	-1587
▁nơi	-1588
▁thẩm	-1589
▁men	-1590
5.	-1591
DL	-1592
▁37	-1593
ist	-1594
▁sắt	-1595
▁vàng	-1596
ịnh	-1597
▁sa	-1598
▁chia	-1599
ôm	-1600
▁cây	-1601
-6	-1602
9.	-1603
%);	-1604
▁34	-1605
▁Nguy	-1606
▁hen	-1607
▁hồ	-1608
▁án	-1609
▁0,5	-1610
▁chóng	-1611
▁hở	-1612
▁gân	-1613
▁Kỳ	-1614
▁bề	-1615
▁căng	-1616
▁tạp	-1617
ef	-1618
▁Thái	-1619
▁biên	-1620
):	-1621
▁gọi	-1622
▁cạnh	-1623
ans	-1624
▁góc	-1625
▁0,1	-1626
Kết	-1627
▁trương	-1628
▁38	-1629
▁thoát	-1630
▁loạt	-1631
▁chịu	-1632
▁0,9	-1633
ST	-1634
▁2022	-1635
▁lệch	-1636
▁CI	-1637
▁Mặc	-1638
▁thuỷ	-1639
ept	-1640
▁type	-1641
MT	-1642
▁bì	-1643
4.	-1644
▁65	-1645
AC	-1646
▁natri	-1647
gen	-1648
▁Vì	-1649
▁Lo	-1650
ydro	-1651
▁Đau	-1652
▁tán	-1653
▁kẽ	-1654
▁Mức	-1655
▁xung	-1656
▁rửa	-1657
▁Ig	-1658
▁nhìn	-1659
▁Với	-1660
▁0,00	-1661
▁ta	-1662
▁phình	-1663
▁HP	-1664
AP	-1665
▁thoái	-1666
▁cánh	-1667
▁sợi	-1668
son	-1669
▁thuần	-1670
▁ngừng	-1671
II	-1672
ev	-1673
▁bóng	-1674
ơm	-1675
▁0,8	-1676
▁thải	-1677
LC	-1678
rm	-1679
▁dọc	-1680
▁acid	-1681
▁Hồi	-1682
▁ĐTĐ	-1683
▁”	-1684
▁thẳng	-1685
▁Định	-1686
▁Người	-1687
▁CD	-1688
umin	-1689
▁Nguồn	-1690
ath	-1691
▁Tiền	-1692
▁khoang	-1693
▁and	-1694
▁mong	-1695
ệm	-1696
iêng	-1697
▁tiềm	-1698
ali	-1699
▁chọc	-1700
▁nghề	-1701
▁rò	-1702
▁tốc	-1703
▁test	-1704
of	-1705
ẩu	-1706
DD	-1707
illin	-1708
▁sửa	-1709
▁Nhận	-1710
▁42	-1711
▁72	-1712
▁75	-1713
▁Để	-1714
▁*	-1715
▁đào	-1716
▁lạnh	-1717
▁toan	-1718
acter	-1719
▁chết	-1720
ọt	-1721
▁Giá	-1722
▁bại	-1723
RS	-1724
▁sót	-1725
▁beta	-1726
▁cửa	-1727
▁meth	-1728
TH	-1729
▁horm	-1730
▁IL	-1731
▁0,2	-1732
▁tan	-1733
▁đảm	-1734
▁39	-1735
▁đệm	-1736
▁rung	-1737
▁Á	-1738
▁0.	-1739
▁“	-1740
,3%.	-1741
▁tách	-1742
▁lắng	-1743
ấc	-1744
õng	-1745
▁Biến	-1746
occ	-1747
▁xây	-1748
oph	-1749
▁vảy	-1750
osp	-1751
▁41	-1752
▁Điểm	-1753
▁mủ	-1754
▁võng	-1755
▁BV	-1756
▁phosph	-1757
,3%,	-1758
ỉnh	-1759
oảng	-1760
▁trắng	-1761
▁0,7	-1762
▁lồng	-1763
▁PE	-1764
▁Hu	-1765
TP	-1766
▁46	-1767
oma	-1768
▁giữ	-1769
ella	-1770
,7%.	-1771
NH	-1772
▁ánh	-1773
1,	-1774
▁buồn	-1775
▁nạp	-1776
.)	-1777
▁lặp	-1778
▁55	-1779
▁≤	-1780
ich	-1781
ant	-1782
las	-1783
▁1,	-1784
▁chặt	-1785
ắm	-1786
▁44	-1787
▁phỏng	-1788
▁90	-1789
ra	-1790
▁Đôi	-1791
▁trang	-1792
ênh	-1793
6.	-1794
▁bơm	-1795
▁62	-1796
▁μ	-1797
▁sạch	-1798
▁Nhân	-1799
▁col	-1800
-4	-1801
▁50%	-1802
▁0,3	-1803
▁khô	-1804
▁Đây	-1805
▁Sch	-1806
ưỡng	-1807
CV	-1808
▁tễ	-1809
▁lách	-1810
▁ngẫu	-1811
,7%,	-1812
azole	-1813
▁quốc	-1814
rin	-1815
▁43	-1816
▁Thiết	-1817
▁hơi	-1818
ỡi	-1819
▁nông	-1820
▁Siêu	-1821
▁xấu	-1822
▁khâu	-1823
▁thuỳ	-1824
▁Nhiều	-1825
▁chiếu	-1826
▁hít	-1827
▁Hình	-1828
▁mmol	-1829
LT	-1830
PD	-1831
7.	-1832
▁đương	-1833
▁tuỳ	-1834
▁gắng	-1835
ta	-1836
▁nhắc	-1837
▁cắn	-1838
lin	-1839
▁Bạch	-1840
▁loãng	-1841
ứt	-1842
ens	-1843
▁sóng	-1844
▁CH	-1845
bumin	-1846
▁70	-1847
▁Huế	-1848
enzym	-1849
▁Suy	-1850
▁Hb	-1851
▁nến	-1852
▁Giảm	-1853
,5%.	-1854
▁PCR	-1855
▁tức	-1856
▁0,6	-1857
▁Chụp	-1858
▁hiểm	-1859
▁Nó	-1860
▁giấc	-1861
▁nửa	-1862
▁Thiếu	-1863
▁hormone	-1864
3,	-1865
virus	-1866
▁vỏ	-1867
man	-1868
phy	-1869
▁móng	-1870
▁BMI	-1871
▁phim	-1872
obacter	-1873
▁kali	-1874
VT	-1875
▁đòi	-1876
▁đẩy	-1877
▁mảnh	-1878
▁yên	-1879
amine	-1880
▁quay	-1881
▁enzym	-1882
▁Mỹ	-1883
▁51	-1884
▁Quân	-1885
▁cong	-1886
▁hại	-1887
,5%,	-1888
▁thủng	-1889
▁sụn	-1890
▁In	-1891
loc	-1892
▁nha	-1893
ation	-1894
▁53	-1895
▁Tại	-1896
▁tuệ	-1897
▁80	-1898
▁st	-1899
CD	-1900
▁Thành	-1901
▁47	-1902
▁56	-1903
▁riêng	-1904
TB	-1905
ori	-1906
▁dính	-1907
▁Tiêu	-1908
ric	-1909
▁64	-1910
▁Kiến	-1911
icillin	-1912
▁2,	-1913
▁rệt	-1914
▁cái	-1915
▁toả	-1916
▁THA	-1917
▁54	-1918
▁khẩu	-1919
▁lưỡi	-1920
▁chèn	-1921
▁ST	-1922
▁52	-1923
osis	-1924
▁mỏi	-1925
▁ngộ	-1926
▁đội	-1927
▁Trường	-1928
▁phơi	-1929
ass	-1930
▁Khám	-1931
▁Viện	-1932
▁ngành	-1933
,8%.	-1934
▁Căn	-1935
ov	-1936
▁mù	-1937
▁giun	-1938
lob	-1939
▁58	-1940
▁96	-1941
▁chú	-1942
▁95	-1943
alc	-1944
rop	-1945
▁66	-1946
▁NK	-1947
▁nốt	-1948
▁0,05.	-1949
sterol	-1950
▁0,001).	-1951
▁(0,	-1952
▁kí	-1953
ell	-1954
ầng	-1955
▁huỷ	-1956
▁sai	-1957
YT	-1958
▁thăm	-1959
▁Về	-1960
▁thuyên	-1961
lor	-1962
▁Phụ	-1963
SH	-1964
àu	-1965
▁&	-1966
▁CL	-1967
▁Sc	-1968
pi	-1969
▁carb	-1970
▁hoạch	-1971
▁57	-1972
▁Cơ	-1973
▁muối	-1974
▁chằng	-1975
▁nề	-1976
▁i	-1977
▁rốn	-1978
reatin	-1979
▁mc	-1980
,8%,	-1981
▁chấp	-1982
▁1,5	-1983
▁61	-1984
▁ngưng	-1985
12	-1986
3%	-1987
iệm	-1988
▁nghe	-1989
▁Medicine	-1990
▁sp	-1991
▁cậy	-1992
▁Kiểm	-1993
-5	-1994
▁sút	-1995
▁mệt	-1996
eg	-1997
▁băng	-1998
ếng	-1999
▁tầm	-2000
▁polyp	-2001
▁sưng	-2002
,4%,	-2003
▁Al	-2004
-201	-2005
▁giản	-2006
thường	-2007
ylori	-2008
▁68	-2009
▁âu	-2010
▁lỏng	-2011
NT	-2012
▁1,2	-2013
arc	-2014
eter	-2015
▁str	-2016
▁nạn	-2017
,4%.	-2018
▁Đức	-2019
orm	-2020
▁20,	-2021
▁khai	-2022
▁du	-2023
▁AR	-2024
▁bỏng	-2025
erg	-2026
▁ước	-2027
yst	-2028
CA	-2029
ộm	-2030
▁teo	-2031
ug	-2032
,9%.	-2033
▁ẩn	-2034
▁tộc	-2035
▁gắn	-2036
▁hôi	-2037
▁sẹo	-2038
úm	-2039
ain	-2040
▁Dân	-2041
▁đời	-2042
▁cuống	-2043
▁chênh	-2044
,6%.	-2045
onin	-2046
▁Hải	-2047
aser	-2048
7%	-2049
▁Cắt	-2050
▁Huyết	-2051
▁gai	-2052
,2%.	-2053
▁đẻ	-2054
▁85	-2055
,1%.	-2056
xin	-2057
▁cầm	-2058
iềm	-2059
▁mảng	-2060
Xem	-2061
ge	-2062
▁típ	-2063
▁tưới	-2064
▁bú	-2065
,1%,	-2066
▁DNA	-2067
▁0,4	-2068
▁chole	-2069
MC	-2070
▁Kỹ	-2071
enem	-2072
▁(+	-2073
▁76	-2074
▁nuốt	-2075
▁ấn	-2076
▁coi	-2077
ue	-2078
▁88	-2079
eal	-2080
▁ma	-2081
,2%,	-2082
▁Trên	-2083
,6%,	-2084
ros	-2085
CG	-2086
▁4.	-2087
▁Mai	-2088
▁dL	-2089
▁ly	-2090
▁kín	-2091
neum	-2092
10	-2093
▁59	-2094
▁dầu	-2095
▁mọi	-2096
CS	-2097
pro	-2098
occus	-2099
▁thúc	-2100
▁49	-2101
ýp	-2102
▁71	-2103
▁pha	-2104
ool	-2105
,9%,	-2106
▁bột	-2107
▁dao	-2108
▁phủ	-2109
▁Khoảng	-2110
▁trục	-2111
onia	-2112
▁lược	-2113
▁PH	-2114
▁2020	-2115
▁63	-2116
▁nhớ	-2117
▁đứng	-2118
▁luyện	-2119
▁rãi	-2120
▁thảo	-2121
▁TR	-2122
▁mỹ	-2123
▁Tim	-2124
òm	-2125
▁toán	-2126
▁86	-2127
eng	-2128
▁Tiên	-2129
▁Công	-2130
▁tầng	-2131
▁mầm	-2132
ii	-2133
▁chẳng	-2134
arb	-2135
lobulin	-2136
art	-2137
▁73	-2138
▁Biểu	-2139
▁chiến	-2140
▁ngưỡng	-2141
uc	-2142
IDS	-2143
▁sao	-2144
▁tắt	-2145
▁hiến	-2146
ud	-2147
▁bờ	-2148
rogen	-2149
acin	-2150
▁ngã	-2151
▁nổi	-2152
▁vữa	-2153
▁hydro	-2154
▁nắn	-2155
▁văn	-2156
▁Giang	-2157
▁82	-2158
▁nghiện	-2159
ran	-2160
▁trật	-2161
RP	-2162
▁ô	-2163
▁(1).	-2164
▁lông	-2165
Hg	-2166
▁chẽ	-2167
▁pr	-2168
ida	-2169
LA	-2170
ycl	-2171
▁rách	-2172
ubin	-2173
▁84	-2174
▁rau	-2175
▁97	-2176
▁67	-2177
▁92	-2178
▁Liệu	-2179
▁94	-2180
▁mụn	-2181
CO	-2182
▁Col	-2183
DS	-2184
▁87	-2185
▁ối	-2186
▁Am	-2187
CP	-2188
MA	-2189
▁83	-2190
lycer	-2191
▁School	-2192
enc	-2193
▁Bộ	-2194
▁ty	-2195
emia	-2196
▁Can	-2197
pha	-2198
▁bù	-2199
▁creatin	-2200
▁ứ	-2201
▁rễ	-2202
▁đáy	-2203
▁"	-2204
atheter	-2205
▁nghỉ	-2206
▁hỗn	-2207
▁lứa	-2208
▁Liều	-2209
8,	-2210
MP	-2211
ivac	-2212
ron	-2213
▁91	-2214
▁luôn	-2215
▁Nguyễn	-2216
GF	-2217
▁93	-2218
▁triệt	-2219
▁74	-2220
lobin	-2221
▁tải	-2222
▁đỉnh	-2223
▁NM	-2224
▁xanh	-2225
▁nữa	-2226
▁78	-2227
ospor	-2228
▁Sp	-2229
▁đêm	-2230
▁pylori	-2231
99	-2232
▁Chất	-2233
▁huy	-2234
▁cholesterol	-2235
iz	-2236
én	-2237
▁vách	-2238
enter	-2239
▁albumin	-2240
▁Chống	-2241
9%	-2242
▁81	-2243
▁ngữ	-2244
CH	-2245
5,	-2246
0,6	-2247
▁Vi	-2248
▁chuỗi	-2249
▁laser	-2250
ub	-2251
▁amin	-2252
▁phong	-2253
eph	-2254
ren	-2255
▁qui	-2256
▁2019	-2257
▁ngột	-2258
▁tưởng	-2259
▁HBV	-2260
▁98	-2261
▁cha	-2262
▁acet	-2263
fer	-2264
arin	-2265
▁cai	-2266
▁mạng	-2267
ard	-2268
/0	-2269
▁suốt	-2270
▁2,5	-2271
ỏm	-2272
▁Đường	-2273
▁TK	-2274
▁nạo	-2275
otr	-2276
▁bọt	-2277
▁chẹn	-2278
▁06	-2279
ilir	-2280
neumonia	-2281
▁Da	-2282
▁nẹp	-2283
▁hem	-2284
▁giường	-2285
▁Hiện	-2286
▁Phần	-2287
▁Vị	-2288
▁hư	-2289
▁nhuộm	-2290
▁nguyệt	-2291
4,	-2292
▁Par	-2293
▁HB	-2294
▁Pro	-2295
ilirubin	-2296
MD	-2297
mm	-2298
▁Kích	-2299
▁cyt	-2300
▁mình	-2301
▁PT	-2302
▁catheter	-2303
▁AD	-2304
▁10%	-2305
,3%),	-2306
▁Giải	-2307
▁(201	-2308
▁mã	-2309
▁quận	-2310
▁69	-2311
ho	-2312
itr	-2313
ếch	-2314
▁mồ	-2315
reus	-2316
▁nút	-2317
▁OR	-2318
▁stress	-2319
/4	-2320
▁hiển	-2321
▁HA	-2322
▁KTC	-2323
▁coli	-2324
▁nghĩ	-2325
engue	-2326
▁Qua	-2327
▁77	-2328
▁rắn	-2329
▁NG	-2330
cm	-2331
/2019	-2332
▁rét	-2333
XH	-2334
Ph	-2335
▁Medical	-2336
up	-2337
▁lẫn	-2338
ae	-2339
▁HPV	-2340
như	-2341
▁au	-2342
▁1,1	-2343
ti	-2344
▁Gh	-2345
▁tím	-2346
▁Gia	-2347
▁AIDS	-2348
ax	-2349
RA	-2350
ok	-2351
ith	-2352
▁đĩa	-2353
aine	-2354
▁giám	-2355
▁Chăm	-2356
▁háng	-2357
▁đảo	-2358
▁mmHg	-2359
pler	-2360
▁1,0	-2361
▁vượt	-2362
▁TT	-2363
ew	-2364
umab	-2365
▁108	-2366
▁mcg	-2367
0,4	-2368
▁Bắc	-2369
▁gián	-2370
Ag	-2371
HO	-2372
▁TN	-2373
▁nhược	-2374
▁TB	-2375
▁phạm	-2376
▁vẩy	-2377
▁Thay	-2378
RT	-2379
▁carcin	-2380
7,	-2381
gi	-2382
▁ái	-2383
▁châm	-2384
ow	-2385
▁1,7	-2386
▁vòm	-2387
▁quen	-2388
▁xoắn	-2389
SD	-2390
▁gram	-2391
▁hốc	-2392
ườn	-2393
▁lồi	-2394
0,8	-2395
▁1:	-2396
▁lạc	-2397
▁lact	-2398
▁phôi	-2399
▁20%	-2400
đặc	-2401
▁(>	-2402
▁thâm	-2403
/2020	-2404
▁xoay	-2405
▁cập	-2406
▁Chấn	-2407
IC	-2408
oh	-2409
pioid	-2410
-7	-2411
▁trai	-2412
BL	-2413
ak	-2414
▁1/3	-2415
,5%),	-2416
/2021.	-2417
▁dậy	-2418
▁NT	-2419
▁flu	-2420
neumoniae	-2421
▁Z	-2422
▁stent	-2423
ulf	-2424
ect	-2425
▁týp	-2426
▁(12	-2427
▁hôn	-2428
▁kịp	-2429
▁tóc	-2430
▁thính	-2431
se	-2432
eh	-2433
,7%),	-2434
▁ngứa	-2435
▁cẳng	-2436
▁trữ	-2437
▁(+)	-2438
▁Ti	-2439
có	-2440
▁As	-2441
▁Cách	-2442
▁Tiến	-2443
▁quần	-2444
▁thấu	-2445
alass	-2446
▁thậm	-2447
can	-2448
ổng	-2449
▁cán	-2450
ER	-2451
từ	-2452
etin	-2453
▁lai	-2454
ast	-2455
▁thịt	-2456
▁Tóm	-2457
▁tạm	-2458
▁Quốc	-2459
▁treo	-2460
erp	-2461
▁thí	-2462
▁SA	-2463
rit	-2464
▁Áp	-2465
▁1,3	-2466
50	-2467
▁CA	-2468
oglobin	-2469
osterone	-2470
▁Báo	-2471
▁cúm	-2472
▁3,	-2473
▁chắc	-2474
▁viễn	-2475
HA	-2476
▁khử	-2477
HI	-2478
▁Ví	-2479
0,3	-2480
▁sợ	-2481
rine	-2482
▁Str	-2483
▁aureus	-2484
-8	-2485
▁Yếu	-2486
▁song	-2487
▁ster	-2488
▁500	-2489
▁Ngoại	-2490
ton	-2491
opro	-2492
▁Trước	-2493
BP	-2494
▁sán	-2495
▁trào	-2496
▁bẹn	-2497
▁89	-2498
▁Tìm	-2499
▁1,4	-2500
▁che	-2501
▁nong	-2502
FA	-2503
0,5	-2504
▁Thơ	-2505
omycin	-2506
▁as	-2507
▁(<	-2508
▁HbA	-2509
▁liền	-2510
▁nhũ	-2511
▁danh	-2512
▁bó	-2513
▁dai	-2514
▁CLVT	-2515
▁sườn	-2516
▁lộ	-2517
▁chéo	-2518
▁(1)	-2519
▁est	-2520
▁AP	-2521
▁Mối	-2522
▁opioid	-2523
HCM	-2524
.000	-2525
lox	-2526
▁2)	-2527
iglycer	-2528
6,	-2529
ime	-2530
,3%).	-2531
▁PET	-2532
▁lời	-2533
▁nóng	-2534
▁cư	-2535
,8%),	-2536
▁ấu	-2537
CL	-2538
▁xứng	-2539
CI	-2540
,7%).	-2541
alassemia	-2542
▁bilirubin	-2543
ry	-2544
ogen	-2545
▁sách	-2546
▁khuếch	-2547
▁nghiêng	-2548
eb	-2549
▁lịch	-2550
▁bão	-2551
ein	-2552
▁doạ	-2553
▁giây	-2554
CN	-2555
▁Di	-2556
▁Dịch	-2557
▁Thanh	-2558
▁bôi	-2559
▁khiếm	-2560
0)	-2561
▁ad	-2562
bao	-2563
▁Thị	-2564
▁đậu	-2565
epine	-2566
▁pneumoniae	-2567
không	-2568
▁bong	-2569
▁dẳng	-2570
,6%),	-2571
,3%)	-2572
▁bám	-2573
▁pH	-2574
▁Kháng	-2575
▁còi	-2576
actam	-2577
▁Loại	-2578
▁vững	-2579
▁hoãn	-2580
▁miền	-2581
▁gì	-2582
▁đòn	-2583
▁Truyền	-2584
▁Dop	-2585
▁2018	-2586
azol	-2587
0,2	-2588
▁2017	-2589
CE	-2590
0,9	-2591
▁LDL	-2592
▁Châu	-2593
▁Đo	-2594
▁w	-2595
MN	-2596
PE	-2597
▁khách	-2598
ik	-2599
▁xếp	-2600
ỷu	-2601
9,	-2602
▁(11	-2603
▁80%	-2604
▁steroid	-2605
▁im	-2606
▁1,6	-2607
▁đục	-2608
,2%),	-2609
▁gánh	-2610
▁thoáng	-2611
/2021	-2612
ươi	-2613
kinson	-2614
yn	-2615
▁HCM	-2616
▁alpha	-2617
orph	-2618
▁Sốt	-2619
▁giang	-2620
▁tia	-2621
▁trả	-2622
▁chặn	-2623
Phương	-2624
▁hãy	-2625
▁CRP	-2626
▁Center	-2627
▁(100	-2628
▁SDD	-2629
▁Ứ	-2630
▁chợ	-2631
,5%).	-2632
▁1/201	-2633
èo	-2634
▁tín	-2635
▁tận	-2636
▁nghịch	-2637
ỳnh	-2638
▁VAS	-2639
▁khuỷu	-2640
,33	-2641
▁03	-2642
▁trải	-2643
/5	-2644
11	-2645
▁Ư	-2646
,1%),	-2647
anol	-2648
▁cặp	-2649
▁bể	-2650
▁lĩnh	-2651
▁Giai	-2652
ậc	-2653
▁đen	-2654
▁Doppler	-2655
▁79	-2656
▁12/201	-2657
▁(16	-2658
ethyl	-2659
▁Ngọc	-2660
▁Thường	-2661
],	-2662
ond	-2663
▁kỷ	-2664
bệnh	-2665
ovid	-2666
uôi	-2667
▁nhú	-2668
▁bánh	-2669
▁tống	-2670
▁dành	-2671
ẹt	-2672
,4%),	-2673
▁GI	-2674
▁St	-2675
▁đe	-2676
▁khích	-2677
ys	-2678
▁phận	-2679
▁dường	-2680
▁(%)	-2681
▁(13	-2682
▁bày	-2683
▁bậc	-2684
av	-2685
▁QU	-2686
end	-2687
▁sờ	-2688
▁Dương	-2689
▁enzyme	-2690
ff	-2691
yr	-2692
▁(2)	-2693
▁mai	-2694
▁HS	-2695
,7%)	-2696
▁Gãy	-2697
ụi	-2698
▁sanh	-2699
▁AF	-2700
TK	-2701
iễu	-2702
0%),	-2703
▁táo	-2704
▁COPD	-2705
▁vĩnh	-2706
▁khẳng	-2707
▁khiến	-2708
▁(18	-2709
▁tri	-2710
▁kiếm	-2711
▁par	-2712
▁cô	-2713
0,7	-2714
▁lão	-2715
▁Phát	-2716
lex	-2717
▁0,02	-2718
▁thói	-2719
▁En	-2720
▁Sản	-2721
▁nhức	-2722
▁Tây	-2723
▁mùa	-2724
taphy	-2725
].	-2726
ital	-2727
taphyloc	-2728
▁05	-2729
▁hang	-2730
ert	-2731
▁Ac	-2732
▁đói	-2733
iot	-2734
isol	-2735
erpes	-2736
MV	-2737
pus	-2738
▁nhầy	-2739
▁Bất	-2740
▁for	-2741
▁chày	-2742
▁uric	-2743
▁1,8	-2744
▁trụ	-2745
lav	-2746
▁tân	-2747
▁bắp	-2748
rad	-2749
▁tên	-2750
▁ĐMV	-2751
▁2012	-2752
opr	-2753
▁ẩm	-2754
▁huấn	-2755
và	-2756
trong	-2757
▁90%	-2758
▁Vai	-2759
▁bụi	-2760
▁sarc	-2761
▁mic	-2762
ephal	-2763
▁cỡ	-2764
romycin	-2765
▁CS	-2766
▁kẽm	-2767
▁tam	-2768
▁chồng	-2769
▁khung	-2770
/6	-2771
ủng	-2772
▁TM	-2773
▁Hai	-2774
▁rẫy	-2775
,9%),	-2776
icin	-2777
▁Xây	-2778
▁phẳng	-2779
▁99	-2780
▁hs	-2781
▁mao	-2782
▁dàng	-2783
▁nách	-2784
▁chạy	-2785
ovirus	-2786
▁6/201	-2787
▁01/201	-2788
▁NMCT	-2789
BNP	-2790
▁199	-2791
bs	-2792
▁at	-2793
ycline	-2794
/12	-2795
▁no	-2796
▁Học	-2797
▁2010	-2798
yclo	-2799
▁bón	-2800
▁bóp	-2801
▁chóp	-2802
▁Thống	-2803
▁thiệu	-2804
▁Hoá	-2805
▁triglycer	-2806
▁BP	-2807
▁lô	-2808
GA	-2809
▁e	-2810
▁95%:	-2811
TS	-2812
▁chắn	-2813
▁5%	-2814
▁Tai	-2815
▁Nên	-2816
5).	-2817
▁cef	-2818
▁mỏng	-2819
phosph	-2820
Co	-2821
ienc	-2822
▁vac	-2823
▁Cả	-2824
,8%).	-2825
▁Giới	-2826
,0%	-2827
▁ví	-2828
áu	-2829
▁mờ	-2830
,67	-2831
▁Hệ	-2832
▁kịch	-2833
▁tranh	-2834
6%	-2835
osa	-2836
,5%)	-2837
1%	-2838
▁02	-2839
▁120	-2840
▁nén	-2841
▁sulf	-2842
▁lupus	-2843
▁1,9	-2844
▁HCV	-2845
LI	-2846
▁khúc	-2847
])	-2848
all	-2849
inol	-2850
▁lev	-2851
▁hoàng	-2852
phen	-2853
▁(15	-2854
▁met	-2855
▁Hiệp	-2856
▁(25	-2857
▁lối	-2858
▁Bước	-2859
MS	-2860
4%	-2861
▁nit	-2862
chiếm	-2863
▁diệt	-2864
▁khe	-2865
loxacin	-2866
▁2,4	-2867
entan	-2868
▁2011	-2869
PV	-2870
▁Lượng	-2871
pir	-2872
▁Thang	-2873
▁thách	-2874
io	-2875
0%)	-2876
idine	-2877
▁2013	-2878
▁Scienc	-2879
OS	-2880
▁Tư	-2881
▁Đái	-2882
▁Cân	-2883
▁Hữu	-2884
▁dạy	-2885
▁trống	-2886
DA	-2887
▁kiềm	-2888
▁trán	-2889
▁Tương	-2890
▁huỳnh	-2891
TNS	-2892
▁lạm	-2893
8%	-2894
▁2,2	-2895
,8%)	-2896
▁Cho	-2897
▁nhờ	-2898
▁Đông	-2899
▁mỏm	-2900
apenem	-2901
-200	-2902
▁đàn	-2903
SAID	-2904
▁lưới	-2905
▁bức	-2906
▁đọng	-2907
▁lưỡng	-2908
▁Ninh	-2909
▁thao	-2910
▁hố	-2911
▁gam	-2912
▁giàu	-2913
▁chì	-2914
▁typ	-2915
▁100%,	-2916
▁HDL	-2917
▁2,1	-2918
erc	-2919
▁ES	-2920
▁áo	-2921
▁nắng	-2922
▁hoành	-2923
▁-2	-2924
2%	-2925
▁Bài	-2926
okine	-2927
▁nghệ	-2928
▁lẻ	-2929
▁châu	-2930
form	-2931
▁mòn	-2932
andida	-2933
enicillin	-2934
/10	-2935
▁Thể	-2936
▁Staphyloc	-2937
▁Đề	-2938
▁nhầm	-2939
▁cương	-2940
iaz	-2941
ergic	-2942
▁ngôn	-2943
,4%)	-2944
▁kẹp	-2945
▁sàn	-2946
▁2016	-2947
▁kênh	-2948
▁trắc	-2949
osporin	-2950
▁TC	-2951
▁UT	-2952
▁150	-2953
▁spp	-2954
ameth	-2955
▁Candida	-2956
IP	-2957
UC	-2958
edn	-2959
▁Gây	-2960
ivacain	-2961
CoV	-2962
▁MS	-2963
▁ex	-2964
NK	-2965
▁pg	-2966
▁phen	-2967
▁ngồi	-2968
▁trao	-2969
▁Sh	-2970
▁Gram	-2971
▁(14	-2972
,4%).	-2973
▁tươi	-2974
▁hông	-2975
GFR	-2976
erm	-2977
iol	-2978
ore	-2979
▁hoa	-2980
▁Colle	-2981
▁Mất	-2982
▁SXH	-2983
▁tuý	-2984
BC	-2985
,1%).	-2986
/2020.	-2987
▁10/201	-2988
▁300	-2989
▁Hàm	-2990
▁College	-2991
NS	-2992
onas	-2993
,2%).	-2994
▁Co	-2995
▁Hạ	-2996
▁3,5	-2997
▁Tần	-2998
▁đám	-2999
▁AL	-3000
▁40%	-3001
-9	-3002
▁mùi	-3003
▁2:	-3004
▁eo	-3005
,1%)	-3006
ophil	-3007
PT	-3008
▁thổi	-3009
2)	-3010
▁đè	-3011
▁Chảy	-3012
▁sừng	-3013
▁Long	-3014
▁(17	-3015
▁(19	-3016
▁WHO	-3017
▁thôn	-3018
comycin	-3019
unt	-3020
▁1%	-3021
,6%)	-3022
mann	-3023
▁SL	-3024
,2%)	-3025
imer	-3026
▁2,3	-3027
BG	-3028
▁bữa	-3029
▁trội	-3030
▁CP	-3031
▁globulin	-3032
ocar	-3033
ugin	-3034
▁Liên	-3035
▁SARS	-3036
▁Tiêm	-3037
▁2021.	-3038
erugin	-3039
▁NA	-3040
▁Parkinson	-3041
0,0	-3042
hoặc	-3043
osid	-3044
▁Anh	-3045
▁mẫn	-3046
▁calc	-3047
ococcus	-3048
mg	-3049
▁04	-3050
,9%)	-3051
▁HCC	-3052
▁0,05)	-3053
▁Covid	-3054
Th	-3055
▁VP	-3056
▁VII	-3057
,6%).	-3058
amide	-3059
▁2023	-3060
▁Dị	-3061
▁run	-3062
▁30%	-3063
▁methyl	-3064
5)	-3065
ord	-3066
▁Chi	-3067
▁đất	-3068
▁z	-3069
▁tròn	-3070
53	-3071
PCR	-3072
ian	-3073
sin	-3074
▁ion	-3075
▁biển	-3076
▁rạch	-3077
rol	-3078
▁0,03	-3079
oprotein	-3080
▁huống	-3081
▁carcinôm	-3082
ớt	-3083
OC	-3084
VM	-3085
▁bé	-3086
lock	-3087
▁Phản	-3088
▁25%	-3089
▁già	-3090
▁gái	-3091
▁2015	-3092
▁RL	-3093
,9%).	-3094
ost	-3095
▁đờ	-3096
▁ưa	-3097
▁tp	-3098
▁Quảng	-3099
▁buổi	-3100
▁trăm	-3101
▁nhiệm	-3102
rox	-3103
▁Bằng	-3104
▁Nhất	-3105
▁tuyệt	-3106
▁Dengue	-3107
▁estrogen	-3108
EN	-3109
▁tỏ	-3110
▁(22	-3111
ealth	-3112
▁bọng	-3113
▁việt	-3114
eruginosa	-3115
▁Đột	-3116
▁Răng	-3117
▁dãn	-3118
▁hàn	-3119
▁đeo	-3120
▁duỗi	-3121
▁1)	-3122
▁bắc	-3123
▁0,01).	-3124
▁khoáng	-3125
AT	-3126
mol	-3127
sch	-3128
▁buộc	-3129
▁thuyết	-3130
▁0.0	-3131
▁Cao	-3132
▁60%	-3133
▁Thử	-3134
▁bup	-3135
af	-3136
▁the	-3137
DH	-3138
▁sh	-3139
▁thiên	-3140
ydr	-3141
▁mon	-3142
▁đứt	-3143
▁nhắt	-3144
ild	-3145
iella	-3146
/7	-3147
▁2,8	-3148
▁khẩn	-3149
▁vọng	-3150
EP	-3151
▁400	-3152
▁Chương	-3153
▁SP	-3154
nhóm	-3155
▁bùng	-3156
rút	-3157
▁IgG	-3158
orphy	-3159
▁benz	-3160
▁CHT	-3161
▁bóc	-3162
▁Tính	-3163
▁hist	-3164
omonas	-3165
▁cytokine	-3166
▁nguyện	-3167
-10	-3168
tức	-3169
▁trĩ	-3170
ene	-3171
ner	-3172
▁ấm	-3173
▁PTNS	-3174
▁100%.	-3175
AN	-3176
▁Mặt	-3177
▁(95%	-3178
OT	-3179
▁(10	-3180
▁thấm	-3181
▁kem	-3182
▁rụng	-3183
▁thoả	-3184
▁Hướng	-3185
PH	-3186
▁Xuất	-3187
▁creatinine	-3188
BS	-3189
,7%;	-3190
elic	-3191
▁Hơn	-3192
▁Thận	-3193
▁tàn	-3194
▁Hiếm	-3195
ốm	-3196
▁70%	-3197
▁NGHI	-3198
▁TPHCM	-3199
ĐTĐ	-3200
▁bế	-3201
▁Staphylococcus	-3202
viêm	-3203
▁Năm	-3204
▁vét	-3205
▁vôi	-3206
odg	-3207
▁0,04	-3208
▁nhật	-3209
,3%;	-3210
▁2,7	-3211
▁Như	-3212
▁Tâm	-3213
pirin	-3214
▁1000	-3215
▁gene	-3216
▁creatinin	-3217
▁sỹ	-3218
▁noãn	-3219
▁miếng	-3220
ephalosporin	-3221
▁CK	-3222
▁Pa	-3223
▁cl	-3224
▁viết	-3225
VA	-3226
ĐM	-3227
▁kì	-3228
▁khuy	-3229
▁trơn	-3230
ansfer	-3231
entanyl	-3232
,25	-3233
▁gl	-3234
▁bật	-3235
▁ngại	-3236
proBNP	-3237
oro	-3238
▁đỡ	-3239
▁103	-3240
▁Kle	-3241
rof	-3242
▁PhD	-3243
▁(200	-3244
sAg	-3245
▁07	-3246
▁VI	-3247
▁Ghép	-3248
▁Mẫu	-3249
/2009	-3250
▁Phú	-3251
▁Ứng	-3252
DT	-3253
một	-3254
▁prop	-3255
▁phiên	-3256
KTC	-3257
▁glyc	-3258
do	-3259
RNA	-3260
amp	-3261
-202	-3262
▁mag	-3263
illus	-3264
▁2009	-3265
▁Tiếp	-3266
ace	-3267
ướm	-3268
▁Bởi	-3269
▁ox	-3270
▁dừng	-3271
▁0,001),	-3272
▁cồn	-3273
▁đờm	-3274
▁bướm	-3275
ie	-3276
arr	-3277
▁ĐI	-3278
▁hắc	-3279
▁củng	-3280
ơng	-3281
▁Lâm	-3282
▁hầm	-3283
▁0,05),	-3284
▁Hoạt	-3285
▁bông	-3286
elicobacter	-3287
ĐT	-3288
CTH	-3289
▁CỨ	-3290
▁Bên	-3291
▁đới	-3292
ona	-3293
▁...	-3294
▁Tắc	-3295
▁ngơi	-3296
▁Ad	-3297
seud	-3298
▁2,6	-3299
▁morph	-3300
ish	-3301
▁is	-3302
bsiella	-3303
▁khuyên	-3304
ct	-3305
ớn	-3306
mon	-3307
▁2,0	-3308
▁Cấp	-3309
ospital	-3310
acet	-3311
▁inter	-3312
ilic	-3313
▁cẩn	-3314
▁lặn	-3315
▁sắp	-3316
▁2020.	-3317
lam	-3318
▁NC	-3319
▁đổ	-3320
alis	-3321
▁testosterone	-3322
▁CỨU	-3323
▁tấn	-3324
▁tụt	-3325
16	-3326
▁(28	-3327
▁(33	-3328
▁Ban	-3329
▁bia	-3330
▁thơ	-3331
20	-3332
▁Ba	-3333
▁Hem	-3334
▁lỗi	-3335
▁Khối	-3336
ES	-3337
LS	-3338
ếc	-3339
▁1/1	-3340
▁4,5	-3341
ensin	-3342
▁vitro	-3343
oin	-3344
▁4,	-3345
oxin	-3346
pr	-3347
õm	-3348
▁Họ	-3349
▁Quá	-3350
▁fib	-3351
▁chán	-3352
▁Động	-3353
str	-3354
ãnh	-3355
▁NB	-3356
▁dội	-3357
▁Ngày	-3358
▁Hospital	-3359
ite	-3360
oth	-3361
14	-3362
CRP	-3363
our	-3364
▁MR	-3365
▁2,9	-3366
▁3,1	-3367
▁mác	-3368
▁nuc	-3369
▁Bướu	-3370
▁Cortic	-3371
▁Phù	-3372
▁cam	-3373
▁đay	-3374
▁đứa	-3375
▁herpes	-3376
/8	-3377
▁08	-3378
▁tứ	-3379
▁xẹp	-3380
▁Health	-3381
▁chè	-3382
▁clo	-3383
▁cụt	-3384
▁Chức	-3385
▁Tế	-3386
ines	-3387
isone	-3388
▁Chiều	-3389
▁Chứng	-3390
18	-3391
Ch	-3392
▁Mar	-3393
▁nếp	-3394
▁Klebsiella	-3395
ker	-3396
▁Khả	-3397
▁trễ	-3398
▁ảo	-3399
▁dán	-3400
17	-3401
PA	-3402
chol	-3403
▁bẫy	-3404
▁eth	-3405
MR	-3406
▁cử	-3407
▁ECG	-3408
▁dop	-3409
khoảng	-3410
▁đồi	-3411
phrine	-3412
▁Child	-3413
SC	-3414
min	-3415
▁vít	-3416
▁Thủ	-3417
▁log	-3418
▁Điện	-3419
▁ông	-3420
▁phosphat	-3421
▁(21	-3422
▁thoảng	-3423
SV	-3424
▁AB	-3425
▁TI	-3426
▁3,4	-3427
5%,	-3428
5%.	-3429
LCS	-3430
▁Pr	-3431
▁bộc	-3432
▁cũ	-3433
▁75%	-3434
-12	-3435
▁UTB	-3436
▁dex	-3437
onazole	-3438
▁Na	-3439
▁lí	-3440
▁250	-3441
▁HLA	-3442
▁bốn	-3443
▁2014	-3444
▁chấm	-3445
với	-3446
▁ói	-3447
▁Quy	-3448
▁ser	-3449
▁vẹo	-3450
▁penicillin	-3451
OP	-3452
▁(23	-3453
ano	-3454
ary	-3455
ery	-3456
/2008	-3457
/2017	-3458
▁IC	-3459
TNMT	-3460
▁Con	-3461
lactam	-3462
/1.	-3463
ick	-3464
▁Lu	-3465
▁Dùng	-3466
ithromycin	-3467
5%),	-3468
▁gel	-3469
▁đẳng	-3470
izumab	-3471
▁huế	-3472
ritin	-3473
odgkin	-3474
EA	-3475
▁liễu	-3476
▁thật	-3477
▁lường	-3478
▁KS	-3479
flu	-3480
ome	-3481
▁TG	-3482
inase	-3483
▁Kinh	-3484
ux	-3485
▁nạ	-3486
▁Sức	-3487
▁NH	-3488
ophen	-3489
▁my	-3490
▁Tập	-3491
▁bớt	-3492
DG	-3493
ler	-3494
▁Thần	-3495
▁doanh	-3496
gow	-3497
▁Hoà	-3498
▁khè	-3499
▁fluor	-3500
lut	-3501
▁gà	-3502
▁Làm	-3503
▁bền	-3504
hydro	-3505
orn	-3506
▁ARV	-3507
▁ESBL	-3508
▁block	-3509
▁aeruginosa	-3510
och	-3511
▁Nghệ	-3512
3)	-3513
HC	-3514
ôc	-3515
▁ốc	-3516
▁(26	-3517
▁nhổ	-3518
▁anti	-3519
▁nhện	-3520
itamin	-3521
ortisol	-3522
▁gạc	-3523
▁tàu	-3524
▁chích	-3525
▁Tử	-3526
aumann	-3527
etobacter	-3528
rel	-3529
▁3,3	-3530
▁4,2	-3531
▁ami	-3532
▁HBsAg	-3533
▁NSAID	-3534
▁Hodgkin	-3535
LD	-3536
/01	-3537
ial	-3538
▁Bác	-3539
▁TSH	-3540
▁giảng	-3541
▁Strept	-3542
ACE	-3543
▁SD	-3544
▁VN	-3545
▁chờ	-3546
1)	-3547
độ	-3548
5%)	-3549
▁quai	-3550
▁hemoglobin	-3551
9)	-3552
ylo	-3553
▁Sa	-3554
▁(27	-3555
▁2).	-3556
▁Chế	-3557
▁cối	-3558
iotensin	-3559
▁IgA	-3560
otrex	-3561
▁trạm	-3562
▁corticoid	-3563
US	-3564
▁SO	-3565
▁bè	-3566
idoc	-3567
erritin	-3568
▁dl	-3569
▁kĩ	-3570
ùm	-3571
▁az	-3572
▁3,7	-3573
▁Hồng	-3574
▁tiệt	-3575
▁gamma	-3576
▁bạo	-3577
▁ure	-3578
FS	-3579
▁Car	-3580
▁mông	-3581
ủa	-3582
▁mọc	-3583
▁sảng	-3584
▁khuynh	-3585
,5%;	-3586
▁(24	-3587
▁0,001.	-3588
omas	-3589
▁(31	-3590
▁bìu	-3591
▁lái	-3592
epinephrine	-3593
2).	-3594
▁ur	-3595
▁rào	-3596
olate	-3597
▁SPSS	-3598
▁nhẫn	-3599
8%.	-3600
▁5.	-3601
▁PR	-3602
▁XH	-3603
▁(32	-3604
▁khò	-3605
▁mốc	-3606
lasma	-3607
lasgow	-3608
▁EGFR	-3609
VYT	-3610
idin	-3611
▁3,2	-3612
▁Nhu	-3613
▁scan	-3614
iss	-3615
ML	-3616
ivacaine	-3617
▁TTT	-3618
▁dãy	-3619
▁silic	-3620
▁cãi	-3621
lamyd	-3622
▁chạm	-3623
▁poly	-3624
aumannii	-3625
▁vancomycin	-3626
▁ap	-3627
▁vòi	-3628
eparin	-3629
▁bi	-3630
▁Đã	-3631
▁(20	-3632
ata	-3633
▁thác	-3634
6)	-3635
EV	-3636
KT	-3637
PR	-3638
Đối	-3639
▁lõm	-3640
▁phosphate	-3641
▁15%	-3642
arm	-3643
▁09	-3644
leo	-3645
uối	-3646
▁phó	-3647
otype	-3648
▁Corticosteroid	-3649
▁Hg	-3650
ôcôm	-3651
▁TNF	-3652
▁phường	-3653
▁(-	-3654
▁lú	-3655
▁(35	-3656
▁Cef	-3657
▁RNA	-3658
▁Quản	-3659
▁ngửa	-3660
▁shunt	-3661
▁virut	-3662
▁0,0001	-3663
otrexate	-3664
13	-3665
rac	-3666
uyển	-3667
▁cạm	-3668
▁Tràn	-3669
▁ALT	-3670
▁rác	-3671
▁quát	-3672
ern	-3673
gin	-3674
▁AFP	-3675
8)	-3676
6%,	-3677
,1%;	-3678
▁RLC	-3679
▁dải	-3680
/2022.	-3681
LP	-3682
▁SV	-3683
▁aspirin	-3684
▁(2).	-3685
8%,	-3686
ỗng	-3687
▁HT	-3688
▁Tạo	-3689
▁Vir	-3690
▁nhai	-3691
▁carbapenem	-3692
19	-3693
6%.	-3694
ohn	-3695
ult	-3696
▁rời	-3697
▁Nhiệt	-3698
các	-3699
▁lồ	-3700
▁alb	-3701
▁Acin	-3702
▁fibrin	-3703
ive	-3704
▁Tái	-3705
amycin	-3706
▁giọng	-3707
▁nghẹt	-3708
2;	-3709
BT	-3710
cal	-3711
ood	-3712
ẵng	-3713
ring	-3714
▁Vắc	-3715
▁mào	-3716
he	-3717
▁sởi	-3718
▁Vương	-3719
▁BH	-3720
▁PSA	-3721
▁đọc	-3722
▁Clin	-3723
▁khổng	-3724
ua	-3725
▁ER	-3726
,0%.	-3727
▁ROC	-3728
ett	-3729
▁Ar	-3730
▁vẻ	-3731
,6%;	-3732
được	-3733
▁Phác	-3734
▁nhàng	-3735
angiotensin	-3736
EM	-3737
ush	-3738
▁NI	-3739
▁Đà	-3740
▁đem	-3741
▁Phi	-3742
▁Wil	-3743
▁bếp	-3744
4)	-3745
▁CLCS	-3746
▁polym	-3747
▁dengue	-3748
/20	-3749
oli	-3750
▁2%	-3751
▁BI	-3752
,4%;	-3753
▁Hẹp	-3754
stein	-3755
▁quyền	-3756
ắk	-3757
▁MT	-3758
,2%;	-3759
▁(36	-3760
▁exon	-3761
▁soạn	-3762
▁phồng	-3763
▁Acinetobacter	-3764
EF	-3765
fen	-3766
▁KH	-3767
▁3,8	-3768
essin	-3769
▁luật	-3770
▁gót	-3771
/2015	-3772
amethas	-3773
7)	-3774
▁lẽ	-3775
▁quân	-3776
▁Enter	-3777
GT	-3778
4%,	-3779
▁Chưa	-3780
▁nghèo	-3781
CĐ	-3782
NB	-3783
tu	-3784
▁(≥	-3785
▁Im	-3786
▁Xơ	-3787
imab	-3788
▁Bản	-3789
▁Sàng	-3790
▁chlor	-3791
lamydia	-3792
ịt	-3793
▁Pseud	-3794
AR	-3795
ear	-3796
▁DD	-3797
▁Xử	-3798
▁ro	-3799
▁sổ	-3800
▁trời	-3801
▁0,001)	-3802
▁trocar	-3803
▁(45	-3804
▁Mắt	-3805
▁đèn	-3806
▁suyễn	-3807
▁ethanol	-3808
▁cortisol	-3809
/9	-3810
SI	-3811
TTP	-3812
▁nở	-3813
elin	-3814
▁Yên	-3815
▁Test	-3816
▁nhạt	-3817
ml	-3818
4).	-3819
alin	-3820
eric	-3821
▁Kim	-3822
▁hộp	-3823
/2011	-3824
,8%;	-3825
▁uốn	-3826
3%,	-3827
▁Gl	-3828
▁Sơn	-3829
▁gút	-3830
▁Nhìn	-3831
▁ướ	-3832
▁Ghi	-3833
/2018	-3834
▁BPTNMT	-3835
AL	-3836
▁Le	-3837
▁cuốn	-3838
▁hổng	-3839
▁Helicobacter	-3840
5;	-3841
IG	-3842
/2010	-3843
▁khói	-3844
,0%,	-3845
▁tấm	-3846
▁đuôi	-3847
▁2019.	-3848
67	-3849
3).	-3850
omp	-3851
LISA	-3852
amol	-3853
▁ACE	-3854
/2016	-3855
▁than	-3856
▁predn	-3857
▁6.	-3858
▁Br	-3859
▁VA	-3860
▁5,	-3861
▁To	-3862
▁Độc	-3863
▁2008	-3864
▁Ương	-3865
rog	-3866
▁Dữ	-3867
▁New	-3868
▁nhị	-3869
opressin	-3870
anc	-3871
▁(46	-3872
▁trà	-3873
▁01/01	-3874
HT	-3875
eton	-3876
▁móc	-3877
▁vân	-3878
trước	-3879
6).	-3880
-19.	-3881
ipid	-3882
3;	-3883
6;	-3884
iê	-3885
obot	-3886
▁Dựa	-3887
▁tet	-3888
▁muỗi	-3889
▁Nhưng	-3890
▁Glasgow	-3891
▁triglycerid	-3892
▁bí	-3893
▁bò	-3894
last	-3895
▁Sal	-3896
▁Thế	-3897
▁Văn	-3898
▁khuôn	-3899
1%,	-3900
ASI	-3901
▁(29	-3902
▁gập	-3903
▁cholin	-3904
▁SS	-3905
▁fentanyl	-3906
▁Pseudomonas	-3907
lot	-3908
emph	-3909
▁mái	-3910
▁nắm	-3911
▁ve	-3912
▁3,0	-3913
▁3,6	-3914
▁mua	-3915
idase	-3916
▁NS	-3917
▁nhắm	-3918
▁hoang	-3919
KI	-3920
line	-3921
ment	-3922
▁Pol	-3923
▁đạm	-3924
ile	-3925
▁CY	-3926
▁Gần	-3927
▁Mũi	-3928
▁đài	-3929
emphig	-3930
▁baumannii	-3931
7%.	-3932
▁(52	-3933
▁(66	-3934
▁HER	-3935
trung	-3936
ylase	-3937
time	-3938
▁4,6	-3939
▁Mỗi	-3940
▁per	-3941
▁tốn	-3942
NM	-3943
▁(47	-3944
▁mel	-3945
aceae	-3946
▁quãng	-3947
hex	-3948
▁CB	-3949
▁(42	-3950
▁(58	-3951
▁androgen	-3952
15	-3953
9;	-3954
FR	-3955
4%.	-3956
▁IgM	-3957
eryth	-3958
▁Phạm	-3959
▁trượt	-3960
▁Chuyển	-3961
Eq	-3962
sau	-3963
▁khía	-3964
▁viền	-3965
▁Protein	-3966
▁cholinergic	-3967
▁ar	-3968
uron	-3969
▁3,9	-3970
▁AST	-3971
▁dập	-3972
ocyst	-3973
VP	-3974
▁ant	-3975
▁nano	-3976
8;	-3977
UT	-3978
▁Đáp	-3979
CB	-3980
YHA	-3981
▁nỗ	-3982
▁(34	-3983
▁2.2.	-3984
▁Sciences	-3985
▁NKH	-3986
▁gói	-3987
▁mEq	-3988
▁đợi	-3989
▁Ngược	-3990
▁Ca	-3991
▁dox	-3992
7%,	-3993
ork	-3994
tăng	-3995
▁chữ	-3996
/2007	-3997
▁trích	-3998
3%.	-3999
ann	-4000
ưới	-4001
▁bã	-4002
0%).	-4003
▁5,5	-4004
▁Tri	-4005
▁thầy	-4006
ash	-4007
ock	-4008
tại	-4009
▁CN	-4010
▁Xạ	-4011
ofol	-4012
▁(44	-4013
▁mày	-4014
▁đàm	-4015
▁angiotensin	-4016
ủi	-4017
per	-4018
▁kép	-4019
▁mát	-4020
istic	-4021
▁Chọc	-4022
KTM	-4023
▁Cal	-4024
▁bít	-4025
▁Nhịp	-4026
▁Tiếng	-4027
▁trách	-4028
▁3:	-4029
▁đá	-4030
cine	-4031
▁núi	-4032
▁Thừa	-4033
▁linh	-4034
▁Lý	-4035
▁(37	-4036
▁Phục	-4037
▁đoàn	-4038
▁eryth	-4039
cr	-4040
▁3%	-4041
▁ru	-4042
▁(64	-4043
▁vẹn	-4044
▁thuyền	-4045
▁cephalosporin	-4046
9%,	-4047
ach	-4048
▁vợ	-4049
▁bang	-4050
9%.	-4051
ari	-4052
▁(43	-4053
▁Lão	-4054
▁lậu	-4055
▁màn	-4056
▁rải	-4057
▁NVYT	-4058
▁Nuôi	-4059
▁Nói	-4060
▁huyệt	-4061
▁lidoc	-4062
NC	-4063
NP	-4064
gh	-4065
▁3)	-4066
▁Dự	-4067
ford	-4068
▁4,3	-4069
▁AUC	-4070
▁ngả	-4071
/2019.	-4072
old	-4073
▁vu	-4074
▁ASA	-4075
▁IgE	-4076
▁Trà	-4077
▁del	-4078
/2014	-4079
yloid	-4080
eptide	-4081
▁chướng	-4082
▁Tp	-4083
PECT	-4084
▁ald	-4085
▁nọc	-4086
ix	-4087
▁phê	-4088
▁Nữ	-4089
▁SGA	-4090
▁lui	-4091
▁xoá	-4092
rombin	-4093
▁heparin	-4094
1%.	-4095
▁Ep	-4096
▁mí	-4097
▁ĐD	-4098
▁(56	-4099
▁(83	-4100
▁Vết	-4101
▁xịt	-4102
▁BHYT	-4103
2%.	-4104
ale	-4105
▁bọ	-4106
8%),	-4107
▁115	-4108
▁7,5	-4109
▁CDC	-4110
▁mcL	-4111
oxide	-4112
▁2007	-4113
▁LI	-4114
▁dứt	-4115
▁nứt	-4116
actin	-4117
erich	-4118
ester	-4119
istin	-4120
▁thoải	-4121
amethasone	-4122
AD	-4123
GS	-4124
HS	-4125
▁Ap	-4126
icot	-4127
▁PTH	-4128
▁sẩn	-4129
▁SXHD	-4130
▁magiê	-4131
▁et	-4132
▁xi	-4133
onat	-4134
▁bọc	-4135
oglyc	-4136
mer	-4137
▁IU	-4138
theo	-4139
▁nâu	-4140
iprof	-4141
▁aden	-4142
▁chùm	-4143
▁Vitamin	-4144
72	-4145
PI	-4146
▁(41	-4147
▁3.2	-4148
▁đập	-4149
▁hằng	-4150
vid	-4151
▁hy	-4152
igma	-4153
lasm	-4154
▁4,7	-4155
▁tẩy	-4156
▁108.	-4157
▁Nẵng	-4158
eu	-4159
▁PD	-4160
▁(54	-4161
▁(71	-4162
▁đậm	-4163
▁cyclo	-4164
ansferase	-4165
4;	-4166
9).	-4167
iax	-4168
▁QT	-4169
erase	-4170
▁khắc	-4171
▁serot	-4172
▁ferritin	-4173
▁102	-4174
▁Sỏi	-4175
▁2005	-4176
▁Meth	-4177
formin	-4178
ợn	-4179
ica	-4180
▁luỹ	-4181
▁2000	-4182
▁Kiểu	-4183
VC	-4184
▁Clo	-4185
▁HCCH	-4186
quinol	-4187
uth	-4188
▁kỵ	-4189
▁”.	-4190
▁(72	-4191
▁Khó	-4192
▁mại	-4193
▁que	-4194
▁chỏm	-4195
erichia	-4196
olin	-4197
▁(81	-4198
triax	-4199
▁Gluc	-4200
▁NYHA	-4201
▁flav	-4202
▁trồng	-4203
2%,	-4204
▁4,1	-4205
▁UTT	-4206
▁ĐMC	-4207
oi	-4208
app	-4209
,9%;	-4210
anth	-4211
/2013	-4212
▁ngất	-4213
HCT	-4214
▁mũ	-4215
ular	-4216
▁Xem	-4217
/2012	-4218
▁Ngay	-4219
imp	-4220
▁7.	-4221
▁10.	-4222
▁Tạp	-4223
▁Thai	-4224
▁nướu	-4225
OH	-4226
▁Nu	-4227
▁phospho	-4228
▁Dũ	-4229
5%).	-4230
oter	-4231
ition	-4232
▁01/0	-4233
▁Loạn	-4234
▁triglyceride	-4235
7).	-4236
ure	-4237
▁lơ	-4238
▁iốt	-4239
▁Esch	-4240
▁kiệt	-4241
▁Clinic	-4242
ise	-4243
▁(39	-4244
▁tắm	-4245
▁Khuyến	-4246
but	-4247
thu	-4248
land	-4249
▁(61	-4250
▁4,0	-4251
adone	-4252
imeth	-4253
▁John	-4254
ydrate	-4255
23	-4256
▁NST	-4257
feron	-4258
▁ngắt	-4259
▁trướng	-4260
-15	-4261
▁(51	-4262
▁(53	-4263
▁(62	-4264
▁2006	-4265
▁glôcôm	-4266
▁lactate	-4267
▁epinephrine	-4268
net	-4269
▁Gu	-4270
▁(3)	-4271
▁(77	-4272
▁mar	-4273
▁cyst	-4274
ipenem	-4275
BA	-4276
ont	-4277
▁TV	-4278
▁(57	-4279
▁Tiểu	-4280
▁ngân	-4281
aw	-4282
idan	-4283
odiaz	-4284
▁Carb	-4285
▁Mạch	-4286
DNA	-4287
age	-4288
enn	-4289
2.1.	-4290
▁106	-4291
▁lợn	-4292
▁mép	-4293
▁vas	-4294
ubella	-4295
eAg	-4296
▁(38	-4297
▁NIH	-4298
▁hẹn	-4299
▁giấy	-4300
▁liềm	-4301
itonin	-4302
▁phiếu	-4303
▁Lê	-4304
▁hổ	-4305
▁Vinh	-4306
▁ELISA	-4307
etamine	-4308
idazole	-4309
Cl	-4310
ìa	-4311
1).	-4312
▁Tân	-4313
▁quý	-4314
▁sụt	-4315
plant	-4316
▁Nhồi	-4317
▁31/12	-4318
▁hydroxy	-4319
HD	-4320
ism	-4321
▁hải	-4322
▁khứ	-4323
▁giọt	-4324
olesterol	-4325
iprofloxacin	-4326
di	-4327
ane	-4328
evof	-4329
▁SpO	-4330
▁ngũ	-4331
▁Nghi	-4332
▁dáng	-4333
▁ngấm	-4334
▁thạch	-4335
▁thỉnh	-4336
ycycline	-4337
▁Science	-4338
ngh	-4339
▁đự	-4340
▁Van	-4341
▁Vật	-4342
▁pyr	-4343
▁kinase	-4344
core	-4345
▁(55	-4346
▁FEV	-4347
▁ướt	-4348
oside	-4349
▁Liệt	-4350
▁Thoát	-4351
8).	-4352
max	-4353
sen	-4354
▁6,	-4355
▁MA	-4356
▁Máu	-4357
onate	-4358
▁Mich	-4359
▁Thomas	-4360
▁fluoro	-4361
aminophen	-4362
FN	-4363
▁bv	-4364
rane	-4365
▁(76	-4366
▁chải	-4367
▁khiển	-4368
▁nucleo	-4369
▁morphin	-4370
▁vaccine	-4371
▁GH	-4372
▁Hậu	-4373
▁PCT	-4374
3),	-4375
]).	-4376
nếu	-4377
▁Rh	-4378
▁bồ	-4379
▁tì	-4380
▁CYP	-4381
▁Lấy	-4382
▁niệm	-4383
▁(0	-4384
▁cà	-4385
▁60,	-4386
▁bay	-4387
▁may	-4388
ech	-4389
lat	-4390
iclo	-4391
▁(86	-4392
▁Luận	-4393
▁ruồi	-4394
▁đinh	-4395
▁huynh	-4396
▁serotonin	-4397
▁Escherichia	-4398
7;	-4399
IA	-4400
wn	-4401
aem	-4402
▁ME	-4403
▁180	-4404
▁NKQ	-4405
▁cóc	-4406
▁rỗng	-4407
fluenz	-4408
▁(48	-4409
▁phun	-4410
triaxone	-4411
▁thalassemia	-4412
ei	-4413
▁rỉ	-4414
▁Bảo	-4415
▁Hút	-4416
▁lam	-4417
▁ván	-4418
▁Cường	-4419
1;	-4420
lit	-4421
▁micro	-4422
nal	-4423
▁nổ	-4424
▁4,4	-4425
▁lân	-4426
onoid	-4427
▁chơi	-4428
▁2017.	-4429
▁LU	-4430
tide	-4431
ukin	-4432
▁đâm	-4433
damycin	-4434
LN	-4435
omyc	-4436
▁tây	-4437
ửi	-4438
CMO	-4439
▁chứ	-4440
▁đựng	-4441
▁Thuận	-4442
▁porphy	-4443
LE	-4444
Mục	-4445
▁110	-4446
▁Lựa	-4447
▁lắp	-4448
▁thọ	-4449
HE	-4450
ney	-4451
perg	-4452
▁(65	-4453
▁Bàn	-4454
▁Ngộ	-4455
ohydrate	-4456
▁logistic	-4457
NR	-4458
ộp	-4459
ald	-4460
erv	-4461
uct	-4462
trên	-4463
▁(82	-4464
▁(93	-4465
▁gầy	-4466
▁neo	-4467
▁Quận	-4468
▁VIII	-4469
TV	-4470
inib	-4471
▁(63	-4472
ensis	-4473
▁real	-4474
▁Thiên	-4475
ịa	-4476
6),	-4477
▁Cảnh	-4478
▁măng	-4479
oponin	-4480
▁methotrexate	-4481
▁[2	-4482
▁cờ	-4483
ater	-4484
occi	-4485
▁1-2	-4486
▁Bus	-4487
▁chó	-4488
▁sấp	-4489
▁Quan	-4490
▁Tiết	-4491
▁chêm	-4492
▁thoại	-4493
ophilia	-4494
▁TD	-4495
▁[1	-4496
▁5,7	-4497
▁PaO	-4498
▁Nhật	-4499
▁ngạt	-4500
radiol	-4501
▁0,000	-4502
acetamol	-4503
▁Ki	-4504
onde	-4505
▁(1,	-4506
▁mấu	-4507
▁Họng	-4508
sterone	-4509
để	-4510
5),	-4511
lan	-4512
Bệnh	-4513
▁6,5	-4514
▁cốt	-4515
▁ngựa	-4516
▁2018.	-4517
acillus	-4518
▁carbon	-4519
olic	-4520
▁Gồm	-4521
▁bội	-4522
▁trộn	-4523
▁At	-4524
okin	-4525
rist	-4526
▁4,9	-4527
▁alen	-4528
ington	-4529
oxicillin	-4530
arf	-4531
ber	-4532
oci	-4533
iness	-4534
▁chép	-4535
▁hiếu	-4536
ringer	-4537
▁tuyên	-4538
▁bạc	-4539
ement	-4540
▁1.1.	-4541
▁50%.	-4542
▁Phổi	-4543
▁HBeAg	-4544
▁Xquang	-4545
▁myelin	-4546
ple	-4547
▁No	-4548
eine	-4549
▁3.1	-4550
▁Máy	-4551
▁UTP	-4552
▁thú	-4553
▁nhấn	-4554
BMI	-4555
NCT	-4556
hội	-4557
gluc	-4558
▁CMV	-4559
▁sâm	-4560
epsin	-4561
▁delta	-4562
rot	-4563
▁ám	-4564
giảm	-4565
▁Gen	-4566
▁bối	-4567
▁rủi	-4568
▁Trầm	-4569
▁luồng	-4570
ocortic	-4571
oplasma	-4572
▁Streptococcus	-4573
iac	-4574
itol	-4575
▁130	-4576
▁AKI	-4577
▁QRS	-4578
▁mống	-4579
implex	-4580
▁vasopressin	-4581
ez	-4582
eat	-4583
ute	-4584
ypt	-4585
▁HO	-4586
eria	-4587
▁cằm	-4588
▁2015.	-4589
▁Tháng	-4590
ũm	-4591
▁Du	-4592
4%),	-4593
roph	-4594
▁101	-4595
▁198	-4596
▁Vạt	-4597
▁cụm	-4598
▁syn	-4599
▁chai	-4600
▁nicot	-4601
▁sonde	-4602
▁nm	-4603
▁khổ	-4604
▁đức	-4605
▁Cũng	-4606
▁chũm	-4607
▁Media	-4608
▁Springer	-4609
▁HF	-4610
ones	-4611
▁(91	-4612
▁4,8	-4613
▁gon	-4614
▁lấp	-4615
▁rìa	-4616
heimer	-4617
▁Business	-4618
▁AS	-4619
▁Cl	-4620
▁ĐH	-4621
▁ran	-4622
▁Đầu	-4623
▁mast	-4624
▁prol	-4625
▁rãnh	-4626
▁Chuyên	-4627
▁propofol	-4628
▁bupivacain	-4629
▁TA	-4630
▁VK	-4631
FABP	-4632
asis	-4633
acrol	-4634
▁0,5%	-4635
▁2001	-4636
uximab	-4637
FI	-4638
▁ồn	-4639
▁(73	-4640
▁7,1	-4641
▁núm	-4642
▁súc	-4643
▁khắp	-4644
/2015.	-4645
▁robot	-4646
▁histamine	-4647
▁prednisone	-4648
2),	-4649
omy	-4650
▁(68	-4651
▁NCT	-4652
▁bẩn	-4653
picillin	-4654
▁Bổ	-4655
▁PA	-4656
▁sẻ	-4657
9%),	-4658
erson	-4659
▁NKBV	-4660
▁Inter	-4661
▁Tránh	-4662
MB	-4663
iO	-4664
-14	-4665
eck	-4666
itt	-4667
amid	-4668
▁2/3	-4669
▁Dinh	-4670
▁Phim	-4671
▁SOFA	-4672
▁nhựa	-4673
▁sigma	-4674
zheimer	-4675
ogy	-4676
▁mẽ	-4677
calc	-4678
▁(96	-4679
▁lót	-4680
osine	-4681
▁nghén	-4682
DR	-4683
,03	-4684
nam	-4685
urf	-4686
▁mơ	-4687
▁(-)	-4688
▁140	-4689
▁5,1	-4690
▁GIÁ	-4691
▁đớn	-4692
otrop	-4693
▁Nutr	-4694
GN	-4695
▁ủ	-4696
,22	-4697
yme	-4698
▁125	-4699
▁ngà	-4700
strid	-4701
▁Pharm	-4702
▁amidan	-4703
▁hydroc	-4704
RH	-4705
UR	-4706
tỷ	-4707
III	-4708
▁TW	-4709
▁on	-4710
▁(75	-4711
▁5,8	-4712
▁Pre	-4713
▁HPLC	-4714
▁nitơ	-4715
▁ranh	-4716
▁Phình	-4717
axel	-4718
coli	-4719
▁600	-4720
▁HPQ	-4721
▁TCD	-4722
▁nắp	-4723
latin	-4724
▁ngâm	-4725
▁NIHSS	-4726
albumin	-4727
rav	-4728
atoc	-4729
test	-4730
aclit	-4731
▁Hoàng	-4732
ocorticoid	-4733
▁Alzheimer	-4734
▁carbohydrate	-4735
▁8.	-4736
▁Bar	-4737
▁Cơn	-4738
▁thỏ	-4739
icans	-4740
ulinum	-4741
▁(100%),	-4742
aclitaxel	-4743
racycline	-4744
hn	-4745
dex	-4746
▁EF	-4747
▁Ex	-4748
▁LH	-4749
▁VG	-4750
▁Vũ	-4751
▁(88	-4752
▁105	-4753
▁rif	-4754
▁Li	-4755
▁RT	-4756
3.1.	-4757
▁chút	-4758
▁clin	-4759
▁hỗng	-4760
arfarin	-4761
▁simplex	-4762
ley	-4763
-19,	-4764
7%),	-4765
ocyt	-4766
▁keo	-4767
▁nấu	-4768
▁manh	-4769
▁quên	-4770
▁ceton	-4771
▁tyros	-4772
LR	-4773
AST	-4774
enin	-4775
▁1/2	-4776
▁6,4	-4777
▁Lew	-4778
▁Tên	-4779
▁anh	-4780
▁Trần	-4781
▁2016.	-4782
▁Trình	-4783
▁calci	-4784
▁sarcoid	-4785
BM	-4786
▁PI	-4787
▁San	-4788
▁rồi	-4789
▁Will	-4790
/2018.	-4791
▁Xương	-4792
ED	-4793
TD	-4794
oxy	-4795
đan	-4796
▁SU	-4797
▁viv	-4798
ultip	-4799
▁HKTM	-4800
osporine	-4801
▁Cải	-4802
▁thô	-4803
erican	-4804
▁benzodiaz	-4805
▁flavonoid	-4806
▁Thalassemia	-4807
NO	-4808
TQ	-4809
ilis	-4810
▁20.	-4811
▁6,3	-4812
▁ICD	-4813
▁nhô	-4814
▁Biên	-4815
sterase	-4816
▁pemphig	-4817
30	-4818
ốp	-4819
ada	-4820
ườm	-4821
▁CF	-4822
▁LA	-4823
ioid	-4824
olol	-4825
▁(69	-4826
▁(87	-4827
▁5,3	-4828
▁6,7	-4829
▁Dung	-4830
▁lymphô	-4831
fluenzae	-4832
▁Nutrition	-4833
▁4)	-4834
ispl	-4835
tuổi	-4836
▁xám	-4837
▁Nhằm	-4838
▁Trật	-4839
ournal	-4840
▁Natri	-4841
FDG	-4842
▁85%	-4843
▁myc	-4844
▁2003	-4845
eff	-4846
đối	-4847
ated	-4848
▁5,4	-4849
▁bot	-4850
▁cài	-4851
▁lục	-4852
ichen	-4853
▁Vĩnh	-4854
▁long	-4855
▁quái	-4856
▁hoảng	-4857
▁hormon	-4858
epr	-4859
imus	-4860
▁Cro	-4861
▁FAC	-4862
▁cal	-4863
▁gửi	-4864
▁nêu	-4865
▁UTBMT	-4866
isplatin	-4867
VI	-4868
br	-4869
da	-4870
aki	-4871
opa	-4872
egal	-4873
▁(59	-4874
▁6,2	-4875
▁7,3	-4876
▁Gan	-4877
▁Hol	-4878
▁sal	-4879
▁York	-4880
▁chẩm	-4881
▁chối	-4882
actant	-4883
▁Journal	-4884
4),	-4885
▁Xu	-4886
▁2),	-4887
▁Cấy	-4888
▁FSH	-4889
▁urê	-4890
▁cand	-4891
▁aminotr	-4892
▁cyclophosph	-4893
75	-4894
gest	-4895
▁6,1	-4896
▁Lao	-4897
▁2004	-4898
▁Food	-4899
▁amph	-4900
▁vắng	-4901
▁Chính	-4902
▁Quang	-4903
▁acetyl	-4904
EO	-4905
ectin	-4906
atocrit	-4907
40	-4908
ck	-4909
▁li	-4910
appa	-4911
▁30,	-4912
▁cycl	-4913
▁găng	-4914
▁khiết	-4915
▁implant	-4916
▁lymphôm	-4917
25	-4918
KH	-4919
LV	-4920
hCG	-4921
ÁNH	-4922
▁109	-4923
▁12.	-4924
▁160	-4925
▁chửa	-4926
▁estradiol	-4927
BI	-4928
EC	-4929
NĐ	-4930
PM	-4931
ey	-4932
ẳn	-4933
iel	-4934
▁FI	-4935
▁Dây	-4936
tương	-4937
monella	-4938
▁colistin	-4939
GM	-4940
ipt	-4941
▁CEA	-4942
▁bic	-4943
▁bầu	-4944
▁pre	-4945
iforn	-4946
▁ECMO	-4947
▁điền	-4948
openem	-4949
▁phenyl	-4950
▁sư	-4951
ison	-4952
▁7,2	-4953
▁OMC	-4954
▁cắm	-4955
/2006	-4956
▁Chọn	-4957
▁Cộng	-4958
▁quán	-4959
▁0,01.	-4960
▁strept	-4961
,09	-4962
5%;	-4963
ocy	-4964
▁-1	-4965
▁Và	-4966
▁(92	-4967
▁Khớp	-4968
evoflu	-4969
omegal	-4970
eropenem	-4971
lactamase	-4972
▁metformin	-4973
học	-4974
▁Sốc	-4975
▁Trị	-4976
▁ủng	-4977
▁Viên	-4978
▁Thạch	-4979
▁folate	-4980
▁genotype	-4981
7%).	-4982
idel	-4983
▁sub	-4984
▁val	-4985
/2005	-4986
cumin	-4987
ional	-4988
▁Fran	-4989
▁phấn	-4990
gesterone	-4991
TNC	-4992
apt	-4993
▁LV	-4994
ACHE	-4995
loro	-4996
▁(85	-4997
▁5,2	-4998
▁SLE	-4999
▁alk	-5000
▁đếm	-5001
,0%),	-5002
▁Hùng	-5003
idazol	-5004
olipid	-5005
▁polymerase	-5006
Tr	-5007
▁q	-5008
gây	-5009
▁rs	-5010
▁5,6	-5011
▁90,	-5012
▁Vol	-5013
▁mồi	-5014
▁chốt	-5015
▁glut	-5016
▁hạng	-5017
▁adren	-5018
ifornia	-5019
▁acetaminophen	-5020
8),	-5021
▁Cr	-5022
▁Hô	-5023
bằng	-5024
▁(94	-5025
▁TMC	-5026
▁iod	-5027
▁30/0	-5028
▁50%,	-5029
▁khàn	-5030
leukin	-5031
▁California	-5032
,92	-5033
gar	-5034
ins	-5035
▁uỷ	-5036
▁vá	-5037
6%),	-5038
▁Vào	-5039
▁phú	-5040
▁chín	-5041
ikacin	-5042
AUC	-5043
era	-5044
▁Hỗ	-5045
▁”,	-5046
▁FiO	-5047
▁cur	-5048
▁san	-5049
▁2.1.	-5050
▁ARDS	-5051
▁Dise	-5052
yclovir	-5053
ultiplex	-5054
tam	-5055
▁SG	-5056
rose	-5057
▁ICU	-5058
▁Khí	-5059
▁mửa	-5060
▁toạ	-5061
▁Diện	-5062
▁khóc	-5063
▁APACHE	-5064
▁amiđan	-5065
endazole	-5066
▁amyloid	-5067
▁candida	-5068
▁GP	-5069
▁HH	-5070
▁Mã	-5071
KTBN	-5072
ical	-5073
▁hom	-5074
▁mèo	-5075
▁giày	-5076
▁ngáy	-5077
▁2013.	-5078
▁doxycycline	-5079
GI	-5080
▁TS	-5081
▁pp	-5082
▁MIC	-5083
▁Myc	-5084
▁côn	-5085
thuốc	-5086
▁comp	-5087
pergillus	-5088
▁warfarin	-5089
RD	-5090
7),	-5091
ack	-5092
bur	-5093
iop	-5094
▁SC	-5095
▁ai	-5096
▁té	-5097
▁(97	-5098
▁Res	-5099
▁(3).	-5100
▁kiêng	-5101
calcitonin	-5102
LM	-5103
QĐ	-5104
ps	-5105
0).	-5106
ham	-5107
ous	-5108
▁HL	-5109
▁Met	-5110
▁Sarc	-5111
urfactant	-5112
▁paracetamol	-5113
,5)	-5114
▁40,	-5115
▁5,9	-5116
▁Nước	-5117
▁đăng	-5118
UY	-5119
1%)	-5120
▁(95	-5121
▁7,4	-5122
▁lát	-5123
▁min	-5124
osome	-5125
▁Crohn	-5126
▁American	-5127
arithromycin	-5128
HB	-5129
▁ML	-5130
vent	-5131
▁(49	-5132
▁Lưu	-5133
▁hẳn	-5134
▁(199	-5135
▁Lact	-5136
ushing	-5137
ronidazole	-5138
ds	-5139
▁TƯ	-5140
▁Wh	-5141
▁Rất	-5142
▁TMT	-5143
▁tuyển	-5144
acillin	-5145
▁0,05);	-5146
TG	-5147
Tn	-5148
ca	-5149
ÁC	-5150
/11	-5151
ory	-5152
▁KI	-5153
▁Vỡ	-5154
▁6,8	-5155
▁BTN	-5156
▁Hen	-5157
▁dại	-5158
▁HCTH	-5159
oxazole	-5160
▁microm	-5161
▁proton	-5162
ituximab	-5163
▁fibrinogen	-5164
▁fluoroquinol	-5165
▁dexamethasone	-5166
mũi	-5167
đôi	-5168
▁8,	-5169
▁ốm	-5170
ient	-5171
▁xoa	-5172
▁chua	-5173
choline	-5174
▁methadone	-5175
▁Salmonella	-5176
omegalovirus	-5177
31	-5178
65	-5179
acch	-5180
▁(78	-5181
▁Cảm	-5182
▁bơi	-5183
▁Giáo	-5184
▁YHCT	-5185
▁hưng	-5186
atinib	-5187
▁Children	-5188
oy	-5189
▁MI	-5190
▁OT	-5191
▁6,6	-5192
▁THU	-5193
asaki	-5194
▁nhọn	-5195
co	-5196
oz	-5197
are	-5198
chỉ	-5199
▁HR	-5200
olid	-5201
▁8,7	-5202
▁TAP	-5203
▁Thọ	-5204
▁cuộn	-5205
▁trám	-5206
▁trâm	-5207
phenol	-5208
▁ethyl	-5209
ớc	-5210
ota	-5211
▁DC	-5212
▁DM	-5213
▁HM	-5214
▁SI	-5215
obup	-5216
▁11.	-5217
▁rop	-5218
0.000	-5219
▁Dạng	-5220
▁thụt	-5221
▁Herpes	-5222
▁clindamycin	-5223
▁DP	-5224
▁Gn	-5225
▁ep	-5226
Barr	-5227
yrox	-5228
▁Ass	-5229
▁Vùng	-5230
▁Được	-5231
▁2014.	-5232
▁Creatin	-5233
▁interferon	-5234
HP	-5235
▁Cai	-5236
▁Mal	-5237
▁lều	-5238
hexidine	-5239
-0	-5240
60	-5241
ặm	-5242
chủ	-5243
lop	-5244
▁XQ	-5245
omat	-5246
▁(67	-5247
▁Tốt	-5248
▁sùi	-5249
▁Khởi	-5250
thrombin	-5251
▁Cushing	-5252
▁influenzae	-5253
AA	-5254
LQ	-5255
SO	-5256
UN	-5257
0%.	-5258
CTC	-5259
azid	-5260
▁VTC	-5261
▁12,5	-5262
▁Loét	-5263
▁ngọt	-5264
▁quét	-5265
▁tiễn	-5266
▁aminoglyc	-5267
BH	-5268
SM	-5269
9),	-5270
▁3).	-5271
▁7,6	-5272
▁Mật	-5273
▁Mụn	-5274
▁dig	-5275
▁Cung	-5276
▁Giãn	-5277
▁cổng	-5278
yroxine	-5279
▁albicans	-5280
▁prolactin	-5281
45	-5282
,43	-5283
▁(74	-5284
▁7,7	-5285
irsch	-5286
▁0,9%	-5287
▁Hưng	-5288
▁khôn	-5289
▁bupivacaine	-5290
,12	-5291
-1,	-5292
-60	-5293
▁JJ	-5294
1%),	-5295
▁TTL	-5296
abine	-5297
▁bênh	-5298
/2017.	-5299
ugh	-5300
▁Cổ	-5301
▁nơ	-5302
9%).	-5303
etic	-5304
▁5,0	-5305
▁Duy	-5306
▁IFN	-5307
/2016.	-5308
▁Khánh	-5309
esepsin	-5310
OL	-5311
ke	-5312
▁DI	-5313
▁7,8	-5314
▁ACTH	-5315
▁sông	-5316
▁điếc	-5317
▁Insulin	-5318
oglobulin	-5319
WHO	-5320
▁GA	-5321
▁(84	-5322
▁Nai	-5323
▁Oxy	-5324
▁sấy	-5325
raves	-5326
▁Nang	-5327
▁Năng	-5328
▁trấn	-5329
▁lương	-5330
▁Glucose	-5331
▁sevoflu	-5332
▁lidocaine	-5333
CSF	-5334
▁Mổ	-5335
▁Nha	-5336
▁PHÁ	-5337
/2004	-5338
▁20%.	-5339
▁RLCX	-5340
▁ĐÁNH	-5341
▁Phong	-5342
▁vuông	-5343
HR	-5344
Nh	-5345
▁Bi	-5346
▁HC	-5347
▁HSV	-5348
▁Nấm	-5349
▁sáu	-5350
itrat	-5351
▁2012.	-5352
NN	-5353
TTT	-5354
aco	-5355
▁Is	-5356
1%).	-5357
▁Vận	-5358
▁đốm	-5359
▁Niệu	-5360
▁giấu	-5361
▁phết	-5362
ehydro	-5363
oietin	-5364
▁Virus	-5365
▁peptide	-5366
▁chlorhexidine	-5367
▁ciprofloxacin	-5368
CDC	-5369
THA	-5370
▁Bà	-5371
▁Cỡ	-5372
▁cỏ	-5373
upus	-5374
▁kia	-5375
isson	-5376
lorua	-5377
▁2002	-5378
▁3.1.	-5379
▁hydrox	-5380
24	-5381
▁ù	-5382
deo	-5383
▁ul	-5384
▁xà	-5385
8%).	-5386
▁kẹt	-5387
▁1,73	-5388
▁Thương	-5389
▁vaccin	-5390
▁aldosterone	-5391
KD	-5392
▁Cu	-5393
6%).	-5394
IDEO	-5395
icyl	-5396
NSAID	-5397
▁khát	-5398
oprost	-5399
▁2022.	-5400
▁VIDEO	-5401
▁thăng	-5402
▁Clostrid	-5403
HM	-5404
WI	-5405
,14	-5406
ael	-5407
nes	-5408
van	-5409
agon	-5410
amma	-5411
▁1).	-5412
▁CKD	-5413
▁STC	-5414
▁bốc	-5415
▁xốp	-5416
▁Kiên	-5417
▁Mang	-5418
▁đụng	-5419
▁2010.	-5420
▁Lupus	-5421
▁Graves	-5422
79	-5423
PS	-5424
▁Sơ	-5425
▁va	-5426
iper	-5427
▁Bức	-5428
▁Góc	-5429
▁rát	-5430
▁sẩy	-5431
▁đai	-5432
▁luồn	-5433
▁vương	-5434
off	-5435
out	-5436
und	-5437
ươn	-5438
▁Fr	-5439
▁La	-5440
▁NĐ	-5441
▁RA	-5442
▁bn	-5443
anin	-5444
▁lõi	-5445
▁mal	-5446
orona	-5447
▁MRSA	-5448
▁Thuỷ	-5449
▁Tiệp	-5450
ational	-5451
amethoxazole	-5452
▁phosphatase	-5453
▁Enterobacter	-5454
Ig	-5455
,42	-5456
ind	-5457
▁00	-5458
▁Gy	-5459
▁HI	-5460
▁INR	-5461
▁tôn	-5462
azine	-5463
▁Down	-5464
▁ninh	-5465
genase	-5466
▁phiền	-5467
otericin	-5468
▁morphine	-5469
28	-5470
của	-5471
▁80,	-5472
▁Bắt	-5473
▁Soi	-5474
▁Cuối	-5475
▁QUAN	-5476
▁Thăm	-5477
▁Lymph	-5478
▁Polyp	-5479
▁homocyst	-5480
34	-5481
,57	-5482
▁Fib	-5483
▁Vấn	-5484
▁rơi	-5485
/2014.	-5486
▁0,01)	-5487
▁Chuẩn	-5488
▁phiện	-5489
▁polyphenol	-5490
▁surfactant	-5491
DM	-5492
điểm	-5493
▁Bao	-5494
▁Dẫn	-5495
▁Min	-5496
allot	-5497
/2013.	-5498
▁botulinum	-5499
▁lipoprotein	-5500
98	-5501
OX	-5502
uv	-5503
esc	-5504
uss	-5505
▁CC	-5506
▁Ne	-5507
▁(89	-5508
▁50,	-5509
▁Ste	-5510
▁quị	-5511
▁95%,	-5512
▁Diễn	-5513
▁hương	-5514
▁statin	-5515
▁Chlamydia	-5516
▁BR	-5517
▁xì	-5518
arum	-5519
ovir	-5520
stit	-5521
▁70,	-5522
▁Tox	-5523
▁bis	-5524
▁lộn	-5525
iotic	-5526
▁khái	-5527
▁Albumin	-5528
▁0,0001).	-5529
▁micromol	-5530
▁chlamydia	-5531
▁UV	-5532
▁gu	-5533
▁(30	-5534
▁hoạ	-5535
▁Jeff	-5536
▁cười	-5537
▁mRNA	-5538
▁tàng	-5539
/2012.	-5540
ococci	-5541
ĐH	-5542
-17	-5543
6%)	-5544
▁Là	-5545
▁kề	-5546
omal	-5547
▁131	-5548
▁Tài	-5549
aline	-5550
▁SPECT	-5551
▁0.05).	-5552
▁curcumin	-5553
▁Hemoglobin	-5554
▁benzodiazepine	-5555
ăk	-5556
,13	-5557
,23	-5558
iat	-5559
ier	-5560
orr	-5561
uch	-5562
▁7,	-5563
▁Xo	-5564
▁800	-5565
▁Kap	-5566
▁bầm	-5567
▁kén	-5568
▁NAVA	-5569
▁kiệm	-5570
▁lươn	-5571
▁ngầm	-5572
▁subt	-5573
estern	-5574
▁Aspergillus	-5575
▁methicillin	-5576
GĐ	-5577
,82	-5578
▁cr	-5579
▁tơ	-5580
romb	-5581
ulan	-5582
▁6,9	-5583
▁nor	-5584
▁UTBM	-5585
▁chàm	-5586
acchar	-5587
▁Thoái	-5588
xe	-5589
cho	-5590
ina	-5591
▁or	-5592
aban	-5593
▁AFB	-5594
▁CSF	-5595
▁Tốc	-5596
▁dâm	-5597
nhiễm	-5598
osite	-5599
▁sarcoma	-5600
42	-5601
OA	-5602
YD	-5603
,58	-5604
aqu	-5605
cer	-5606
pid	-5607
▁4%	-5608
▁El	-5609
▁mỏ	-5610
▁tệ	-5611
▁104	-5612
▁Jam	-5613
▁MPH	-5614
▁Val	-5615
▁nàn	-5616
▁ong	-5617
▁Đắk	-5618
biotic	-5619
▁Chỉnh	-5620
otropin	-5621
▁Instit	-5622
ET	-5623
ice	-5624
lần	-5625
▁gù	-5626
▁sc	-5627
▁xê	-5628
0,6%	-5629
CLVT	-5630
▁tic	-5631
/2022	-5632
▁Hoại	-5633
▁hiệp	-5634
▁Trich	-5635
lavulan	-5636
▁Nghiệm	-5637
▁UTBMTBG	-5638
▁ampicillin	-5639
,04	-5640
,75	-5641
asc	-5642
▁EV	-5643
ocin	-5644
▁Inf	-5645
▁lau	-5646
▁mặn	-5647
anger	-5648
▁0,1%	-5649
▁Bỏng	-5650
▁nhịn	-5651
▁nòng	-5652
▁prost	-5653
▁Virgin	-5654
▁digoxin	-5655
▁ceftriaxone	-5656
36	-5657
▁SM	-5658
▁ấy	-5659
▁(79	-5660
▁EBV	-5661
▁lít	-5662
ampin	-5663
ology	-5664
▁khứu	-5665
80	-5666
ms	-5667
,52	-5668
acb	-5669
ean	-5670
vel	-5671
enic	-5672
etts	-5673
part	-5674
▁8,1	-5675
▁8,6	-5676
▁Giữ	-5677
▁VMD	-5678
▁bịt	-5679
▁rít	-5680
▁mộng	-5681
▁Laser	-5682
▁chườm	-5683
▁Virginia	-5684
DI	-5685
pt	-5686
KCT	-5687
▁IB	-5688
▁NO	-5689
▁VD	-5690
etro	-5691
utin	-5692
▁9,3	-5693
▁GLS	-5694
▁Lan	-5695
▁hiv	-5696
▁sụp	-5697
▁toa	-5698
▁tủa	-5699
▁vốn	-5700
▁Canxi	-5701
▁trans	-5702
ophilus	-5703
▁dopamine	-5704
.,	-5705
,73	-5706
-11	-5707
les	-5708
med	-5709
▁4:	-5710
▁9,6	-5711
▁Com	-5712
▁DVT	-5713
▁Lar	-5714
▁bồn	-5715
▁ket	-5716
▁PASI	-5717
▁inch	-5718
▁máng	-5719
▁nhuận	-5720
▁bicarb	-5721
▁dehydro	-5722
▁trimeth	-5723
▁presepsin	-5724
85	-5725
DSK	-5726
▁Gr	-5727
trol	-5728
▁3-4	-5729
▁Hành	-5730
ON	-5731
ah	-5732
rb	-5733
ẫm	-5734
-24	-5735
▁IP	-5736
▁PP	-5737
▁Cấu	-5738
▁Flu	-5739
▁Nor	-5740
▁hãi	-5741
▁10%.	-5742
▁fluc	-5743
▁acetate	-5744
▁porphyrin	-5745
33	-5746
SN	-5747
ũa	-5748
▁9.	-5749
berg	-5750
icol	-5751
▁Giả	-5752
▁Hạn	-5753
▁res	-5754
▁đặn	-5755
▁Thất	-5756
▁giết	-5757
▁lãnh	-5758
ingham	-5759
▁James	-5760
isolone	-5761
▁0,01),	-5762
ansferrin	-5763
▁CR	-5764
▁6,0	-5765
▁FDA	-5766
▁Lev	-5767
▁mil	-5768
▁ERCP	-5769
▁amip	-5770
▁prot	-5771
▁enter	-5772
▁quầng	-5773
▁Jefferson	-5774
▁Cephalosporin	-5775
Hb	-5776
SP	-5777
vO	-5778
vi	-5779
ria	-5780
▁Tự	-5781
agin	-5782
otax	-5783
▁PEX	-5784
▁hứa	-5785
▁lầm	-5786
▁tấy	-5787
ector	-5788
iform	-5789
▁PHÁP	-5790
▁Rung	-5791
▁khít	-5792
▁tảng	-5793
▁2011.	-5794
35	-5795
iam	-5796
ode	-5797
ĐMV	-5798
▁le	-5799
▁ớn	-5800
▁8,4	-5801
▁Lọc	-5802
▁Túi	-5803
▁Ước	-5804
▁Toàn	-5805
▁xước	-5806
▁Cholesterol	-5807
22	-5808
▁0%	-5809
▁Ab	-5810
▁OS	-5811
▁TO	-5812
▁la	-5813
illa	-5814
rome	-5815
▁Pap	-5816
▁ghế	-5817
▁gạo	-5818
▁rad	-5819
▁úng	-5820
▁Địa	-5821
ocaine	-5822
▁video	-5823
▁(100%)	-5824
▁doppler	-5825
▁rubella	-5826
▁amoxicillin	-5827
0%,	-5828
▁8%	-5829
▁ADA	-5830
▁Mic	-5831
▁Nhà	-5832
odopa	-5833
▁0,25	-5834
▁Vòng	-5835
▁hãng	-5836
agland	-5837
▁Vater	-5838
▁Disease	-5839
ropoietin	-5840
khi	-5841
▁ab	-5842
▁ms	-5843
▁Mel	-5844
▁The	-5845
▁80%.	-5846
▁Haem	-5847
▁Phỏng	-5848
▁khoan	-5849
icketts	-5850
be	-5851
,32	-5852
-18	-5853
năm	-5854
▁BC	-5855
▁Or	-5856
▁bê	-5857
▁fr	-5858
,...	-5859
giai	-5860
▁Cyt	-5861
▁thù	-5862
▁Đơn	-5863
▁Lồng	-5864
▁Trưng	-5865
▁khoeo	-5866
oronavirus	-5867
AG	-5868
yll	-5869
▁ax	-5870
▁en	-5871
CPAP	-5872
điều	-5873
▁(98	-5874
▁8,5	-5875
▁8,9	-5876
▁Hoàn	-5877
▁PEEP	-5878
/2009.	-5879
▁UTPKTBN	-5880
obacterium	-5881
▁phospholipid	-5882
by	-5883
nd	-5884
,38	-5885
,83	-5886
ryl	-5887
▁Mc	-5888
▁đô	-5889
bảng	-5890
▁Lợi	-5891
▁cmH	-5892
▁ngư	-5893
▁80%,	-5894
▁niềm	-5895
▁quặn	-5896
aconazole	-5897
IL	-5898
úa	-5899
mun	-5900
▁6%	-5901
▁DO	-5902
▁126	-5903
▁ber	-5904
,0%).	-5905
▁Michael	-5906
▁levobup	-5907
▁Vancomycin	-5908
▁erythromycin	-5909
tỉ	-5910
ĐK	-5911
1),	-5912
IPS	-5913
▁Bu	-5914
▁vs	-5915
,33%	-5916
atum	-5917
▁135	-5918
▁19.	-5919
▁Béo	-5920
▁Còn	-5921
▁TLT	-5922
▁ham	-5923
▁mẹo	-5924
anine	-5925
▁Nâng	-5926
▁TTTC	-5927
▁tháp	-5928
astatin	-5929
▁marker	-5930
▁lymphoma	-5931
▁Carbapenem	-5932
▁paclitaxel	-5933
KA	-5934
▁AV	-5935
▁KT	-5936
ence	-5937
▁112	-5938
▁Cle	-5939
▁Per	-5940
▁all	-5941
▁ĐRT	-5942
▁Băng	-5943
▁Camp	-5944
▁Tinh	-5945
▁nhớt	-5946
▁hematocrit	-5947
,45	-5948
ver	-5949
▁Cố	-5950
▁Rò	-5951
▁né	-5952
illo	-5953
▁107	-5954
▁9,5	-5955
▁AML	-5956
▁Cyst	-5957
▁FACP	-5958
▁Phối	-5959
▁anion	-5960
etinoin	-5961
▁multiplex	-5962
▁glucocorticoid	-5963
63	-5964
AK	-5965
iro	-5966
▁HE	-5967
ased	-5968
itis	-5969
▁12,	-5970
▁HHK	-5971
▁Her	-5972
▁Rửa	-5973
▁bắn	-5974
▁cặn	-5975
đường	-5976
▁0,12	-5977
▁nmol	-5978
62	-5979
,17	-5980
,63	-5981
-36	-5982
▁Et	-5983
▁IA	-5984
▁PS	-5985
▁ĐT	-5986
aric	-5987
ipin	-5988
thay	-5989
▁16.	-5990
▁Ang	-5991
▁Chủ	-5992
▁phi	-5993
/2003	-5994
cking	-5995
lorid	-5996
odium	-5997
▁calo	-5998
▁thèm	-5999
ramine	-6000
▁colla	-6001
▁nhiễu	-6002
▁Fallot	-6003
▁0,001);	-6004
▁docking	-6005
▁methanol	-6006
▁prothrombin	-6007
▁progesterone	-6008
IU	-6009
umb	-6010
▁Ed	-6011
epin	-6012
leic	-6013
▁1),	-6014
▁Dan	-6015
▁cel	-6016
▁gau	-6017
▁hyp	-6018
▁nón	-6019
▁xen	-6020
alcip	-6021
▁1500	-6022
▁GnRH	-6023
▁kcal	-6024
▁thầm	-6025
▁Ngừng	-6026
▁Glisson	-6027
▁meropenem	-6028
47	-6029
HH	-6030
ky	-6031
,0)	-6032
att	-6033
yro	-6034
▁RI	-6035
▁xỉ	-6036
▁45%	-6037
▁SNK	-6038
▁Tuỳ	-6039
amate	-6040
dimer	-6041
▁Lyme	-6042
▁khan	-6043
▁thôi	-6044
▁HKTMS	-6045
▁cuồng	-6046
-20	-6047
ask	-6048
ust	-6049
▁7%	-6050
▁Az	-6051
▁cs	-6052
liều	-6053
▁CMT	-6054
▁Ery	-6055
▁Lào	-6056
▁Mor	-6057
▁Tam	-6058
nghĩa	-6059
▁20%,	-6060
▁90%.	-6061
▁Beta	-6062
▁khôi	-6063
▁đuối	-6064
acizumab	-6065
adotropin	-6066
,62	-6067
SDD	-6068
atz	-6069
gan	-6070
▁Mo	-6071
▁PĐ	-6072
▁el	-6073
▁ol	-6074
0,4%	-6075
benz	-6076
mmHg	-6077
▁13.	-6078
▁2-3	-6079
▁And	-6080
▁For	-6081
▁còm	-6082
predn	-6083
▁Xuân	-6084
aponin	-6085
▁nguyễn	-6086
▁zoster	-6087
▁tyrosine	-6088
▁metronidazole	-6089
NI	-6090
,72	-6091
-23	-6092
dấu	-6093
oto	-6094
▁2;	-6095
▁SF	-6096
iasis	-6097
ulose	-6098
▁ATTP	-6099
▁cell	-6100
ishman	-6101
pylori	-6102
▁33,3%	-6103
0;	-6104
KS	-6105
,07	-6106
enh	-6107
urg	-6108
ilin	-6109
▁175	-6110
▁Cận	-6111
▁đũa	-6112
quine	-6113
score	-6114
▁Tuân	-6115
▁chuyện	-6116
alciparum	-6117
▁azithromycin	-6118
ĐP	-6119
,24	-6120
,96	-6121
-6,	-6122
ERD	-6123
aria	-6124
▁12%	-6125
▁ABO	-6126
▁Lắk	-6127
▁Men	-6128
▁Reg	-6129
▁SCI	-6130
▁UTV	-6131
▁ven	-6132
eptin	-6133
ermat	-6134
▁cống	-6135
/2011.	-6136
athiop	-6137
▁Thuật	-6138
▁biếng	-6139
aminase	-6140
▁Ngưỡng	-6141
▁choáng	-6142
▁transferrin	-6143
▁clarithromycin	-6144
,56	-6145
,86	-6146
▁BS	-6147
▁VT	-6148
▁gỗ	-6149
ffic	-6150
inez	-6151
▁124	-6152
▁Vin	-6153
▁cất	-6154
▁Well	-6155
▁cháy	-6156
▁zona	-6157
▁progest	-6158
evacizumab	-6159
▁tetracycline	-6160
71	-6161
kg	-6162
na	-6163
ằn	-6164
,28	-6165
,34	-6166
▁CV	-6167
▁cọ	-6168
/100	-6169
dưới	-6170
epam	-6171
▁(4)	-6172
▁(40	-6173
▁1/4	-6174
▁113	-6175
▁DSA	-6176
▁Rob	-6177
▁gáy	-6178
▁Acet	-6179
▁Hạch	-6180
▁rừng	-6181
▁Thủng	-6182
▁dihydro	-6183
▁Bilirubin	-6184
▁composite	-6185
▁cyclosporine	-6186
73	-6187
▁EP	-6188
▁Sw	-6189
▁de	-6190
azin	-6191
thal	-6192
▁35%	-6193
▁ATP	-6194
▁Khu	-6195
▁SUV	-6196
▁say	-6197
enoid	-6198
▁lang	-6199
▁chiếc	-6200
▁prote	-6201
vention	-6202
64	-6203
▁5:	-6204
▁TĐ	-6205
COPD	-6206
▁Bến	-6207
▁Har	-6208
▁Mil	-6209
▁hái	-6210
▁PaCO	-6211
▁VMDƯ	-6212
▁ĐRTKCT	-6213
isoprost	-6214
▁Bacillus	-6215
isoprostol	-6216
▁pemphigus	-6217
▁sevoflurane	-6218
RAS	-6219
igh	-6220
pyr	-6221
▁Bo	-6222
▁RN	-6223
▁Se	-6224
▁lạ	-6225
enia	-6226
▁(50	-6227
▁Chu	-6228
▁Hep	-6229
▁Teo	-6230
▁cạn	-6231
▁ulf	-6232
▁đạc	-6233
kháng	-6234
người	-6235
▁1,25	-6236
▁18,5	-6237
▁Khẩu	-6238
▁Phil	-6239
▁VPBV	-6240
ofovir	-6241
▁David	-6242
▁cưỡng	-6243
▁duyệt	-6244
▁gauge	-6245
▁William	-6246
▁procalcitonin	-6247
▁ulfamethoxazole	-6248
OM	-6249
QD	-6250
ce	-6251
▁Hở	-6252
▁hà	-6253
oper	-6254
opri	-6255
osin	-6256
▁Bạn	-6257
▁đáo	-6258
illip	-6259
prung	-6260
▁60%.	-6261
▁ngôi	-6262
▁trọn	-6263
osteron	-6264
▁diffic	-6265
▁lichen	-6266
▁cytokin	-6267
▁imipenem	-6268
athioprine	-6269
38	-6270
ehr	-6271
▁AI	-6272
▁LR	-6273
▁Pl	-6274
-100	-6275
▁BTM	-6276
▁Bup	-6277
▁Lai	-6278
▁Thở	-6279
▁phô	-6280
▁Đứt	-6281
▁đạp	-6282
▁31/0	-6283
▁CPAP	-6284
▁THCS	-6285
▁nạng	-6286
irschs	-6287
▁Eryth	-6288
▁gentam	-6289
▁Epstein	-6290
▁troponin	-6291
irschsprung	-6292
84	-6293
,36	-6294
,84	-6295
▁BL	-6296
▁ne	-6297
▁Ưu	-6298
,0%)	-6299
7201	-6300
ivir	-6301
ried	-6302
▁Imm	-6303
▁Mon	-6304
▁sảy	-6305
▁tồi	-6306
▁Thân	-6307
omatis	-6308
▁2009.	-6309
▁thũng	-6310
▁trach	-6311
▁difficile	-6312
▁Haemophilus	-6313
uz	-6314
-49	-6315
▁vũ	-6316
Bảng	-6317
▁111	-6318
▁7,9	-6319
▁Lip	-6320
,7%);	-6321
idney	-6322
ipine	-6323
▁khép	-6324
▁mươi	-6325
▁phốt	-6326
▁gương	-6327
▁phaco	-6328
▁renin	-6329
obactam	-6330
,19	-6331
ies	-6332
oley	-6333
▁0%.	-6334
▁121	-6335
▁Bur	-6336
▁Phải	-6337
▁XHTH	-6338
veland	-6339
▁folic	-6340
▁levof	-6341
▁tròng	-6342
▁627201	-6343
▁levodopa	-6344
▁Institute	-6345
éc	-6346
,05	-6347
,29	-6348
,88	-6349
gọi	-6350
▁om	-6351
acil	-6352
onic	-6353
▁sặc	-6354
ogrel	-6355
▁3.2.	-6356
▁BTNT	-6357
▁Pháp	-6358
▁Scale	-6359
ovidone	-6360
▁Wilson	-6361
▁collagen	-6362
roglobulin	-6363
▁Cleveland	-6364
▁interleukin	-6365
▁amphotericin	-6366
RR	-6367
ín	-6368
,3)	-6369
ONG	-6370
▁GR	-6371
▁Vô	-6372
▁gò	-6373
▁vẽ	-6374
,67%	-6375
chin	-6376
uyễn	-6377
▁14.	-6378
▁9,9	-6379
▁GBS	-6380
▁cốc	-6381
▁gom	-6382
▁gậy	-6383
▁rib	-6384
tazid	-6385
▁ngặt	-6386
▁tặng	-6387
▁100%;	-6388
▁Carcin	-6389
▁nicotin	-6390
▁gentamicin	-6391
fa	-6392
,06	-6393
còn	-6394
rối	-6395
ĐMP	-6396
▁+,	-6397
▁lò	-6398
▁oC	-6399
▁Đó	-6400
erol	-6401
▁117	-6402
▁Hct	-6403
▁MLT	-6404
▁OCT	-6405
▁PHƯ	-6406
▁PPV	-6407
▁Nông	-6408
▁clip	-6409
▁quấn	-6410
▁nucleic	-6411
▁subtilis	-6412
▁prostagland	-6413
▁cytomegalovirus	-6414
29	-6415
HL	-6416
,18	-6417
emc	-6418
▁es	-6419
uman	-6420
▁5%.	-6421
▁BCH	-6422
▁Nit	-6423
▁RSV	-6424
▁ghẻ	-6425
trose	-6426
▁Xanh	-6427
▁Immun	-6428
▁lactic	-6429
pidogrel	-6430
▁hemophilia	-6431
▁trachomatis	-6432
▁gonadotropin	-6433
▁levofloxacin	-6434
21	-6435
▁AN	-6436
▁rẻ	-6437
anag	-6438
elph	-6439
oxif	-6440
▁ADN	-6441
▁(0,5	-6442
▁Buồn	-6443
▁Chủng	-6444
▁Lewis	-6445
▁Western	-6446
▁cystatin	-6447
Thalassemia	-6448
▁aminoglycosid	-6449
FT	-6450
,08	-6451
,85	-6452
]),	-6453
low	-6454
ngo	-6455
▁GM	-6456
RADS	-6457
▁0%,	-6458
▁145	-6459
,3%);	-6460
inger	-6461
▁10,5	-6462
▁Real	-6463
▁chim	-6464
▁grad	-6465
▁vivo	-6466
/2008.	-6467
▁66,7%	-6468
▁trũng	-6469
▁carcinoid	-6470
Ab	-6471
Kh	-6472
uk	-6473
MMN	-6474
gồm	-6475
ika	-6476
▁5)	-6477
▁LC	-6478
elen	-6479
oxic	-6480
▁197	-6481
▁3),	-6482
▁dis	-6483
▁dầm	-6484
▁Scan	-6485
▁thoa	-6486
▁tuýp	-6487
/2010.	-6488
▁GRACE	-6489
▁quảng	-6490
inezolid	-6491
▁phosphor	-6492
RF	-6493
RY	-6494
,47	-6495
,64	-6496
,78	-6497
,87	-6498
▁Fe	-6499
▁Vệ	-6500
odar	-6501
▁4).	-6502
▁BNP	-6503
▁Tes	-6504
▁Thư	-6505
▁gal	-6506
▁rec	-6507
▁NaCl	-6508
▁Roch	-6509
▁Tháp	-6510
▁trần	-6511
phenyl	-6512
itabine	-6513
ization	-6514
▁Cancer	-6515
idelines	-6516
▁amikacin	-6517
▁bicarbonate	-6518
ola	-6519
rat	-6520
▁0)	-6521
▁Ma	-6522
treo	-6523
▁320	-6524
▁Dex	-6525
▁JAK	-6526
▁Mod	-6527
▁Nôn	-6528
▁PCI	-6529
▁des	-6530
▁dát	-6531
▁Đưa	-6532
▁ADHD	-6533
▁giận	-6534
▁thảm	-6535
▁vang	-6536
▁Tuyến	-6537
▁Thuyên	-6538
ishmania	-6539
▁saponin	-6540
,02	-6541
,2)	-6542
,27	-6543
,76	-6544
IGO	-6545
aud	-6546
con	-6547
ehyd	-6548
ides	-6549
▁123	-6550
▁ARB	-6551
▁Cục	-6552
▁Sóc	-6553
▁búi	-6554
▁bấm	-6555
▁nét	-6556
eckel	-6557
▁Kali	-6558
▁TMTQ	-6559
▁0.001	-6560
▁radio	-6561
▁sarcom	-6562
▁rifampin	-6563
▁Penicillin	-6564
▁nucleotide	-6565
▁ropivacain	-6566
▁erythropoietin	-6567
cơ	-6568
,4)	-6569
eps	-6570
rus	-6571
▁Be	-6572
▁iv	-6573
▁rã	-6574
hình	-6575
▁cer	-6576
▁chay	-6577
▁Triglycer	-6578
▁carcinoma	-6579
▁ỉ	-6580
,21	-6581
,35	-6582
,55	-6583
acy	-6584
eor	-6585
▁TL	-6586
▁rh	-6587
▁vã	-6588
avir	-6589
lant	-6590
ogra	-6591
▁118	-6592
▁ADR	-6593
▁Tak	-6594
▁Tet	-6595
▁Tre	-6596
ypsin	-6597
▁DPPH	-6598
▁ngậm	-6599
▁aspart	-6600
eprazole	-6601
ysacchar	-6602
▁2020-202	-6603
26	-6604
ci	-6605
so	-6606
,95	-6607
ele	-6608
▁157	-6609
▁3.3	-6610
▁ICP	-6611
▁Nốt	-6612
▁PAP	-6613
▁THƯ	-6614
▁dịu	-6615
ardia	-6616
▁SSRI	-6617
▁Tỉnh	-6618
▁form	-6619
▁phàn	-6620
profen	-6621
▁Phước	-6622
awasaki	-6623
▁Holter	-6624
▁Regional	-6625
44	-6626
66	-6627
,48	-6628
0),	-6629
STL	-6630
ulb	-6631
▁(≤	-6632
▁CĐ	-6633
▁Cử	-6634
▁NN	-6635
▁tỳ	-6636
erap	-6637
▁(60	-6638
▁Ach	-6639
▁Cây	-6640
▁Hàn	-6641
▁TMP	-6642
▁Đới	-6643
adren	-6644
latch	-6645
▁Màng	-6646
▁Sống	-6647
▁TIMI	-6648
▁globin	-6649
lasmosis	-6650
▁Fentanyl	-6651
▁Troponin	-6652
▁lidocain	-6653
▁rituximab	-6654
thalassemia	-6655
XA	-6656
bu	-6657
mi	-6658
,89	-6659
orb	-6660
▁CE	-6661
▁lê	-6662
ngày	-6663
phyl	-6664
rion	-6665
▁1-3	-6666
▁127	-6667
▁DNT	-6668
▁Ger	-6669
▁May	-6670
▁YAG	-6671
▁neu	-6672
▁sần	-6673
▁web	-6674
burgh	-6675
▁Dưới	-6676
▁Horm	-6677
▁ScvO	-6678
iaceae	-6679
ubicin	-6680
ortisone	-6681
▁sulfate	-6682
▁clavulan	-6683
▁dehydrogenase	-6684
,16	-6685
,44	-6686
,7)	-6687
▁Cà	-6688
▁PC	-6689
▁Uỷ	-6690
▁dẻ	-6691
▁sứ	-6692
idis	-6693
izer	-6694
phân	-6695
▁128	-6696
▁leo	-6697
▁ppm	-6698
▁tóm	-6699
▁90%,	-6700
▁Type	-6701
▁West	-6702
▁nhát	-6703
▁nhợt	-6704
▁ĐHYD	-6705
▁miRNA	-6706
otaxime	-6707
▁Stress	-6708
otavirus	-6709
▁Imipenem	-6710
▁bisphosph	-6711
96	-6712
Is	-6713
MM	-6714
CCP	-6715
alv	-6716
▁+)	-6717
▁TE	-6718
▁dB	-6719
loại	-6720
▁BIS	-6721
▁PGS	-6722
▁STM	-6723
▁cag	-6724
fizer	-6725
▁40%.	-6726
▁Dent	-6727
▁Nghe	-6728
▁nhờn	-6729
ginine	-6730
ornell	-6731
▁Nhuộm	-6732
▁Thỉnh	-6733
▁thiamin	-6734
▁acetylcholine	-6735
74	-6736
TR	-6737
-2,	-6738
béo	-6739
trừ	-6740
▁GC	-6741
▁IM	-6742
▁UI	-6743
edes	-6744
▁Kéo	-6745
▁NMN	-6746
▁tỏi	-6747
▁vụn	-6748
,1%);	-6749
ocyte	-6750
▁(4).	-6751
▁4.1.	-6752
▁Axit	-6753
asedow	-6754
▁Porphy	-6755
▁Prevention	-6756
sử	-6757
,53	-6758
,65	-6759
amic	-6760
erin	-6761
▁HCO	-6762
▁Tic	-6763
▁cạo	-6764
▁gộp	-6765
▁lúa	-6766
▁nỗi	-6767
udine	-6768
▁1.2.	-6769
▁10,3	-6770
▁2500	-6771
▁Anti	-6772
▁Miễn	-6773
▁lăng	-6774
▁đắng	-6775
▁Johnson	-6776
MRI	-6777
aec	-6778
▁BD	-6779
▁IR	-6780
▁VL	-6781
▁dũ	-6782
opol	-6783
▁ADC	-6784
▁Tem	-6785
▁Tối	-6786
▁mực	-6787
▁đắp	-6788
▁HATT	-6789
▁Phúc	-6790
azepam	-6791
itrate	-6792
▁khoản	-6793
oplatin	-6794
iperacillin	-6795
89	-6796
VN	-6797
ổn	-6798
,94	-6799
ety	-6800
mất	-6801
roc	-6802
đau	-6803
ượn	-6804
▁Cụ	-6805
▁MC	-6806
kins	-6807
lass	-6808
▁Cox	-6809
▁DIC	-6810
▁Den	-6811
▁KAP	-6812
▁MTX	-6813
▁Phổ	-6814
▁TTP	-6815
▁tub	-6816
,5%);	-6817
/2002	-6818
apent	-6819
isher	-6820
▁Acid	-6821
▁Chèn	-6822
▁Hiểu	-6823
▁Viet	-6824
▁hạnh	-6825
ection	-6826
▁Associ	-6827
▁nhuyễn	-6828
▁100.000	-6829
▁glucagon	-6830
,39	-6831
,93	-6832
aul	-6833
nit	-6834
▁LM	-6835
amil	-6836
ases	-6837
ific	-6838
▁AVM	-6839
▁Syn	-6840
▁hCG	-6841
▁thợ	-6842
▁tội	-6843
▁Đào	-6844
isomy	-6845
ystem	-6846
▁70%,	-6847
▁chồn	-6848
itinib	-6849
▁Chuột	-6850
▁Larry	-6851
▁Lipid	-6852
lycerin	-6853
azobactam	-6854
otretinoin	-6855
▁Hirschsprung	-6856
▁Methotrexate	-6857
,74	-6858
Hội	-6859
ema	-6860
mat	-6861
mel	-6862
mặt	-6863
▁(±	-6864
▁FA	-6865
▁IX	-6866
▁ĐK	-6867
/199	-6868
ASIK	-6869
Hình	-6870
▁240	-6871
▁apo	-6872
▁gọn	-6873
▁lún	-6874
/2001	-6875
eptor	-6876
▁Nghị	-6877
▁nhăn	-6878
▁vãng	-6879
illoma	-6880
▁giạng	-6881
▁salicyl	-6882
latchford	-6883
49	-6884
BR	-6885
Gi	-6886
NQ	-6887
,31	-6888
,46	-6889
,71	-6890
,79	-6891
ara	-6892
cis	-6893
ife	-6894
▁Củ	-6895
▁Eb	-6896
▁gõ	-6897
etri	-6898
▁3-5	-6899
▁Bay	-6900
▁Ran	-6901
▁Tầm	-6902
▁kẹo	-6903
istry	-6904
romat	-6905
▁11,5	-6906
▁CBCT	-6907
▁Char	-6908
▁Prop	-6909
▁Wash	-6910
illain	-6911
▁Ngưng	-6912
▁immun	-6913
iclovir	-6914
ulbactam	-6915
loroquine	-6916
▁Kawasaki	-6917
▁helicobacter	-6918
IN	-6919
IR	-6920
SR	-6921
XĐ	-6922
ki	-6923
,1)	-6924
,8)	-6925
iqu	-6926
itz	-6927
▁RV	-6928
▁Sn	-6929
gren	-6930
stra	-6931
trực	-6932
▁ACR	-6933
▁nai	-6934
▁ráy	-6935
▁xát	-6936
SATTP	-6937
▁(+),	-6938
▁Chia	-6939
▁Flor	-6940
▁HOMA	-6941
▁buốt	-6942
▁hứng	-6943
▁khoái	-6944
▁nicotine	-6945
DP	-6946
GC	-6947
ld	-6948
là	-6949
oC	-6950
oL	-6951
,15	-6952
,9)	-6953
-30	-6954
Pro	-6955
TnT	-6956
iff	-6957
ois	-6958
ors	-6959
▁AT	-6960
▁Ta	-6961
▁ib	-6962
▁Ức	-6963
ance	-6964
beta	-6965
itts	-6966
scan	-6967
thực	-6968
▁196	-6969
▁GFR	-6970
▁PCA	-6971
▁hcm	-6972
▁mâm	-6973
▁vùi	-6974
▁đốc	-6975
▁anth	-6976
▁cate	-6977
▁lặng	-6978
adelph	-6979
▁BCHTT	-6980
▁Barth	-6981
▁Trọng	-6982
▁Daniel	-6983
▁Killip	-6984
▁oxidase	-6985
▁Washington	-6986
90	-6987
ịn	-6988
ỨC	-6989
,37	-6990
EMI	-6991
▁Ag	-6992
▁BA	-6993
▁GO	-6994
▁He	-6995
esby	-6996
etal	-6997
▁119	-6998
▁65%	-6999
▁Dia	-7000
▁NPV	-7001
▁her	-7002
oides	-7003
▁APRI	-7004
▁Rách	-7005
▁THPT	-7006
▁Thẩm	-7007
▁Uống	-7008
▁oxal	-7009
ismuth	-7010
lasmin	-7011
▁Alpha	-7012
▁Apgar	-7013
▁Gamma	-7014
▁celiac	-7015
adelphia	-7016
ramingham	-7017
▁Creatinin	-7018
▁falciparum	-7019
▁trimethopri	-7020
61	-7021
78	-7022
OD	-7023
XN	-7024
sự	-7025
ĐB	-7026
ulo	-7027
ưỡi	-7028
▁TU	-7029
▁VM	-7030
▁96%	-7031
▁hao	-7032
▁ind	-7033
▁95%.	-7034
▁Dụng	-7035
▁Stev	-7036
▁2018,	-7037
▁Quyết	-7038
▁Temple	-7039
▁tuberc	-7040
orubicin	-7041
▁01/2019	-7042
▁protease	-7043
▁prostaglandin	-7044
48	-7045
56	-7046
RE	-7047
sh	-7048
BRA	-7049
TCC	-7050
suy	-7051
▁DT	-7052
▁FT	-7053
▁[3	-7054
....	-7055
arox	-7056
thời	-7057
▁22.	-7058
▁Bri	-7059
-2011	-7060
▁BRCA	-7061
▁Cùng	-7062
▁HSTC	-7063
▁caff	-7064
▁cagA	-7065
▁giấm	-7066
▁Index	-7067
▁TRONG	-7068
▁ĐTĐTK	-7069
formans	-7070
imazole	-7071
ranolol	-7072
▁Pfizer	-7073
▁Guillain	-7074
▁probiotic	-7075
▁neoformans	-7076
▁coronavirus	-7077
▁azathioprine	-7078
OTO	-7079
por	-7080
ĐTN	-7081
▁LD	-7082
▁LS	-7083
ENCE	-7084
bert	-7085
odex	-7086
▁1.5	-7087
▁Dày	-7088
▁UBT	-7089
,6%);	-7090
▁108,	-7091
▁70%.	-7092
▁STAT	-7093
▁Tích	-7094
▁faec	-7095
▁lượn	-7096
▁oxit	-7097
▁NCPAP	-7098
▁PHOTO	-7099
▁trúng	-7100
osidase	-7101
▁Atlant	-7102
▁lactat	-7103
▁Rubella	-7104
ittsburgh	-7105
▁povidone	-7106
Wh	-7107
▁ợ	-7108
des	-7109
▁De	-7110
▁HD	-7111
▁mề	-7112
▁ĐQ	-7113
carb	-7114
▁122	-7115
▁136	-7116
▁98%	-7117
▁bây	-7118
▁cod	-7119
▁cut	-7120
▁dẻo	-7121
▁đãi	-7122
BRARY	-7123
▁11,2	-7124
▁Phơi	-7125
▁Rock	-7126
▁khảm	-7127
amphen	-7128
▁0,05,	-7129
▁2021,	-7130
▁Kappa	-7131
▁retro	-7132
entanil	-7133
▁acetat	-7134
▁sulfon	-7135
▁(100%).	-7136
▁LIBRARY	-7137
▁SCIENCE	-7138
▁cisplatin	-7139
▁Philadelphia	-7140
03	-7141
41	-7142
ĐX	-7143
0%;	-7144
los	-7145
nhỏ	-7146
▁Eu	-7147
etil	-7148
lein	-7149
orte	-7150
phút	-7151
▁9,4	-7152
▁Dox	-7153
▁Thứ	-7154
▁cơm	-7155
▁véc	-7156
ipple	-7157
▁11,1	-7158
▁DCCT	-7159
▁GERD	-7160
▁tróc	-7161
urinol	-7162
▁Crypt	-7163
▁Trang	-7164
othyroxine	-7165
",	-7166
92	-7167
95	-7168
ly	-7169
ăc	-7170
,54	-7171
,68	-7172
urv	-7173
▁br	-7174
▁tô	-7175
,0%;	-7176
0,8%	-7177
ette	-7178
hành	-7179
mium	-7180
osit	-7181
▁132	-7182
▁ABI	-7183
▁CTX	-7184
▁Cập	-7185
▁Pôn	-7186
▁VGB	-7187
▁kit	-7188
▁pap	-7189
▁đực	-7190
-2012	-7191
alpha	-7192
▁-0,3	-7193
▁Shig	-7194
▁hung	-7195
▁trợt	-7196
▁2020,	-7197
▁thiệt	-7198
odarone	-7199
▁Kimmel	-7200
▁12/2020.	-7201
amphenicol	-7202
▁progestin	-7203
EG	-7204
PC	-7205
íp	-7206
,69	-7207
HCV	-7208
▁6)	-7209
▁Bù	-7210
▁Pb	-7211
exas	-7212
pies	-7213
reen	-7214
▁1:1	-7215
▁FDG	-7216
▁IGF	-7217
▁Phố	-7218
▁mIU	-7219
▁mài	-7220
▁múa	-7221
▁oxi	-7222
▁són	-7223
▁2.3.	-7224
▁BPTT	-7225
▁Nhàn	-7226
▁Tĩnh	-7227
▁gast	-7228
▁16,7%	-7229
▁TBMMN	-7230
▁Trứng	-7231
▁tường	-7232
▁Robert	-7233
▁copies	-7234
fentanil	-7235
omycosis	-7236
▁Aspirin	-7237
▁Association	-7238
▁fluconazole	-7239
43	-7240
BD	-7241
-13	-7242
/1,	-7243
amm	-7244
vec	-7245
▁Cam	-7246
▁Cầu	-7247
▁mưa	-7248
▁nạt	-7249
▁Toan	-7250
▁trich	-7251
▁Meckel	-7252
▁Sidney	-7253
/100.000	-7254
▁2019-202	-7255
05	-7256
Gy	-7257
KN	-7258
WF	-7259
,00	-7260
,01	-7261
-59	-7262
/30	-7263
HCC	-7264
ICU	-7265
SDP	-7266
ipr	-7267
opy	-7268
▁1;	-7269
▁Cd	-7270
▁GS	-7271
▁RF	-7272
▁Ro	-7273
cyst	-7274
entr	-7275
olip	-7276
olus	-7277
plas	-7278
▁Del	-7279
▁IIB	-7280
▁RIF	-7281
▁pal	-7282
0,6%,	-7283
ontan	-7284
▁TIPS	-7285
▁Thêm	-7286
▁vacA	-7287
uronium	-7288
▁Phosph	-7289
▁sulfat	-7290
lopurinol	-7291
▁Dentistry	-7292
▁parkinson	-7293
▁amyloidosis	-7294
".	-7295
VR	-7296
ft	-7297
gra	-7298
mức	-7299
tos	-7300
opic	-7301
▁Hợp	-7302
▁inf	-7303
▁đấu	-7304
▁3.3.	-7305
▁Cycl	-7306
▁Ngãi	-7307
▁clon	-7308
aparin	-7309
▁Texas	-7310
ivudine	-7311
▁0,001;	-7312
▁Fisher	-7313
▁VSATTP	-7314
enofovir	-7315
▁Control	-7316
▁Pemphig	-7317
▁calcium	-7318
▁cocaine	-7319
emoglobin	-7320
▁acyclovir	-7321
▁glycoprotein	-7322
HF	-7323
XT	-7324
cl	-7325
,11	-7326
12,	-7327
DAI	-7328
PET	-7329
aps	-7330
eis	-7331
par	-7332
thể	-7333
ule	-7334
▁0:	-7335
▁SJ	-7336
▁Sờ	-7337
▁mì	-7338
▁nụ	-7339
itor	-7340
nguy	-7341
trin	-7342
▁LDH	-7343
▁TNM	-7344
▁dệt	-7345
▁lác	-7346
▁vải	-7347
▁thầu	-7348
ations	-7349
▁giếng	-7350
acrolimus	-7351
▁dextrose	-7352
▁Rochester	-7353
glucosidase	-7354
FP	-7355
NF	-7356
ém	-7357
,10	-7358
,98	-7359
fan	-7360
mặc	-7361
pox	-7362
▁DS	-7363
▁KD	-7364
▁ct	-7365
bach	-7366
emis	-7367
inin	-7368
▁BCR	-7369
▁BVM	-7370
▁Cob	-7371
▁Mệt	-7372
▁PCO	-7373
▁Sâm	-7374
▁bla	-7375
▁gió	-7376
▁tel	-7377
▁túc	-7378
aloid	-7379
drome	-7380
ocara	-7381
▁10%,	-7382
▁Hist	-7383
▁NKVM	-7384
irovec	-7385
omyces	-7386
▁NKHHC	-7387
▁carot	-7388
▁Methyl	-7389
▁nitrat	-7390
aricella	-7391
tazidime	-7392
▁Basedow	-7393
▁dioxide	-7394
▁Ferritin	-7395
▁Ricketts	-7396
▁Pittsburgh	-7397
▁clopidogrel	-7398
GE	-7399
QI	-7400
100	-7401
azơ	-7402
ico	-7403
tổn	-7404
usc	-7405
ưởi	-7406
▁DE	-7407
▁Xa	-7408
▁Đi	-7409
ytic	-7410
▁(99	-7411
▁116	-7412
▁138	-7413
▁139	-7414
▁15.	-7415
▁Kar	-7416
▁MCH	-7417
▁TCM	-7418
▁gũi	-7419
▁pin	-7420
▁rộp	-7421
tocin	-7422
▁0,15	-7423
▁75%.	-7424
▁CMTH	-7425
▁GDSK	-7426
▁Lewy	-7427
▁mono	-7428
▁ngon	-7429
▁xuôi	-7430
▁đính	-7431
▁Chiến	-7432
▁Fried	-7433
▁Nhược	-7434
▁dopamin	-7435
anagement	-7436
▁levobupivacain	-7437
VG	-7438
vì	-7439
Per	-7440
▁PN	-7441
▁cự	-7442
AIDS	-7443
hiếm	-7444
reat	-7445
▁14%	-7446
▁155	-7447
▁4-6	-7448
▁FNA	-7449
▁GPB	-7450
▁ISO	-7451
▁Vac	-7452
▁vịt	-7453
▁Case	-7454
▁chìa	-7455
▁chồi	-7456
▁luân	-7457
▁pmol	-7458
▁sorb	-7459
adolin	-7460
aluron	-7461
▁0,05;	-7462
▁retin	-7463
vastatin	-7464
▁Florida	-7465
▁cholest	-7466
roglycerin	-7467
];	-7468
ee	-7469
▁%	-7470
,59	-7471
aze	-7472
ign	-7473
ket	-7474
uri	-7475
▁1%,	-7476
▁88%	-7477
▁BUN	-7478
▁DAS	-7479
▁Lực	-7480
▁Rif	-7481
▁sạn	-7482
ashim	-7483
▁15,3	-7484
▁25%,	-7485
▁4.2.	-7486
▁Chậm	-7487
▁Trực	-7488
uracil	-7489
itrypsin	-7490
▁receptor	-7491
prednisolone	-7492
▁isotretinoin	-7493
70	-7494
76	-7495
MH	-7496
mid	-7497
▁Lá	-7498
▁Mi	-7499
▁RD	-7500
▁TQ	-7501
ense	-7502
▁134	-7503
▁17.	-7504
▁21.	-7505
▁8,2	-7506
▁8,3	-7507
▁CVP	-7508
▁Lam	-7509
▁MCV	-7510
▁dốc	-7511
▁end	-7512
▁sẫm	-7513
▁tôm	-7514
eptid	-7515
fenac	-7516
ytoin	-7517
▁0.01	-7518
▁12,6	-7519
▁75%,	-7520
▁Calc	-7521
▁TKDT	-7522
▁nhày	-7523
▁nhét	-7524
▁2008.	-7525
▁Aedes	-7526
▁khủng	-7527
▁macrol	-7528
ashimoto	-7529
adolinium	-7530
▁Hemophilia	-7531
▁Ceftriaxone	-7532
car	-7533
rob	-7534
▁Ox	-7535
▁Tụ	-7536
PTNS	-7537
ates	-7538
enec	-7539
esia	-7540
phẫu	-7541
▁BCL	-7542
▁Bơm	-7543
▁Huy	-7544
▁Nẹp	-7545
▁Rau	-7546
▁Tôn	-7547
▁Yêu	-7548
▁nal	-7549
▁sên	-7550
▁trỏ	-7551
,8%);	-7552
▁0,75	-7553
▁11,3	-7554
▁KRAS	-7555
▁chăn	-7556
▁ngây	-7557
▁ngọn	-7558
▁nhôm	-7559
▁Frank	-7560
▁Trăng	-7561
▁Xuyên	-7562
vitamin	-7563
▁Lister	-7564
▁PharmD	-7565
▁clorua	-7566
▁adenosine	-7567
cholesterol	-7568
ea	-7569
pg	-7570
ado	-7571
mic	-7572
▁MO	-7573
▁OC	-7574
ifed	-7575
oric	-7576
▁142	-7577
▁18,	-7578
▁ADH	-7579
▁FVC	-7580
▁ICH	-7581
▁IMT	-7582
▁rận	-7583
,2%);	-7584
,33%,	-7585
▁25%.	-7586
▁30%,	-7587
▁Giữa	-7588
▁King	-7589
▁Ngứa	-7590
▁UTDD	-7591
▁cáng	-7592
▁nành	-7593
▁điệu	-7594
ulosis	-7595
▁87,5%	-7596
▁Chlor	-7597
▁bolus	-7598
imethyl	-7599
ography	-7600
▁(50%),	-7601
▁Canada	-7602
▁Micros	-7603
▁Strand	-7604
ermectin	-7605
▁alkaloid	-7606
ophenolate	-7607
WH	-7608
agl	-7609
bên	-7610
mRS	-7611
osi	-7612
rug	-7613
zap	-7614
▁Jo	-7615
▁LP	-7616
▁gỡ	-7617
▁ĐƯ	-7618
amaz	-7619
eoxy	-7620
rick	-7621
vard	-7622
▁13%	-7623
▁156	-7624
▁8,8	-7625
▁BCC	-7626
▁BRA	-7627
▁Bro	-7628
▁KST	-7629
▁MAC	-7630
▁Tum	-7631
▁mịn	-7632
▁pur	-7633
▁Đảm	-7634
▁đẹp	-7635
illes	-7636
▁0,89	-7637
▁10,8	-7638
▁11,6	-7639
▁30%.	-7640
▁Khâu	-7641
▁Tham	-7642
▁hỏng	-7643
▁khạc	-7644
rombop	-7645
▁Hydro	-7646
▁covid	-7647
▁nhung	-7648
▁HCTHTP	-7649
▁Hormone	-7650
▁retrovirus	-7651
▁Clostridium	-7652
▁Enterococcus	-7653
04	-7654
nm	-7655
sa	-7656
RIS	-7657
cus	-7658
▁-3	-7659
▁AU	-7660
▁Cứ	-7661
▁đà	-7662
4.1.	-7663
SSRI	-7664
▁30.	-7665
▁GGT	-7666
▁Hấp	-7667
▁NTH	-7668
▁TOF	-7669
▁cấm	-7670
▁hoả	-7671
▁max	-7672
▁rậm	-7673
-2010	-7674
ngoại	-7675
▁10,9	-7676
▁13,4	-7677
▁60%,	-7678
▁Amin	-7679
▁Bart	-7680
▁axít	-7681
▁bách	-7682
▁báng	-7683
terian	-7684
▁30/06	-7685
▁Grand	-7686
▁Trạng	-7687
▁trông	-7688
▁12/200	-7689
▁Malley	-7690
▁amiăng	-7691
▁Hashimoto	-7692
▁Blatchford	-7693
▁Framingham	-7694
li	-7695
ega	-7696
▁IG	-7697
▁Re	-7698
▁VE	-7699
▁ii	-7700
Pugh	-7701
abin	-7702
▁gạn	-7703
▁itr	-7704
▁trệ	-7705
brand	-7706
ugada	-7707
▁10,4	-7708
▁13,8	-7709
▁Benz	-7710
▁GOLD	-7711
▁MLCT	-7712
▁with	-7713
▁0,001,	-7714
idazolam	-7715
▁Harvard	-7716
▁National	-7717
▁catechol	-7718
▁fluoroquinolone	-7719
81	-7720
Tc	-7721
ss	-7722
làm	-7723
phổ	-7724
tin	-7725
tối	-7726
▁AC	-7727
afil	-7728
▁1/5	-7729
▁153	-7730
▁2-4	-7731
▁Bán	-7732
▁Dầu	-7733
▁KHO	-7734
▁PDA	-7735
▁Run	-7736
▁lăn	-7737
azone	-7738
ision	-7739
▁1,01	-7740
▁cành	-7741
▁thơm	-7742
▁xuân	-7743
ithium	-7744
▁Chung	-7745
uprofen	-7746
▁Glôcôm	-7747
▁glycol	-7748
▁Pharmacy	-7749
▁homocysteine	-7750
09	-7751
27	-7752
Na	-7753
OB	-7754
SG	-7755
cg	-7756
,6)	-7757
,61	-7758
-1)	-7759
ula	-7760
▁SK	-7761
▁xẻ	-7762
mine	-7763
▁CTG	-7764
▁Lạc	-7765
earch	-7766
occid	-7767
▁0,85	-7768
▁Bàng	-7769
▁Căng	-7770
▁Hill	-7771
▁Kehr	-7772
▁Vàng	-7773
▁phẩu	-7774
ogenes	-7775
▁2005.	-7776
▁Pneum	-7777
▁ngách	-7778
orphine	-7779
▁1/2010	-7780
▁nitric	-7781
irovecii	-7782
obacillus	-7783
▁Achilles	-7784
▁histamin	-7785
esbyterian	-7786
69	-7787
Ng	-7788
Sp	-7789
-16	-7790
-65	-7791
SXH	-7792
TSH	-7793
ail	-7794
hcm	-7795
mec	-7796
▁HV	-7797
▁KQ	-7798
ices	-7799
orin	-7800
port	-7801
▁129	-7802
▁152	-7803
▁350	-7804
▁60.	-7805
▁CHA	-7806
▁NGH	-7807
▁PSD	-7808
▁Ray	-7809
▁TYT	-7810
▁dầy	-7811
▁lym	-7812
▁pcr	-7813
▁đắt	-7814
dison	-7815
nhưng	-7816
obarb	-7817
thiếu	-7818
yclin	-7819
▁IVIG	-7820
▁Kính	-7821
▁Linh	-7822
▁Liễu	-7823
▁PHCN	-7824
actice	-7825
▁83,3%	-7826
▁10.000	-7827
▁choàng	-7828
oplasmosis	-7829
▁adrenalin	-7830
▁linezolid	-7831
201	-7832
CNS	-7833
tid	-7834
trẻ	-7835
▁Em	-7836
-10,	-7837
0,2%	-7838
igan	-7839
itin	-7840
urea	-7841
uros	-7842
động	-7843
▁33%	-7844
▁AHA	-7845
▁Gel	-7846
▁Góp	-7847
▁Ind	-7848
▁VMN	-7849
▁sch	-7850
▁thẻ	-7851
▁vui	-7852
0,6%.	-7853
iazol	-7854
mycin	-7855
omide	-7856
▁(1,5	-7857
▁Khác	-7858
▁TNTT	-7859
▁chấy	-7860
▁tùng	-7861
▁rutin	-7862
occidioid	-7863
▁Carcinôm	-7864
77	-7865
ĐD	-7866
,81	-7867
-70	-7868
NMK	-7869
ott	-7870
▁Dù	-7871
▁Ly	-7872
▁MM	-7873
▁há	-7874
▁lễ	-7875
ardi	-7876
ctin	-7877
sinh	-7878
▁5%,	-7879
▁ART	-7880
▁MMP	-7881
▁Sài	-7882
▁Vit	-7883
▁cat	-7884
▁cis	-7885
▁nhở	-7886
▁vời	-7887
▁ĐTT	-7888
thành	-7889
▁(0,8	-7890
▁40%,	-7891
▁BRAF	-7892
▁CSGN	-7893
▁Giám	-7894
▁TKNQ	-7895
▁diph	-7896
▁nhậy	-7897
▁xích	-7898
▁Đóng	-7899
eatoma	-7900
iximab	-7901
▁nhiêu	-7902
eatment	-7903
▁aceton	-7904
▁Addison	-7905
▁Brugada	-7906
▁Charles	-7907
▁Francis	-7908
▁gastrin	-7909
iclofenac	-7910
▁ibuprofen	-7911
▁itraconazole	-7912
NE	-7913
,77	-7914
,97	-7915
CCO	-7916
HDL	-7917
emb	-7918
eon	-7919
lên	-7920
mit	-7921
ual	-7922
CIST	-7923
HPLC	-7924
omib	-7925
tĩnh	-7926
▁450	-7927
▁Bốn	-7928
▁CRT	-7929
▁Cha	-7930
▁Hop	-7931
▁Tật	-7932
▁Ure	-7933
▁bil	-7934
▁cáu	-7935
▁lẩy	-7936
▁lắc	-7937
▁sen	-7938
▁thờ	-7939
tháng	-7940
thông	-7941
ulase	-7942
▁12,1	-7943
▁Aden	-7944
▁HMMD	-7945
▁YTNC	-7946
▁brom	-7947
ivarox	-7948
▁01/06	-7949
▁Hương	-7950
▁Johns	-7951
▁North	-7952
lebrand	-7953
▁33,3%,	-7954
▁ASPECT	-7955
▁lipase	-7956
▁Hopkins	-7957
lasmodium	-7958
obarbital	-7959
▁Toxocara	-7960
ivaroxaban	-7961
▁pemphigoid	-7962
32	-7963
Pa	-7964
RL	-7965
số	-7966
▁ơ	-7967
,70	-7968
/15	-7969
Các	-7970
aro	-7971
ebo	-7972
▁Jr	-7973
▁On	-7974
▁Pi	-7975
Scan	-7976
TĐTT	-7977
chất	-7978
eber	-7979
edic	-7980
rner	-7981
▁114	-7982
▁195	-7983
▁CÁC	-7984
▁Cát	-7985
▁HBW	-7986
▁Trừ	-7987
▁art	-7988
▁heo	-7989
,33%.	-7990
0,8%,	-7991
▁12,4	-7992
▁15,2	-7993
▁PNMK	-7994
▁pent	-7995
▁100,0	-7996
▁2019,	-7997
▁Ebola	-7998
▁Khmer	-7999
ephrine	-8000
▁66,7%,	-8001
▁allele	-8002
▁chuộng	-8003
▁01/2015	-8004
▁amylase	-8005
phosphate	-8006
▁Methadone	-8007
▁albendazole	-8008
▁antitrypsin	-8009
▁Ciprofloxacin	-8010
▁levothyroxine	-8011
JD	-8012
cổ	-8013
,49	-8014
-25	-8015
TMC	-8016
UNG	-8017
UTB	-8018
eae	-8019
oni	-8020
▁7:	-8021
▁EC	-8022
▁Hy	-8023
▁bả	-8024
▁lở	-8025
▁ni	-8026
erve	-8027
igra	-8028
oxyl	-8029
prop	-8030
tepl	-8031
urox	-8032
▁0.5	-8033
▁146	-8034
▁147	-8035
▁HTK	-8036
▁Pag	-8037
▁TBS	-8038
▁Tàu	-8039
▁gắp	-8040
▁mão	-8041
/2000	-8042
anide	-8043
huyết	-8044
ophyt	-8045
▁(+).	-8046
▁0,81	-8047
▁12,2	-8048
▁Biện	-8049
▁quin	-8050
▁Đoàn	-8051
▁Tuyên	-8052
▁pyrid	-8053
▁virút	-8054
abapent	-8055
ocystis	-8056
teplase	-8057
aginalis	-8058
▁trisomy	-8059
abapentin	-8060
▁amiodarone	-8061
to	-8062
tế	-8063
ĐĐ	-8064
-67	-8065
CCS	-8066
cao	-8067
cắt	-8068
gợi	-8069
oic	-8070
reg	-8071
ươc	-8072
▁Cy	-8073
▁RE	-8074
▁RR	-8075
▁ag	-8076
osyl	-8077
▁170	-8078
▁18.	-8079
▁3-6	-8080
▁750	-8081
▁Hãy	-8082
▁MTH	-8083
▁Sẹo	-8084
▁bet	-8085
▁nảy	-8086
▁rặn	-8087
▁sol	-8088
▁tăm	-8089
▁1,04	-8090
▁10,2	-8091
▁100,	-8092
▁FISH	-8093
▁IIIB	-8094
▁IPSS	-8095
▁NAAT	-8096
▁Ngăn	-8097
▁Phen	-8098
▁lệnh	-8099
oxicam	-8100
▁2007.	-8101
▁2009,	-8102
▁khoét	-8103
▁synap	-8104
ocuronium	-8105
▁internet	-8106
▁realtime	-8107
▁norepinephrine	-8108
In	-8109
de	-8110
ât	-8111
ùn	-8112
BYT	-8113
NBB	-8114
auc	-8115
eak	-8116
ien	-8117
ởng	-8118
▁Os	-8119
▁tù	-8120
▁tẻ	-8121
ason	-8122
niệu	-8123
pert	-8124
quin	-8125
tron	-8126
▁220	-8127
▁9,2	-8128
▁MEN	-8129
▁Rút	-8130
▁cốm	-8131
▁sáp	-8132
▁ter	-8133
▁tẩm	-8134
0,9%.	-8135
eorge	-8136
▁15%.	-8137
▁Barr	-8138
▁Gold	-8139
▁gout	-8140
▁nhẵn	-8141
▁phot	-8142
▁rong	-8143
▁Prote	-8144
▁pseud	-8145
isseria	-8146
▁(20%),	-8147
▁Dermat	-8148
▁gonorr	-8149
▁Centers	-8150
▁Whipple	-8151
obacteria	-8152
▁arginine	-8153
▁ketamine	-8154
▁cefotaxime	-8155
▁prealbumin	-8156
▁enterovirus	-8157
ND	-8158
SE	-8159
ễu	-8160
-8,	-8161
CTT	-8162
CVN	-8163
POS	-8164
vin	-8165
▁DA	-8166
▁ID	-8167
▁[5	-8168
▁[>	-8169
▁đu	-8170
aint	-8171
imin	-8172
ynch	-8173
▁144	-8174
▁16%	-8175
▁7,0	-8176
▁94%	-8177
▁ANA	-8178
▁Lần	-8179
▁NHI	-8180
▁PPI	-8181
▁Tan	-8182
▁pho	-8183
▁tru	-8184
0,5%.	-8185
ococc	-8186
▁1,02	-8187
▁12,7	-8188
▁14,2	-8189
▁4000	-8190
▁ARFI	-8191
▁Vals	-8192
▁miên	-8193
▁tang	-8194
▁urat	-8195
▁2006.	-8196
▁Giống	-8197
▁plasma	-8198
▁faecalis	-8199
aeruginosa	-8200
68	-8201
ni	-8202
10,	-8203
COG	-8204
MSE	-8205
MTC	-8206
hol	-8207
nội	-8208
▁PM	-8209
▁tờ	-8210
▁-2.	-8211
▁0),	-8212
▁158	-8213
▁2%.	-8214
▁2/1	-8215
▁5).	-8216
▁Bái	-8217
▁GTT	-8218
▁Lộc	-8219
▁Lớp	-8220
▁Mit	-8221
▁Nắn	-8222
▁bảy	-8223
▁fam	-8224
▁gặm	-8225
▁loa	-8226
▁mol	-8227
▁nan	-8228
▁rêu	-8229
▁xấp	-8230
▁ôxy	-8231
artan	-8232
▁0,06	-8233
▁5000	-8234
▁MSCT	-8235
▁Sulf	-8236
▁nhấm	-8237
▁spir	-8238
0,8%),	-8239
phương	-8240
ropine	-8241
▁Color	-8242
▁LASIK	-8243
▁Loãng	-8244
▁Lương	-8245
▁xanth	-8246
▁1/2018	-8247
▁Turner	-8248
▁01/2018	-8249
▁Cystatin	-8250
▁Creatinine	-8251
▁Amoxicillin	-8252
▁hydroclorid	-8253
WS	-8254
kể	-8255
êt	-8256
,99	-8257
200	-8258
HPV	-8259
SAR	-8260
SLE	-8261
UTP	-8262
lay	-8263
lum	-8264
ĐTL	-8265
▁Tg	-8266
aben	-8267
aids	-8268
aper	-8269
exin	-8270
itri	-8271
omet	-8272
▁190	-8273
▁BTT	-8274
▁Est	-8275
▁Lys	-8276
▁Mac	-8277
▁Mag	-8278
▁Pub	-8279
▁Táo	-8280
▁Wol	-8281
▁kêu	-8282
▁Đăk	-8283
▁Đẩy	-8284
aquat	-8285
▁(1),	-8286
▁1/10	-8287
▁13,2	-8288
▁Phan	-8289
▁Trạm	-8290
▁UTTQ	-8291
▁chốc	-8292
▁malt	-8293
▁2010,	-8294
▁Paget	-8295
▁Saint	-8296
▁nghẹn	-8297
▁mening	-8298
▁plasmin	-8299
▁Michigan	-8300
▁silicone	-8301
▁Willebrand	-8302
▁adenovirus	-8303
▁microalbumin	-8304
Hz	-8305
-99	-8306
ava	-8307
bet	-8308
kết	-8309
oeb	-8310
val	-8311
▁SE	-8312
midt	-8313
naud	-8314
phản	-8315
rias	-8316
▁Ant	-8317
▁Ber	-8318
▁Dep	-8319
▁HCT	-8320
▁Kho	-8321
▁Lee	-8322
▁PTT	-8323
▁VRT	-8324
▁sin	-8325
▁sắm	-8326
hoeae	-8327
▁0,07	-8328
▁1.3.	-8329
▁11,4	-8330
▁11,8	-8331
▁CABG	-8332
▁Comp	-8333
▁SINH	-8334
▁Xoắn	-8335
▁ngọc	-8336
antoin	-8337
ohnson	-8338
ronbach	-8339
▁Kaposi	-8340
treotide	-8341
▁Raynaud	-8342
▁Schmidt	-8343
▁gradient	-8344
▁allopurinol	-8345
▁bevacizumab	-8346
39	-8347
46	-8348
CEA	-8349
SGA	-8350
ani	-8351
ave	-8352
qua	-8353
rey	-8354
▁AO	-8355
▁ec	-8356
▁gr	-8357
▁Đỗ	-8358
▁đế	-8359
MRSA	-8360
atus	-8361
eral	-8362
idae	-8363
▁149	-8364
▁162	-8365
▁26%	-8366
▁38%	-8367
▁40.	-8368
▁9,8	-8369
▁Acc	-8370
▁Cửu	-8371
▁Mau	-8372
▁Sán	-8373
▁bến	-8374
azide	-8375
inter	-8376
itney	-8377
▁(5).	-8378
▁0,82	-8379
▁12,3	-8380
▁1999	-8381
▁30,3	-8382
▁6,7%	-8383
▁Serv	-8384
▁cacb	-8385
▁talc	-8386
▁Đình	-8387
ProBNP	-8388
urosem	-8389
▁MTHFR	-8390
▁benzo	-8391
▁1/2019	-8392
▁Neisseria	-8393
▁phenytoin	-8394
▁sufentanil	-8395
▁gonorrhoeae	-8396
▁hydrocortisone	-8397
WV	-8398
ll	-8399
sc	-8400
tá	-8401
,50	-8402
LTT	-8403
eld	-8404
opt	-8405
▁9,	-8406
▁SB	-8407
▁er	-8408
▁lọ	-8409
▁lỵ	-8410
alva	-8411
efer	-8412
▁210	-8413
▁31.	-8414
▁4),	-8415
▁FMD	-8416
▁Hít	-8417
▁TDF	-8418
▁VNĐ	-8419
▁lys	-8420
▁lẻo	-8421
ating	-8422
▁0,76	-8423
▁0,95	-8424
▁14,3	-8425
▁Geis	-8426
▁KSDP	-8427
▁Sưng	-8428
▁chít	-8429
▁perf	-8430
▁prom	-8431
/2021,	-8432
▁Riêng	-8433
▁Swiss	-8434
▁blast	-8435
onectin	-8436
▁SUVmax	-8437
▁Sanger	-8438
▁0,005).	-8439
▁VietPOS	-8440
▁12/2021.	-8441
▁aldosteron	-8442
VX	-8443
SSS	-8444
oll	-8445
red	-8446
tan	-8447
▁3;	-8448
▁AA	-8449
▁BK	-8450
▁DL	-8451
▁hè	-8452
LQTM	-8453
atch	-8454
nồng	-8455
obut	-8456
ound	-8457
▁APC	-8458
▁Bạc	-8459
▁Cap	-8460
▁GCS	-8461
▁HLH	-8462
▁Jan	-8463
▁NLR	-8464
▁Ser	-8465
▁aeg	-8466
▁múi	-8467
▁von	-8468
▁độn	-8469
iptyl	-8470
zomib	-8471
▁0,83	-8472
▁0,97	-8473
▁1,00	-8474
▁2,5%	-8475
▁GINA	-8476
▁Hunt	-8477
▁Katz	-8478
▁truy	-8479
▁12,5%	-8480
▁Khiếm	-8481
▁Lynch	-8482
▁THNCT	-8483
▁prion	-8484
▁toxin	-8485
▁Lichen	-8486
▁iodine	-8487
▁quinol	-8488
▁Reserve	-8489
▁melanin	-8490
▁Francisco	-8491
▁pneumonia	-8492
▁Pneumocystis	-8493
:2	-8494
cy	-8495
gn	-8496
ãm	-8497
,66	-8498
CHT	-8499
MAT	-8500
NGT	-8501
aza	-8502
ere	-8503
sky	-8504
tốt	-8505
ura	-8506
▁EM	-8507
▁Me	-8508
▁PL	-8509
▁XI	-8510
erna	-8511
hydr	-8512
▁168	-8513
▁17%	-8514
▁21%	-8515
▁Dao	-8516
▁NMC	-8517
▁SMX	-8518
▁TEN	-8519
▁leu	-8520
▁sôi	-8521
,4%);	-8522
,67%.	-8523
▁-0,4	-8524
▁0,08	-8525
▁Móng	-8526
▁SSTT	-8527
▁UBTG	-8528
▁VNTM	-8529
▁alfa	-8530
▁bừng	-8531
▁ĐTNC	-8532
ociety	-8533
▁Tesla	-8534
protein	-8535
▁Kaplan	-8536
▁Vinmec	-8537
▁leptin	-8538
▁01/2012	-8539
▁01/2020	-8540
▁lactose	-8541
▁Atlantic	-8542
▁Colorado	-8543
▁ivermectin	-8544
▁Mycobacterium	-8545
▁carbapenemase	-8546
TBT	-8547
ini	-8548
▁7)	-8549
▁BQ	-8550
▁Ra	-8551
▁hi	-8552
▁pô	-8553
CLĐT	-8554
aris	-8555
iola	-8556
tiêu	-8557
ypti	-8558
▁151	-8559
▁360	-8560
▁9,1	-8561
▁Bor	-8562
▁End	-8563
▁FFR	-8564
▁Kon	-8565
▁LSC	-8566
▁NTT	-8567
▁bận	-8568
▁kìm	-8569
▁ngụ	-8570
▁vin	-8571
những	-8572
▁11,9	-8573
▁15,7	-8574
▁PCOS	-8575
▁thon	-8576
action	-8577
▁2013,	-8578
▁2017,	-8579
▁Block	-8580
▁Robot	-8581
▁penic	-8582
annitol	-8583
glucose	-8584
rahydro	-8585
▁Marfan	-8586
▁nghiền	-8587
▁oxalat	-8588
▁0,000).	-8589
▁01/2017	-8590
▁choline	-8591
formation	-8592
▁hyaluron	-8593
▁oxytocin	-8594
▁sorbitol	-8595
etoprotein	-8596
▁gadolinium	-8597
▁Presbyterian	-8598
▁bisphosphonat	-8599
37	-8600
RN	-8601
cc	-8602
CMV	-8603
dựa	-8604
isk	-8605
osf	-8606
uck	-8607
▁HU	-8608
▁MY	-8609
▁Ty	-8610
▁XX	-8611
nife	-8612
▁18%	-8613
▁2.5	-8614
▁3%.	-8615
▁64%	-8616
▁ALL	-8617
▁CAP	-8618
▁Sol	-8619
▁Vân	-8620
▁bar	-8621
▁cas	-8622
▁hưu	-8623
▁hảo	-8624
▁lật	-8625
▁mac	-8626
▁mộc	-8627
▁râu	-8628
▁sec	-8629
▁vóc	-8630
,9%);	-8631
acebo	-8632
etine	-8633
▁0,35	-8634
▁15,5	-8635
▁Liêu	-8636
▁Loài	-8637
▁heme	-8638
▁mãnh	-8639
angerh	-8640
azolin	-8641
iatric	-8642
▁Maria	-8643
▁aegypti	-8644
amazepine	-8645
ctreotide	-8646
▁Globulin	-8647
ysaccharide	-8648
▁Wellington	-8649
▁diclofenac	-8650
DC	-8651
ME	-8652
617	-8653
BVM	-8654
▁Bỏ	-8655
▁RB	-8656
▁We	-8657
▁mỉ	-8658
▁py	-8659
▁tủ	-8660
azqu	-8661
▁97%	-8662
▁ACT	-8663
▁Beh	-8664
▁CHƯ	-8665
▁HUY	-8666
▁Môi	-8667
▁Nhẹ	-8668
▁OSA	-8669
▁RHM	-8670
▁SNP	-8671
▁THI	-8672
▁VTN	-8673
▁loà	-8674
0,5%,	-8675
0,7%.	-8676
Perte	-8677
elman	-8678
eneca	-8679
▁-0,2	-8680
▁0,2%	-8681
▁Bush	-8682
▁Dòng	-8683
▁Nhãn	-8684
▁Nhập	-8685
▁Thấp	-8686
▁hùng	-8687
▁leuk	-8688
▁mask	-8689
▁phễu	-8690
azquez	-8691
yllium	-8692
▁(50%)	-8693
▁57,1%	-8694
▁Vazquez	-8695
angerhans	-8696
▁Amikacin	-8697
▁Danielle	-8698
▁monoxide	-8699
▁aspartate	-8700
▁mycophenolate	-8701
91	-8702
QR	-8703
▁á	-8704
,26	-8705
-50	-8706
ews	-8707
tal	-8708
▁9%	-8709
▁KP	-8710
▁ed	-8711
▁mò	-8712
▁pT	-8713
IVKA	-8714
biểu	-8715
glut	-8716
iver	-8717
lich	-8718
onol	-8719
▁165	-8720
▁3.4	-8721
▁72%	-8722
▁Cẩm	-8723
▁Kém	-8724
▁Nạo	-8725
▁TKT	-8726
▁hắt	-8727
▁làn	-8728
▁lóc	-8729
▁sac	-8730
▁vặn	-8731
▁ĐMP	-8732
-2013	-8733
0,9%,	-8734
Barré	-8735
ative	-8736
olone	-8737
tuyến	-8738
xương	-8739
▁0,28	-8740
▁0,65	-8741
▁12,9	-8742
▁14,7	-8743
▁Lịch	-8744
▁Mayo	-8745
▁NANG	-8746
▁kiên	-8747
▁phái	-8748
▁plan	-8749
▁thám	-8750
/2007.	-8751
actone	-8752
▁fruct	-8753
▁magie	-8754
butamol	-8755
oporphy	-8756
roponin	-8757
▁1/2015	-8758
▁thưởng	-8759
ethylene	-8760
▁Society	-8761
▁Rituximab	-8762
VL	-8763
sp	-8764
LTL	-8765
iae	-8766
rod	-8767
▁Lỗ	-8768
▁ÁN	-8769
ross	-8770
▁14,	-8771
▁161	-8772
▁4-5	-8773
▁42%	-8774
▁Bab	-8775
▁Chú	-8776
▁DEN	-8777
▁Enz	-8778
▁IIA	-8779
▁Lik	-8780
▁Mọi	-8781
▁Nga	-8782
▁PFS	-8783
▁PSI	-8784
▁Sim	-8785
▁cạp	-8786
▁hep	-8787
▁mRS	-8788
▁tox	-8789
▁ĐDV	-8790
epime	-8791
▁0.00	-8792
▁103.	-8793
▁30,4	-8794
▁Bong	-8795
▁Châm	-8796
▁UTTG	-8797
nesium	-8798
ofetil	-8799
▁Foley	-8800
▁diode	-8801
▁ester	-8802
Johnson	-8803
artment	-8804
essment	-8805
▁4.2.1.	-8806
▁Sarcoma	-8807
▁lithium	-8808
▁Colistin	-8809
▁gabapentin	-8810
▁catecholamine	-8811
08	-8812
NV	-8813
PP	-8814
bl	-8815
mo	-8816
đo	-8817
-4,	-8818
adi	-8819
utz	-8820
▁Td	-8821
▁af	-8822
▁cú	-8823
▁dã	-8824
▁tạ	-8825
▁vỗ	-8826
Viêm	-8827
adex	-8828
biến	-8829
dạng	-8830
eier	-8831
elli	-8832
▁1%.	-8833
▁23.	-8834
▁All	-8835
▁BCP	-8836
▁Cứu	-8837
▁Hor	-8838
▁SJS	-8839
▁Sai	-8840
▁lào	-8841
▁Đến	-8842
chứng	-8843
▁13,3	-8844
▁Amph	-8845
▁Brad	-8846
▁DNBB	-8847
▁Hạnh	-8848
▁KHOA	-8849
▁Surg	-8850
/2020,	-8851
earson	-8852
▁2012,	-8853
▁Human	-8854
▁thừng	-8855
▁vivax	-8856
osamine	-8857
▁1/2013	-8858
▁Rockall	-8859
▁Metformin	-8860
▁staphyloc	-8861
▁propranolol	-8862
▁tuberculosis	-8863
▁cholesteatoma	-8864
▁nitroglycerin	-8865
PL	-8866
RM	-8867
ÁI	-8868
ĐC	-8869
ALT	-8870
FDA	-8871
ban	-8872
cel	-8873
dây	-8874
▁Kế	-8875
▁NF	-8876
▁PO	-8877
3%).	-8878
erma	-8879
ield	-8880
onor	-8881
urin	-8882
ypro	-8883
▁11,	-8884
▁133	-8885
▁24%	-8886
▁76%	-8887
▁BCG	-8888
▁Las	-8889
▁Lạm	-8890
▁Rec	-8891
▁STI	-8892
▁dec	-8893
▁ráp	-8894
▁var	-8895
etron	-8896
opril	-8897
▁19,4	-8898
▁CBYT	-8899
▁Sóng	-8900
▁VPTM	-8901
▁đươc	-8902
atonin	-8903
aureus	-8904
▁14,3%	-8905
▁xưởng	-8906
lycerol	-8907
▁33,3%.	-8908
▁lactam	-8909
ioidosis	-8910
▁Cronbach	-8911
▁Department	-8912
▁adrenergic	-8913
▁carotenoid	-8914
))	-8915
06	-8916
58	-8917
AB	-8918
KB	-8919
LĐ	-8920
VK	-8921
rh	-8922
,%)	-8923
APS	-8924
TNF	-8925
syl	-8926
uis	-8927
đầu	-8928
▁6:	-8929
▁Ni	-8930
▁Sm	-8931
▁US	-8932
▁ir	-8933
chụp	-8934
icke	-8935
▁143	-8936
▁176	-8937
▁ALK	-8938
▁CFU	-8939
▁CTV	-8940
▁Dav	-8941
▁HbE	-8942
▁NRS	-8943
▁Sữa	-8944
▁Tán	-8945
▁dồn	-8946
▁mes	-8947
amcin	-8948
antel	-8949
▁0,93	-8950
▁0,99	-8951
▁13,5	-8952
▁APTT	-8953
▁Giun	-8954
▁Găng	-8955
▁Hàng	-8956
▁Mill	-8957
▁Mười	-8958
▁trầy	-8959
▁urea	-8960
▁Điển	-8961
0,5%),	-8962
▁11,1%	-8963
▁Predn	-8964
▁Trans	-8965
▁amino	-8966
▁selen	-8967
▁thuẫn	-8968
▁thùng	-8969
latinum	-8970
ositron	-8971
▁SLEDAI	-8972
▁cephal	-8973
▁01/2011	-8974
▁Moderna	-8975
▁mofetil	-8976
urosemide	-8977
▁Imatinib	-8978
▁Cisplatin	-8979
▁Langerhans	-8980
TA	-8981
dg	-8982
gu	-8983
▁ư	-8984
,91	-8985
01.	-8986
aun	-8987
enm	-8988
ras	-8989
▁DƯ	-8990
▁MÁ	-8991
▁ps	-8992
▁xả	-8993
-0,9	-8994
allo	-8995
auer	-8996
▁137	-8997
▁225	-8998
▁24,	-8999
▁Bio	-9000
▁DSM	-9001
▁INH	-9002
▁Nơi	-9003
▁bac	-9004
▁lùi	-9005
▁pôl	-9006
▁Đạt	-9007
▁đâu	-9008
▁ướp	-9009
,33%)	-9010
,67%,	-9011
icerc	-9012
oflav	-9013
umbia	-9014
▁0,18	-9015
▁0,19	-9016
▁0,59	-9017
▁1,03	-9018
▁11,7	-9019
▁CNCV	-9020
▁Coch	-9021
▁HCVC	-9022
▁IIIA	-9023
▁Ngải	-9024
▁Prol	-9025
▁TWQĐ	-9026
▁binh	-9027
▁crom	-9028
0,7%),	-9029
isolon	-9030
leason	-9031
uzumab	-9032
▁propyl	-9033
▁ASPECTS	-9034
▁Heparin	-9035
▁Stevens	-9036
▁sulbactam	-9037
▁vaginalis	-9038
▁Ampicillin	-9039
▁tazobactam	-9040
▁Interleukin	-9041
▁Misoprostol	-9042
▁hydroxylase	-9043
HV	-9044
ko	-9045
rs	-9046
CAT	-9047
CTX	-9048
FLD	-9049
HbA	-9050
TBS	-9051
ius	-9052
ree	-9053
ĐPN	-9054
▁[<	-9055
NMCT	-9056
cũng	-9057
etom	-9058
igen	-9059
màng	-9060
phổi	-9061
umar	-9062
▁154	-9063
▁25.	-9064
▁28.	-9065
▁50.	-9066
▁MHC	-9067
▁Ros	-9068
▁TMH	-9069
▁hóc	-9070
▁thy	-9071
▁thả	-9072
adine	-9073
chẳng	-9074
iderm	-9075
lobal	-9076
▁0,17	-9077
▁0,80	-9078
▁14,5	-9079
▁3.4.	-9080
▁ATCC	-9081
▁Ngón	-9082
▁RLNT	-9083
▁TCBP	-9084
▁Zika	-9085
▁điệp	-9086
itidis	-9087
itriol	-9088
▁PIVKA	-9089
alanine	-9090
aldehyd	-9091
ostatin	-9092
reatine	-9093
▁0,04).	-9094
▁1/2020	-9095
acterium	-9096
ciclovir	-9097
▁6/2021.	-9098
▁Columbia	-9099
▁Research	-9100
▁Valsalva	-9101
▁syndrome	-9102
amcinolone	-9103
pneumoniae	-9104
▁2020-2021	-9105
▁thyroxine	-9106
illomavirus	-9107
▁Azithromycin	-9108
▁Testosterone	-9109
88	-9110
HĐ	-9111
ya	-9112
-2)	-9113
CBC	-9114
TPQ	-9115
ych	-9116
▁FU	-9117
▁KX	-9118
▁Lô	-9119
▁lũ	-9120
aden	-9121
ashi	-9122
bino	-9123
idia	-9124
mean	-9125
▁53.	-9126
▁54%	-9127
▁Dup	-9128
▁TNT	-9129
▁Thi	-9130
▁bút	-9131
▁cát	-9132
▁mâu	-9133
▁pic	-9134
▁ppb	-9135
▁sét	-9136
▁sơn	-9137
/1000	-9138
icine	-9139
oxone	-9140
rofur	-9141
▁0,21	-9142
▁0,72	-9143
▁7,5%	-9144
▁Gừng	-9145
▁HĐPN	-9146
▁LMWH	-9147
▁Lich	-9148
▁Lách	-9149
▁Rụng	-9150
▁Stan	-9151
▁TACE	-9152
▁nhói	-9153
▁săng	-9154
▁2004.	-9155
▁2016,	-9156
▁Chênh	-9157
▁Views	-9158
▁perox	-9159
▁vướng	-9160
ercetin	-9161
▁0,01);	-9162
▁Opioid	-9163
▁berber	-9164
▁chuông	-9165
▁sarcôm	-9166
Troponin	-9167
itriptyl	-9168
aglobulin	-9169
▁Takasaki	-9170
▁macrolide	-9171
▁varicella	-9172
▁Bupivacaine	-9173
▁amphetamine	-9174
Ar	-9175
Qu	-9176
ía	-9177
-69	-9178
NTQ	-9179
alb	-9180
hầu	-9181
ita	-9182
ube	-9183
yếu	-9184
▁Hp	-9185
▁Hz	-9186
▁Su	-9187
▁ev	-9188
▁ft	-9189
0,0)	-9190
idum	-9191
inal	-9192
oeba	-9193
▁166	-9194
▁24.	-9195
▁280	-9196
▁380	-9197
▁6/1	-9198
▁900	-9199
▁Hạt	-9200
▁IVF	-9201
▁Lập	-9202
▁MDA	-9203
▁Nằm	-9204
▁ben	-9205
▁dâu	-9206
▁mắm	-9207
▁tua	-9208
▁Đợt	-9209
0,0%,	-9210
ometh	-9211
oprim	-9212
▁0,37	-9213
▁0,66	-9214
▁0,96	-9215
▁10,1	-9216
▁30,2	-9217
▁BVCR	-9218
▁MMSE	-9219
▁Rượu	-9220
▁Tuần	-9221
▁cann	-9222
▁nhảy	-9223
▁thoi	-9224
▁Petri	-9225
▁Rubin	-9226
▁giáng	-9227
▁kappa	-9228
▁nghìn	-9229
▁1/2011	-9230
▁Likert	-9231
▁albino	-9232
ortezomib	-9233
▁2021-202	-9234
▁tacrolimus	-9235
▁misoprostol	-9236
▁Cytomegalovirus	-9237
AI	-9238
AX	-9239
VF	-9240
tự	-9241
600	-9242
PAP	-9243
SHQ	-9244
fil	-9245
tef	-9246
▁9)	-9247
▁GĐ	-9248
▁Lệ	-9249
▁Om	-9250
▁UN	-9251
▁oz	-9252
▁xổ	-9253
asal	-9254
avan	-9255
▁(2,	-9256
▁6),	-9257
▁6).	-9258
▁92%	-9259
▁Dem	-9260
▁Hyp	-9261
▁Khô	-9262
▁Lau	-9263
▁Leg	-9264
▁MMR	-9265
▁Ped	-9266
▁Rắn	-9267
▁cúc	-9268
▁họp	-9269
▁nín	-9270
▁quế	-9271
▁vắt	-9272
▁Đục	-9273
NTech	-9274
▁0,16	-9275
▁10,0	-9276
▁12,8	-9277
▁Dart	-9278
▁HTKN	-9279
▁Rich	-9280
▁Trái	-9281
▁TƯQĐ	-9282
▁UTTT	-9283
▁ròng	-9284
/2019,	-9285
0,6%),	-9286
antopr	-9287
ostoma	-9288
▁Cyclo	-9289
▁Fluor	-9290
Cornell	-9291
▁System	-9292
▁chuyến	-9293
▁polyme	-9294
▁valpro	-9295
▁Proteus	-9296
▁12/2019.	-9297
▁mannitol	-9298
▁Meropenem	-9299
▁deaminase	-9300
KQ	-9301
ka	-9302
/35	-9303
Bio	-9304
HBV	-9305
TMP	-9306
agn	-9307
bất	-9308
đến	-9309
▁DQ	-9310
▁Mu	-9311
▁kẻ	-9312
▁me	-9313
atex	-9314
iana	-9315
▁148	-9316
▁16,	-9317
▁163	-9318
▁55%	-9319
▁8,0	-9320
▁Bud	-9321
▁Bôi	-9322
▁CNS	-9323
▁CSS	-9324
▁Des	-9325
▁FGF	-9326
▁Hom	-9327
▁IIb	-9328
▁KCB	-9329
▁Kem	-9330
▁Khá	-9331
▁MBH	-9332
▁Màu	-9333
▁NMR	-9334
▁SMA	-9335
▁bãi	-9336
▁cry	-9337
▁dặm	-9338
▁rọc	-9339
▁suc	-9340
▁tảo	-9341
0,7%,	-9342
acryl	-9343
idium	-9344
khold	-9345
▁0,36	-9346
▁10,6	-9347
▁Chel	-9348
▁Chân	-9349
▁MDCM	-9350
▁Nong	-9351
▁Penn	-9352
▁RLĐB	-9353
▁bêta	-9354
▁musc	-9355
utroph	-9356
▁chước	-9357
▁codon	-9358
ascular	-9359
liximab	-9360
▁(2012)	-9361
▁Fontan	-9362
▁12/2020	-9363
▁Barthel	-9364
▁2016-201	-9365
▁thiazide	-9366
▁dihydroxy	-9367
▁Plasmodium	-9368
▁Doxycycline	-9369
▁sarcoidosis	-9370
▁piperacillin	-9371
Sv	-9372
cả	-9373
ye	-9374
yg	-9375
ỡn	-9376
53,	-9377
ADH	-9378
cor	-9379
ied	-9380
sea	-9381
▁My	-9382
▁Tê	-9383
bình	-9384
rass	-9385
tính	-9386
▁11%	-9387
▁159	-9388
▁3/4	-9389
▁35.	-9390
▁87%	-9391
▁CML	-9392
▁Cán	-9393
▁Lục	-9394
▁RBC	-9395
▁Sup	-9396
▁Sáu	-9397
▁Sâu	-9398
▁cua	-9399
▁dừa	-9400
▁hal	-9401
▁hãm	-9402
▁quạ	-9403
▁quỹ	-9404
▁ưỡn	-9405
0,8%.	-9406
itril	-9407
ropyl	-9408
▁0,13	-9409
▁0,23	-9410
▁0,55	-9411
▁0,84	-9412
▁10,7	-9413
▁1992	-9414
▁MELD	-9415
▁Thảo	-9416
▁lãng	-9417
▁Đáng	-9418
0,8%).	-9419
active	-9420
▁Green	-9421
▁Louis	-9422
▁colch	-9423
▁crypt	-9424
▁sương	-9425
▁trinh	-9426
ideline	-9427
▁(2014)	-9428
▁3.2.1.	-9429
▁Northw	-9430
▁Pylori	-9431
▁Trương	-9432
emisinin	-9433
▁01/2016	-9434
▁Gleason	-9435
▁monocyt	-9436
athostoma	-9437
▁Stanford	-9438
▁imatinib	-9439
orvastatin	-9440
▁rotavirus	-9441
chloroquine	-9442
rofurantoin	-9443
▁Guidelines	-9444
▁leishmania	-9445
▁doxorubicin	-9446
▁homocystein	-9447
▁Tetracycline	-9448
▁Dexamethasone	-9449
Sch	-9450
bit	-9451
bàn	-9452
icl	-9453
▁CG	-9454
▁ED	-9455
▁Es	-9456
▁HQ	-9457
▁Il	-9458
▁hb	-9459
▁lé	-9460
imet	-9461
tiêm	-9462
▁44%	-9463
▁Alb	-9464
▁Cột	-9465
▁Max	-9466
▁TBI	-9467
▁XHN	-9468
▁chà	-9469
▁lab	-9470
▁toà	-9471
iterp	-9472
rosis	-9473
straZ	-9474
▁0,38	-9475
▁0,98	-9476
▁13,6	-9477
▁15,1	-9478
▁4.3.	-9479
▁BVĐK	-9480
▁Danh	-9481
▁Drug	-9482
▁Lưỡi	-9483
▁Mạng	-9484
▁SVRI	-9485
▁time	-9486
▁trưa	-9487
,33%),	-9488
0,3%),	-9489
azinon	-9490
▁Jones	-9491
▁choán	-9492
▁nifed	-9493
oposide	-9494
▁1/2012	-9495
▁Horner	-9496
▁heroin	-9497
▁urease	-9498
▁Pearson	-9499
kholderia	-9500
▁Shigella	-9501
▁glycogen	-9502
▁promoter	-9503
onolactone	-9504
straZeneca	-9505
▁calcitriol	-9506
▁Clindamycin	-9507
▁mycobacteria	-9508
▁cholinesterase	-9509
97	-9510
An	-9511
BQ	-9512
TE	-9513
UI	-9514
UV	-9515
WD	-9516
hs	-9517
pd	-9518
ÁN	-9519
,51	-9520
-0,	-9521
-28	-9522
PTT	-9523
eli	-9524
elm	-9525
mcg	-9526
phi	-9527
ser	-9528
xel	-9529
zid	-9530
▁AG	-9531
▁AZ	-9532
▁Bề	-9533
▁DR	-9534
▁Ec	-9535
▁Kr	-9536
▁OH	-9537
▁re	-9538
▁rũ	-9539
GDSK	-9540
NBTK	-9541
aliz	-9542
anti	-9543
bạch	-9544
odie	-9545
điển	-9546
▁13,	-9547
▁21,	-9548
▁22%	-9549
▁30)	-9550
▁9,0	-9551
▁CGM	-9552
▁Mat	-9553
▁PID	-9554
▁PTV	-9555
▁Tay	-9556
▁UTI	-9557
▁VWF	-9558
▁[12	-9559
▁ass	-9560
▁gãi	-9561
▁lim	-9562
▁đun	-9563
▁đúc	-9564
erner	-9565
ondon	-9566
vania	-9567
▁(6).	-9568
▁0,29	-9569
▁0,56	-9570
▁0,88	-9571
▁1,05	-9572
▁1200	-9573
▁1990	-9574
▁ANCA	-9575
▁CLGN	-9576
▁Care	-9577
▁Chol	-9578
▁Nile	-9579
▁PSQI	-9580
▁VKDT	-9581
▁adip	-9582
▁eGFR	-9583
▁nẵng	-9584
▁súng	-9585
▁trôi	-9586
▁Đinh	-9587
▁0.000	-9588
▁Marie	-9589
▁Stata	-9590
▁UTĐTT	-9591
▁Wilms	-9592
▁chánh	-9593
▁phiến	-9594
idomide	-9595
▁0,02).	-9596
▁0,03).	-9597
▁1/2014	-9598
▁1/2017	-9599
▁purine	-9600
▁vector	-9601
sylvania	-9602
▁Richard	-9603
▁Clinical	-9604
▁Paclitaxel	-9605
▁Pennsylvania	-9606
▁immunoglobulin	-9607
BO	-9608
OG	-9609
hl	-9610
Par	-9611
olv	-9612
teg	-9613
▁AE	-9614
▁MU	-9615
▁Vỏ	-9616
3%),	-9617
IADH	-9618
olog	-9619
wann	-9620
ward	-9621
ysin	-9622
▁(90	-9623
▁-0,	-9624
▁34%	-9625
▁82%	-9626
▁9,7	-9627
▁AMH	-9628
▁AVF	-9629
▁CLL	-9630
▁CWI	-9631
▁EEG	-9632
▁GOS	-9633
▁Hib	-9634
▁MTB	-9635
▁Nút	-9636
▁QLQ	-9637
▁Quả	-9638
▁UVB	-9639
▁chả	-9640
▁hex	-9641
▁săn	-9642
▁tám	-9643
0,5%)	-9644
acill	-9645
aziqu	-9646
ellet	-9647
iosis	-9648
oniac	-9649
psone	-9650
ucleo	-9651
▁14,4	-9652
▁Giao	-9653
▁Stud	-9654
▁TVUS	-9655
▁Tùng	-9656
▁phạt	-9657
▁quặt	-9658
▁điếu	-9659
0,9%),	-9660
arcoma	-9661
methyl	-9662
openia	-9663
uctase	-9664
▁2000.	-9665
▁2003.	-9666
▁KDIGO	-9667
▁SIADH	-9668
▁khuất	-9669
medetom	-9670
okinase	-9671
▁(75%),	-9672
▁66,7%.	-9673
▁camera	-9674
▁dapsone	-9675
acyclovir	-9676
aziquantel	-9677
thalazinon	-9678
▁lactulose	-9679
▁meloxicam	-9680
▁plasminogen	-9681
▁aminoglycoside	-9682
▁cyclophosphamid	-9683
DO	-9684
▁ụ	-9685
-40	-9686
BHS	-9687
DSM	-9688
TĐN	-9689
hay	-9690
iod	-9691
tim	-9692
tra	-9693
▁-5	-9694
▁Hs	-9695
▁[4	-9696
▁dĩ	-9697
▁rt	-9698
▁tý	-9699
▁ĐO	-9700
CLCS	-9701
MARD	-9702
MVQD	-9703
RFLP	-9704
enol	-9705
▁(70	-9706
▁15,	-9707
▁19%	-9708
▁203	-9709
▁216	-9710
▁235	-9711
▁52%	-9712
▁CTA	-9713
▁Ham	-9714
▁Mex	-9715
▁PEU	-9716
▁VSD	-9717
▁hol	-9718
▁mút	-9719
▁trơ	-9720
▁tựa	-9721
gamma	-9722
ocerc	-9723
quenc	-9724
uchia	-9725
▁(1,2	-9726
▁(198	-9727
▁0,39	-9728
▁1,08	-9729
▁13,7	-9730
▁8,3%	-9731
▁CSTL	-9732
▁Chùm	-9733
▁Dũng	-9734
▁Prot	-9735
▁VNTT	-9736
▁Wern	-9737
▁barb	-9738
▁thun	-9739
▁thẹn	-9740
enafil	-9741
imumab	-9742
orphin	-9743
▁0,05%	-9744
▁khống	-9745
▁pôlýp	-9746
▁Rankin	-9747
▁galact	-9748
ansetron	-9749
eptidase	-9750
▁Holmium	-9751
▁diphenh	-9752
▁10/2021.	-9753
▁Wernicke	-9754
▁fluoresc	-9755
▁Infection	-9756
▁midazolam	-9757
▁myoglobin	-9758
▁Leishmania	-9759
▁Triglycerid	-9760
▁Lactobacillus	-9761
93	-9762
FE	-9763
Me	-9764
UA	-9765
bn	-9766
lt	-9767
mô	-9768
,90	-9769
/40	-9770
DDS	-9771
PSA	-9772
ape	-9773
dao	-9774
der	-9775
lei	-9776
met	-9777
▁8)	-9778
▁Sở	-9779
▁be	-9780
▁cy	-9781
enal	-9782
sack	-9783
steo	-9784
stig	-9785
thấp	-9786
▁39%	-9787
▁71%	-9788
▁BYT	-9789
▁Bột	-9790
▁CAL	-9791
▁Lây	-9792
▁Nhờ	-9793
▁Pat	-9794
▁Vảy	-9795
▁det	-9796
▁med	-9797
▁rèn	-9798
0,4%.	-9799
idone	-9800
▁0,34	-9801
▁0,62	-9802
▁1,5%	-9803
▁10-3	-9804
▁14,1	-9805
▁5-10	-9806
▁6,5%	-9807
▁Asen	-9808
▁IVUS	-9809
▁Khoá	-9810
▁Vũng	-9811
▁carr	-9812
▁chét	-9813
/2005.	-9814
▁0,003	-9815
▁0,01,	-9816
▁Brian	-9817
▁50.000	-9818
▁VPLQTM	-9819
▁acetic	-9820
▁10/2014	-9821
mopressin	-9822
▁Propofol	-9823
▁Services	-9824
▁positron	-9825
▁thrombop	-9826
▁Aminoglyc	-9827
▁furosemide	-9828
▁phosphodie	-9829
▁Cryptococcus	-9830
▁triamcinolone	-9831
As	-9832
ha	-9833
NTT	-9834
QoL	-9835
ago	-9836
air	-9837
mus	-9838
▁-,	-9839
▁8:	-9840
▁Go	-9841
▁Od	-9842
▁Ol	-9843
▁SR	-9844
angi	-9845
bazơ	-9846
brid	-9847
cher	-9848
ever	-9849
iger	-9850
olar	-9851
phần	-9852
thận	-9853
▁(0.	-9854
▁-2,	-9855
▁28%	-9856
▁32%	-9857
▁AHI	-9858
▁ANO	-9859
▁Bạo	-9860
▁CPR	-9861
▁CTC	-9862
▁Dis	-9863
▁MÁU	-9864
▁Mắc	-9865
▁Pan	-9866
▁USP	-9867
▁cào	-9868
▁dùi	-9869
▁ngõ	-9870
▁xyl	-9871
-2014	-9872
actor	-9873
dgkin	-9874
ephed	-9875
▁0,77	-9876
▁0,78	-9877
▁0,87	-9878
▁18,4	-9879
▁GIST	-9880
▁Mảng	-9881
▁Ngân	-9882
▁Thuỵ	-9883
▁hydr	-9884
▁phyt	-9885
▁Đống	-9886
iferol	-9887
osomal	-9888
▁6,7%.	-9889
▁Anton	-9890
▁NKĐTN	-9891
▁Wolff	-9892
▁omega	-9893
oniazid	-9894
ramycin	-9895
▁1/2008	-9896
▁1/2016	-9897
▁1/2021	-9898
▁Khuyết	-9899
arcillin	-9900
▁10/2020	-9901
▁hodgkin	-9902
▁silicon	-9903
ecitabine	-9904
▁Listeria	-9905
▁peroxide	-9906
▁sulfonyl	-9907
▁isoniazid	-9908
▁tenofovir	-9909
fetoprotein	-9910
▁Mycoplasma	-9911
▁guidelines	-9912
▁carboplatin	-9913
")	-9914
UB	-9915
ASH	-9916
HTD	-9917
IgG	-9918
TAP	-9919
isa	-9920
ote	-9921
▁Bị	-9922
▁Ia	-9923
-131	-9924
2%).	-9925
chis	-9926
dịch	-9927
khối	-9928
ngón	-9929
tham	-9930
▁89%	-9931
▁99%	-9932
▁GMD	-9933
▁KCN	-9934
▁Nem	-9935
▁PCV	-9936
▁Rịa	-9937
▁Sen	-9938
▁THK	-9939
▁chẻ	-9940
▁cox	-9941
▁gra	-9942
▁lor	-9943
▁sil	-9944
▁ếch	-9945
ELISA	-9946
auman	-9947
ondii	-9948
▁0,3%	-9949
▁0,33	-9950
▁0,46	-9951
▁0,91	-9952
▁12%.	-9953
▁13,1	-9954
▁17,5	-9955
▁Diệp	-9956
▁Thức	-9957
▁coag	-9958
▁ngập	-9959
▁nhạc	-9960
▁thán	-9961
▁trại	-9962
▁Đoạn	-9963
0,5%).	-9964
avirin	-9965
sackie	-9966
▁37,5%	-9967
▁Excel	-9968
▁Stein	-9969
▁bilan	-9970
▁khoai	-9971
arabine	-9972
plasmin	-9973
poridia	-9974
▁1.1.1.	-9975
▁London	-9976
▁Strong	-9977
phylline	-9978
▁12/2019	-9979
▁Bismuth	-9980
▁monitor	-9981
romatosis	-9982
▁2017-201	-9983
▁dimethyl	-9984
uloplasmin	-9985
▁porphyria	-9986
▁fluorouracil	-9987
▁polysaccharide	-9988
AM	-9989
KV	-9990
VV	-9991
sw	-9992
▁,	-9993
CRT	-9994
ICI	-9995
JCC	-9996
TĐT	-9997
ait	-9998
cảm	-9999
giờ	-10000
nof	-10001
ềng	-10002
▁+.	-10003
▁FS	-10004
▁ổi	-10005
amph	-10006
ened	-10007
ight	-10008
ombs	-10009
phat	-10010
rest	-10011
▁(5)	-10012
▁(6)	-10013
▁1/6	-10014
▁Bal	-10015
▁Bụp	-10016
▁EPO	-10017
▁GAD	-10018
▁GED	-10019
▁INF	-10020
▁LAM	-10021
▁NDM	-10022
▁Sắt	-10023
▁Sửa	-10024
▁cap	-10025
▁mTc	-10026
▁mời	-10027
▁son	-10028
▁vul	-10029
0,6%)	-10030
Chúng	-10031
chlor	-10032
▁(10,	-10033
▁0,54	-10034
▁0,58	-10035
▁0,68	-10036
▁0,92	-10037
▁14,6	-10038
▁3/1.	-10039
▁37,5	-10040
▁40,3	-10041
▁FeNO	-10042
▁IIIa	-10043
▁Kell	-10044
▁Pugh	-10045
▁TRAb	-10046
▁VDCĐ	-10047
▁VMAT	-10048
▁banh	-10049
▁canh	-10050
▁spec	-10051
,67%).	-10052
▁(10%)	-10053
▁13,3%	-10054
▁ANOVA	-10055
▁Nhánh	-10056
▁PiCCO	-10057
▁khiêm	-10058
▁nhúng	-10059
▁shock	-10060
yloides	-10061
▁(2015)	-10062
▁16,7%,	-10063
BioNTech	-10064
oxaparin	-10065
ydramine	-10066
▁0,002).	-10067
▁Chelsea	-10068
▁Giardia	-10069
ylcholine	-10070
▁Estrogen	-10071
▁platinum	-10072
▁thrombin	-10073
▁beryllium	-10074
▁Hematocrit	-10075
▁calcitonin	-10076
▁management	-10077
▁Bevacizumab	-10078
▁ceftazidime	-10079
▁Burkholderia	-10080
07	-10081
EL	-10082
TW	-10083
MNS	-10084
Ngh	-10085
STP	-10086
UTT	-10087
YTT	-10088
gab	-10089
sốt	-10090
▁AX	-10091
▁Mê	-10092
▁SY	-10093
▁VR	-10094
▁lề	-10095
dùng	-10096
đánh	-10097
định	-10098
▁183	-10099
▁23%	-10100
▁3.0	-10101
▁31%	-10102
▁91%	-10103
▁Ald	-10104
▁DFS	-10105
▁IBS	-10106
▁Lin	-10107
▁but	-10108
▁hôm	-10109
▁mạo	-10110
▁rub	-10111
▁rạc	-10112
▁đậy	-10113
mouth	-10114
ĐMVQD	-10115
▁0,42	-10116
▁0,47	-10117
▁0,48	-10118
▁0,64	-10119
▁0,69	-10120
▁18,7	-10121
▁BNBM	-10122
▁HSCC	-10123
▁Khai	-10124
▁NGUY	-10125
▁NĐCM	-10126
▁RLCD	-10127
▁gien	-10128
▁Đứng	-10129
strong	-10130
▁Chiết	-10131
▁Longo	-10132
▁Score	-10133
▁Thạnh	-10134
▁latex	-10135
▁migra	-10136
ammadex	-10137
aumanii	-10138
odgrass	-10139
▁Bacter	-10140
▁nghiến	-10141
▁amoniac	-10142
▁nucleos	-10143
osfomycin	-10144
adrenergic	-10145
hemoglobin	-10146
evofloxacin	-10147
▁ropivacaine	-10148
▁Streptococci	-10149
▁Acetaminophen	-10150
PW	-10151
ùa	-10152
ATP	-10153
CVS	-10154
DTA	-10155
NIH	-10156
Vis	-10157
ela	-10158
eur	-10159
osc	-10160
ĐMC	-10161
▁4;	-10162
▁Bí	-10163
▁tã	-10164
-0,8	-10165
ORTC	-10166
agas	-10167
elod	-10168
emet	-10169
tiểu	-10170
uống	-10171
vùng	-10172
▁(2.	-10173
▁1/8	-10174
▁4%,	-10175
▁63%	-10176
▁7-8	-10177
▁81%	-10178
▁93%	-10179
▁ACC	-10180
▁Apo	-10181
▁Epi	-10182
▁Jul	-10183
▁Phì	-10184
▁REM	-10185
▁TST	-10186
▁TĐS	-10187
▁dép	-10188
▁mSv	-10189
▁mut	-10190
▁ngu	-10191
▁peg	-10192
▁Đậu	-10193
▁đạn	-10194
-2008	-10195
0,7%)	-10196
ality	-10197
astro	-10198
miệng	-10199
▁(0,1	-10200
▁(2,5	-10201
▁0,73	-10202
▁0,86	-10203
▁0,94	-10204
▁1,13	-10205
▁15,8	-10206
▁19,5	-10207
▁5/1.	-10208
▁CTSN	-10209
▁HTLV	-10210
▁Xoay	-10211
▁khay	-10212
▁liếc	-10213
▁nanh	-10214
▁proc	-10215
▁xong	-10216
ospora	-10217
ularis	-10218
▁Lidoc	-10219
▁alkyl	-10220
▁BVMĐTĐ	-10221
▁Lerner	-10222
▁Lympho	-10223
▁gluten	-10224
ocycline	-10225
utrophil	-10226
▁carrage	-10227
▁retinol	-10228
▁Corticoid	-10229
oxifloxacin	-10230
▁Huntington	-10231
▁tetrahydro	-10232
▁clavulanate	-10233
▁methimazole	-10234
▁Erythromycin	-10235
▁prednisolone	-10236
▁Immunoglobulin	-10237
87	-10238
về	-10239
,41	-10240
,60	-10241
3%)	-10242
VAS	-10243
gel	-10244
hal	-10245
▁Bờ	-10246
▁Cp	-10247
▁KN	-10248
▁Mẹ	-10249
▁Op	-10250
▁PK	-10251
▁Tc	-10252
▁Tứ	-10253
▁VC	-10254
HKTM	-10255
afin	-10256
ypan	-10257
▁184	-10258
▁206	-10259
▁230	-10260
▁26.	-10261
▁4%.	-10262
▁700	-10263
▁77%	-10264
▁8/1	-10265
▁84%	-10266
▁ADL	-10267
▁CAT	-10268
▁CIN	-10269
▁Div	-10270
▁Hay	-10271
▁Hỏi	-10272
▁LAS	-10273
▁PEG	-10274
▁PRP	-10275
▁Phá	-10276
▁Trì	-10277
▁gin	-10278
▁rem	-10279
0,8%)	-10280
ocmon	-10281
▁0,22	-10282
▁0,24	-10283
▁0,71	-10284
▁17,3	-10285
▁19-9	-10286
▁BATT	-10287
▁Mark	-10288
▁Phức	-10289
▁Trào	-10290
▁dich	-10291
0,4%),	-10292
▁01/10	-10293
▁20.0.	-10294
▁ALĐMP	-10295
▁Miles	-10296
desivir	-10297
▁(40%),	-10298
▁0,0001.	-10299
▁Lactate	-10300
▁caffein	-10301
▁ricketts	-10302
emcitabine	-10303
▁Rotavirus	-10304
▁clavulanic	-10305
▁phenylephrine	-10306
57	-10307
SK	-10308
VE	-10309
YH	-10310
dạ	-10311
mb	-10312
nữ	-10313
-75	-10314
214	-10315
giá	-10316
mỗi	-10317
xác	-10318
zin	-10319
▁*,	-10320
▁bo	-10321
ARDS	-10322
HATT	-10323
apol	-10324
enne	-10325
hiệu	-10326
nhịp	-10327
nặng	-10328
tổng	-10329
▁(01	-10330
▁0).	-10331
▁172	-10332
▁2%,	-10333
▁2/2	-10334
▁260	-10335
▁384	-10336
▁8%.	-10337
▁AMD	-10338
▁KLN	-10339
▁Lab	-10340
▁RCC	-10341
▁TMA	-10342
▁UTN	-10343
▁bồi	-10344
▁cor	-10345
▁gấu	-10346
▁lèn	-10347
▁mir	-10348
▁ngô	-10349
▁nát	-10350
▁vát	-10351
▁Đạo	-10352
atran	-10353
▁16,1	-10354
▁16,7	-10355
▁17,2	-10356
▁17,6	-10357
▁17,7	-10358
▁96%,	-10359
▁Anal	-10360
▁Bren	-10361
▁CHOP	-10362
▁FIGO	-10363
▁HRCT	-10364
▁Para	-10365
▁Tuấn	-10366
▁VTPQ	-10367
▁buôn	-10368
▁tech	-10369
,33%).	-10370
0,3%).	-10371
netium	-10372
nguyên	-10373
osamin	-10374
uroxim	-10375
▁(25%)	-10376
▁15-49	-10377
▁EORTC	-10378
▁Peter	-10379
▁actin	-10380
▁deoxy	-10381
▁nitro	-10382
▁(80%),	-10383
▁Chagas	-10384
▁Christ	-10385
▁Fluoro	-10386
▁Geisel	-10387
▁Karnof	-10388
▁cement	-10389
▁chuyền	-10390
▁planar	-10391
erapamil	-10392
▁epiderm	-10393
oconazole	-10394
▁06/2021.	-10395
▁Dartmouth	-10396
▁glutamate	-10397
▁Assessment	-10398
▁lamivudine	-10399
▁tyrosinase	-10400
olipoprotein	-10401
▁protoporphy	-10402
▁carbamazepine	-10403
51	-10404
Os	-10405
PQ	-10406
SF	-10407
ợc	-10408
ừu	-10409
-29	-10410
CMT	-10411
RIF	-10412
TTL	-10413
ics	-10414
sth	-10415
▁DH	-10416
▁LƯ	-10417
▁av	-10418
▁fl	-10419
▁ga	-10420
▁gồ	-10421
2%),	-10422
ESBL	-10423
iden	-10424
ifep	-10425
itur	-10426
neff	-10427
onal	-10428
type	-10429
xuất	-10430
Đánh	-10431
▁1-5	-10432
▁178	-10433
▁6-8	-10434
▁62%	-10435
▁68%	-10436
▁CLS	-10437
▁Dig	-10438
▁PCS	-10439
▁PXN	-10440
▁Xâm	-10441
▁cad	-10442
▁dẹt	-10443
▁gác	-10444
Dimer	-10445
ansas	-10446
icago	-10447
▁16,4	-10448
▁2,9%	-10449
▁48,5	-10450
▁Cons	-10451
▁GTTS	-10452
▁HĐTL	-10453
▁Kcal	-10454
▁MLPA	-10455
▁PNCT	-10456
▁Plus	-10457
▁TKMP	-10458
▁Thải	-10459
▁VEGF	-10460
▁VGSV	-10461
▁chói	-10462
▁hiếp	-10463
▁mass	-10464
▁thal	-10465
▁vừng	-10466
,67%),	-10467
/2011,	-10468
cinoma	-10469
ension	-10470
lastin	-10471
ogenic	-10472
onazol	-10473
ophila	-10474
▁0,9%.	-10475
▁2022,	-10476
▁62,5%	-10477
▁Adren	-10478
▁Chóng	-10479
coralis	-10480
omallei	-10481
ringens	-10482
▁(50%).	-10483
▁2.1.1.	-10484
▁83,3%,	-10485
odextrin	-10486
▁01/2008	-10487
amethason	-10488
operazone	-10489
▁clonidin	-10490
omeprazole	-10491
▁magnesium	-10492
▁nucleotid	-10493
▁Toxoplasma	-10494
▁fluorescein	-10495
▁perfringens	-10496
▁rivaroxaban	-10497
▁stercoralis	-10498
▁Triglyceride	-10499
▁meningitidis	-10500
▁Metronidazole	-10501
▁Procalcitonin	-10502
▁Staphylococci	-10503
▁benzodiazepin	-10504
▁phenobarbital	-10505
▁spironolactone	-10506
▁Chloramphenicol	-10507
PO	-10508
-1.	-10509
-35	-10510
/33	-10511
ART	-10512
CIP	-10513
den	-10514
erb	-10515
igu	-10516
ilm	-10517
ipp	-10518
khu	-10519
lad	-10520
lus	-10521
môn	-10522
yte	-10523
▁Bọ	-10524
▁Er	-10525
▁HƯ	-10526
▁Xã	-10527
▁ĐA	-10528
,86%	-10529
...)	-10530
CHOP	-10531
gram	-10532
ours	-10533
phát	-10534
ylob	-10535
▁174	-10536
▁19,	-10537
▁256	-10538
▁27%	-10539
▁5),	-10540
▁53%	-10541
▁56%	-10542
▁Arm	-10543
▁Fox	-10544
▁HPT	-10545
▁PRI	-10546
▁Phế	-10547
▁RCL	-10548
▁SNA	-10549
▁SRP	-10550
▁TRƯ	-10551
▁Trĩ	-10552
▁Vẫn	-10553
▁coc	-10554
▁cúi	-10555
▁kít	-10556
▁méo	-10557
▁sit	-10558
▁sạm	-10559
agrel	-10560
icard	-10561
ulium	-10562
ytica	-10563
▁(1,1	-10564
▁0,67	-10565
▁0,74	-10566
▁100)	-10567
▁3,2%	-10568
▁4,8%	-10569
▁85%.	-10570
▁9,1%	-10571
▁CSHQ	-10572
▁CSWS	-10573
▁DASS	-10574
▁Glyc	-10575
▁Ngất	-10576
▁PĐTT	-10577
▁QSAR	-10578
▁TCVS	-10579
▁bari	-10580
▁chảo	-10581
▁citr	-10582
▁vườn	-10583
▁xông	-10584
▁UNBTK	-10585
▁khánh	-10586
▁quăng	-10587
acebook	-10588
lotinib	-10589
ococcal	-10590
optosis	-10591
rinogen	-10592
▁(10%),	-10593
▁1.3.1.	-10594
▁NSAIDs	-10595
▁silico	-10596
aryotype	-10597
▁12/2018	-10598
▁Cornell	-10599
▁alanine	-10600
azolamide	-10601
▁hydrogen	-10602
▁coagulase	-10603
▁Rickettsia	-10604
▁polyethylene	-10605
▁valacyclovir	-10606
BB	-10607
Gn	-10608
OI	-10609
-48	-10610
/50	-10611
MIC	-10612
TNT	-10613
ena	-10614
oáy	-10615
rEF	-10616
row	-10617
▁1*	-10618
▁LF	-10619
▁NV	-10620
▁bá	-10621
▁ki	-10622
▁xí	-10623
ERCP	-10624
NVYT	-10625
aemp	-10626
agen	-10627
ocus	-10628
omer	-10629
tern	-10630
ysis	-10631
▁177	-10632
▁182	-10633
▁3/1	-10634
▁83%	-10635
▁ABL	-10636
▁BÁC	-10637
▁CAM	-10638
▁DXA	-10639
▁FRA	-10640
▁ISS	-10641
▁Muc	-10642
▁NSE	-10643
▁POS	-10644
▁TBG	-10645
▁Tuỵ	-10646
▁Vib	-10647
▁asc	-10648
▁cưa	-10649
▁kPa	-10650
▁lửa	-10651
▁phả	-10652
▁tum	-10653
▁Đài	-10654
-2020	-10655
0,9%)	-10656
betes	-10657
eport	-10658
idate	-10659
osoma	-10660
ulmon	-10661
yroid	-10662
▁(-),	-10663
▁(0,9	-10664
▁0,32	-10665
▁1,15	-10666
▁2/1.	-10667
▁23,8	-10668
▁30,6	-10669
▁65%.	-10670
▁Bóng	-10671
▁Giật	-10672
▁PCEA	-10673
▁TKCC	-10674
▁dise	-10675
▁myel	-10676
▁mười	-10677
▁ngàn	-10678
▁xăng	-10679
▁Đảng	-10680
BPTNMT	-10681
acetic	-10682
entine	-10683
keting	-10684
neffei	-10685
▁01/07	-10686
▁2015,	-10687
▁6,7%,	-10688
▁Wells	-10689
▁index	-10690
▁oxide	-10691
aempfer	-10692
eprazol	-10693
ineurin	-10694
loxapol	-10695
ristone	-10696
▁(2016)	-10697
▁83,3%.	-10698
▁87,5%.	-10699
▁Edward	-10700
▁Lactat	-10701
phosphat	-10702
▁10/2015	-10703
▁6/2019.	-10704
▁Barrett	-10705
▁Chicago	-10706
▁bismuth	-10707
ylobacter	-10708
▁Medicare	-10709
▁Multiplex	-10710
▁Pemphigoid	-10711
▁Prednisone	-10712
▁monocytogenes	-10713
▁diphenhydramine	-10714
Ac	-10715
KK	-10716
LH	-10717
PĐ	-10718
St	-10719
tz	-10720
ím	-10721
-45	-10722
/02	-10723
/06	-10724
/90	-10725
CAM	-10726
GTT	-10727
HIV	-10728
MRC	-10729
ark	-10730
ars	-10731
cul	-10732
rex	-10733
▁Cô	-10734
▁Ib	-10735
▁Mg	-10736
▁Nd	-10737
▁Po	-10738
▁sm	-10739
,25%	-10740
epon	-10741
eyer	-10742
họng	-10743
orth	-10744
oxid	-10745
▁420	-10746
▁7).	-10747
▁86%	-10748
▁Ash	-10749
▁EFS	-10750
▁Gòn	-10751
▁Mày	-10752
▁NSM	-10753
▁STR	-10754
▁TGF	-10755
▁Tôi	-10756
▁Wak	-10757
▁gòn	-10758
▁ker	-10759
▁mod	-10760
0,2%,	-10761
0,4%,	-10762
aster	-10763
enger	-10764
ental	-10765
kinin	-10766
mitte	-10767
terol	-10768
▁(0,4	-10769
▁21,7	-10770
▁21-1	-10771
▁24,5	-10772
▁30/6	-10773
▁3000	-10774
▁35%,	-10775
▁AJCC	-10776
▁Bank	-10777
▁Bost	-10778
▁Brom	-10779
▁Cuộc	-10780
▁Euro	-10781
▁GMDT	-10782
▁Nghề	-10783
▁SCID	-10784
▁Sảng	-10785
▁Thói	-10786
▁VPCĐ	-10787
▁Vãng	-10788
▁apoB	-10789
▁caps	-10790
▁chun	-10791
▁cuff	-10792
▁pall	-10793
▁thạo	-10794
▁trốn	-10795
▁vạch	-10796
▁2000,	-10797
▁2011,	-10798
▁BTNDD	-10799
▁ngoáy	-10800
▁score	-10801
▁topir	-10802
amylase	-10803
gestrel	-10804
oprolol	-10805
▁12,5%.	-10806
▁Denise	-10807
▁Gerald	-10808
▁Mexico	-10809
▁Taenia	-10810
▁florua	-10811
▁pellet	-10812
▁phenol	-10813
ukinumab	-10814
▁Lymphôm	-10815
▁(33,3%),	-10816
▁Diseases	-10817
▁berberin	-10818
▁clostrid	-10819
ebendazole	-10820
onorgestrel	-10821
▁amitriptyl	-10822
▁phosphoryl	-10823
▁topiramate	-10824
▁trichomonas	-10825
▁Levofloxacin	-10826
IS	-10827
pC	-10828
/61	-10829
ABL	-10830
DIC	-10831
NMR	-10832
lic	-10833
lik	-10834
rea	-10835
xét	-10836
▁Au	-10837
▁EG	-10838
▁PB	-10839
▁Si	-10840
▁rẽ	-10841
▁êm	-10842
▁ạt	-10843
agne	-10844
aire	-10845
ehan	-10846
idol	-10847
istr	-10848
liên	-10849
ngay	-10850
▁000	-10851
▁189	-10852
▁5/1	-10853
▁58%	-10854
▁62.	-10855
▁Ami	-10856
▁LKH	-10857
▁MAU	-10858
▁Mer	-10859
▁PTB	-10860
▁She	-10861
▁Sok	-10862
▁UNG	-10863
▁VNC	-10864
▁dưa	-10865
▁gắt	-10866
▁iso	-10867
▁mit	-10868
▁pat	-10869
Trong	-10870
eptit	-10871
odone	-10872
ylate	-10873
▁(1):	-10874
▁(202	-10875
▁-0,6	-10876
▁0,09	-10877
▁0,45	-10878
▁0,53	-10879
▁0,79	-10880
▁1,16	-10881
▁15%,	-10882
▁16,2	-10883
▁21,1	-10884
▁3,4%	-10885
▁90,3	-10886
▁BVNĐ	-10887
▁Fluc	-10888
▁Henn	-10889
▁Khái	-10890
▁Oddi	-10891
▁Song	-10892
▁TMDD	-10893
▁Thuỳ	-10894
▁nhọt	-10895
▁phán	-10896
▁thìa	-10897
anthin	-10898
oblast	-10899
▁(20%)	-10900
▁(2001	-10901
▁(60%)	-10902
▁0,002	-10903
▁1,4%.	-10904
▁GABHS	-10905
olytica	-10906
▁6/2018	-10907
▁Oxygen	-10908
▁cytoch	-10909
▁micros	-10910
▁01/2021	-10911
omethacin	-10912
▁Internet	-10913
▁creatine	-10914
▁fructose	-10915
▁Pemphigus	-10916
amphetamine	-10917
transferase	-10918
▁Bupivacain	-10919
▁cryoglobulin	-10920
▁pseudomallei	-10921
▁thyroglobulin	-10922
▁levobupivacaine	-10923
BĐ	-10924
PB	-10925
hệ	-10926
đã	-10927
▁ồ	-10928
CJD	-10929
ESR	-10930
PDS	-10931
TCM	-10932
ger	-10933
omm	-10934
osh	-10935
pix	-10936
rio	-10937
▁Bn	-10938
▁Bv	-10939
▁Lp	-10940
▁PG	-10941
▁Pe	-10942
▁Vú	-10943
▁kị	-10944
-17,	-10945
aker	-10946
akin	-10947
amyl	-10948
asai	-10949
cell	-10950
eles	-10951
inia	-10952
ocal	-10953
ocol	-10954
odes	-10955
osal	-10956
ruột	-10957
vers	-10958
▁-12	-10959
▁1/7	-10960
▁23)	-10961
▁330	-10962
▁36%	-10963
▁47%	-10964
▁65.	-10965
▁ACh	-10966
▁Art	-10967
▁Bây	-10968
▁CAD	-10969
▁Câu	-10970
▁Eye	-10971
▁KOH	-10972
▁Kẹp	-10973
▁Mad	-10974
▁Noc	-10975
▁Tei	-10976
▁VIS	-10977
▁búa	-10978
▁cừu	-10979
▁lay	-10980
▁món	-10981
▁nạc	-10982
▁sug	-10983
▁đắn	-10984
erapy	-10985
inski	-10986
nhiệt	-10987
▁0,11	-10988
▁0,27	-10989
▁0,50	-10990
▁115.	-10991
▁13,9	-10992
▁15,9	-10993
▁6-12	-10994
▁Mart	-10995
▁Nuốt	-10996
▁Phép	-10997
▁Tdap	-10998
▁Thâm	-10999
▁Tách	-11000
▁VLTL	-11001
▁mult	-11002
▁ngan	-11003
▁pyro	-11004
▁sưởi	-11005
▁trộm	-11006
Nghiên	-11007
▁15,6%	-11008
▁4,3%.	-11009
▁Centr	-11010
▁Thịnh	-11011
▁asiat	-11012
▁chuôi	-11013
UTPKTBN	-11014
pixaban	-11015
▁(25%),	-11016
▁1.2.1.	-11017
▁6/2014	-11018
▁Baylor	-11019
▁Brenda	-11020
▁CTscan	-11021
▁Tesini	-11022
▁0.001).	-11023
▁Whitney	-11024
▁alkaline	-11025
▁atropine	-11026
▁carcinom	-11027
▁naloxone	-11028
▁pallidum	-11029
sackievirus	-11030
ochromatosis	-11031
▁AstraZeneca	-11032
▁Campylobacter	-11033
▁ceruloplasmin	-11034
▁apolipoprotein	-11035
▁aminoglycosides	-11036
86	-11037
CK	-11038
Ci	-11039
GB	-11040
SL	-11041
fr	-11042
kỹ	-11043
tử	-11044
-3)	-11045
/80	-11046
20,	-11047
8%)	-11048
IFN	-11049
NAT	-11050
NST	-11051
NTK	-11052
OTA	-11053
TSK	-11054
ext	-11055
lue	-11056
ops	-11057
tah	-11058
▁Bố	-11059
▁HK	-11060
▁Ký	-11061
▁NP	-11062
▁cT	-11063
▁ov	-11064
▁đỗ	-11065
IPPV	-11066
SCLC	-11067
SXHD	-11068
anon	-11069
arrh	-11070
ator	-11071
auss	-11072
beam	-11073
esun	-11074
holm	-11075
kích	-11076
oxit	-11077
thái	-11078
ural	-11079
▁(80	-11080
▁1-4	-11081
▁310	-11082
▁32.	-11083
▁61%	-11084
▁Aut	-11085
▁CUR	-11086
▁Cúm	-11087
▁Eis	-11088
▁JOA	-11089
▁Lứa	-11090
▁MAS	-11091
▁PAN	-11092
▁Pow	-11093
▁Rib	-11094
▁SOI	-11095
▁Sec	-11096
▁Sil	-11097
▁bur	-11098
▁chở	-11099
▁lội	-11100
▁rắc	-11101
▁tre	-11102
0,0%.	-11103
nhiều	-11104
oxine	-11105
tosan	-11106
▁-0,5	-11107
▁0,52	-11108
▁0,57	-11109
▁0,61	-11110
▁1,12	-11111
▁1,35	-11112
▁14,9	-11113
▁18,3	-11114
▁2,8%	-11115
▁5,9%	-11116
▁6-10	-11117
▁85%,	-11118
▁Alan	-11119
▁Chốc	-11120
▁ECOG	-11121
▁Fanc	-11122
▁HDAC	-11123
▁KHPM	-11124
▁Roux	-11125
▁Thắt	-11126
▁Year	-11127
▁dyst	-11128
▁gall	-11129
▁kỉnh	-11130
▁rale	-11131
▁thóp	-11132
aucoma	-11133
ercept	-11134
nitine	-11135
zapine	-11136
▁2005,	-11137
▁85,7%	-11138
▁Cardi	-11139
▁Huyện	-11140
▁Miếng	-11141
▁Nghĩa	-11142
▁Retin	-11143
▁somat	-11144
oflavin	-11145
▁16,7%.	-11146
▁4.3.1.	-11147
▁Eisenm	-11148
▁TCVSCP	-11149
▁Thượng	-11150
▁scopol	-11151
ilizumab	-11152
inovirus	-11153
▁Fanconi	-11154
▁Lysholm	-11155
▁Trimeth	-11156
▁citrate	-11157
▁paraben	-11158
Parkinson	-11159
ithrombin	-11160
ovascular	-11161
▁Campagne	-11162
▁liposome	-11163
▁Benzodiaz	-11164
▁Treatment	-11165
▁tyloxapol	-11166
ifepristone	-11167
▁octreotide	-11168
▁Albendazole	-11169
▁Trichomonas	-11170
▁adiponectin	-11171
▁artemisinin	-11172
▁calcineurin	-11173
▁dopaminergic	-11174
ZI	-11175
pv	-11176
rT	-11177
ìu	-11178
,20	-11179
-90	-11180
7%)	-11181
Chi	-11182
OAc	-11183
VGB	-11184
aOR	-11185
amb	-11186
ibe	-11187
ilt	-11188
ira	-11189
vit	-11190
ÁNG	-11191
▁-4	-11192
▁2-	-11193
▁GV	-11194
▁mt	-11195
▁ĐL	-11196
ider	-11197
iflo	-11198
ille	-11199
kitt	-11200
▁1.0	-11201
▁1.1	-11202
▁187	-11203
▁194	-11204
▁204	-11205
▁214	-11206
▁27.	-11207
▁6%.	-11208
▁66%	-11209
▁74%	-11210
▁ALA	-11211
▁BOP	-11212
▁Fre	-11213
▁PEF	-11214
▁PLR	-11215
▁Pha	-11216
▁RAS	-11217
▁RSD	-11218
▁SHH	-11219
▁STT	-11220
▁Sợi	-11221
▁UIV	-11222
▁gẫy	-11223
▁hối	-11224
▁súp	-11225
▁tph	-11226
,67%)	-11227
epsis	-11228
esper	-11229
field	-11230
ility	-11231
▁0,70	-11232
▁2,4%	-11233
▁22,5	-11234
▁Gent	-11235
▁Nuss	-11236
▁SAPS	-11237
▁Thật	-11238
▁lung	-11239
▁spin	-11240
▁đằng	-11241
/2015,	-11242
ercapt	-11243
nguyen	-11244
otoxin	-11245
rometh	-11246
trường	-11247
▁(30%)	-11248
▁2014,	-11249
▁31/05	-11250
▁86,7%	-11251
▁93,3%	-11252
▁Cương	-11253
▁Quỳnh	-11254
▁eosin	-11255
▁plasm	-11256
▁quyển	-11257
▁trăng	-11258
iflozin	-11259
▁(25%).	-11260
▁CTMVQD	-11261
▁Cephal	-11262
▁dermat	-11263
▁formol	-11264
▁niacin	-11265
olizumab	-11266
ulmonary	-11267
▁(66,7%)	-11268
▁6/2022.	-11269
▁CTĐMVQD	-11270
▁Sheehan	-11271
▁disease	-11272
adrenalin	-11273
▁Division	-11274
▁detector	-11275
osporidium	-11276
▁melatonin	-11277
▁ngannguyen	-11278
▁rocuronium	-11279
▁sevofluran	-11280
▁sugammadex	-11281
▁Bacteroides	-11282
▁Cyclophosph	-11283
▁cyclosporin	-11284
yprogesterone	-11285
▁maltodextrin	-11286
▁phenylalanine	-11287
▁Clarithromycin	-11288
LL	-11289
RC	-11290
TL	-11291
-21	-11292
ALY	-11293
STM	-11294
XHP	-11295
cần	-11296
dẫn	-11297
ias	-11298
oft	-11299
oya	-11300
pol	-11301
ỞNG	-11302
▁Iv	-11303
▁QF	-11304
▁bỉ	-11305
▁il	-11306
▁xy	-11307
▁xé	-11308
,71%	-11309
,75%	-11310
ECMO	-11311
MPCĐ	-11312
acob	-11313
cess	-11314
crof	-11315
dium	-11316
esis	-11317
ippi	-11318
thew	-11319
▁188	-11320
▁2.0	-11321
▁290	-11322
▁50)	-11323
▁78%	-11324
▁8%,	-11325
▁ABC	-11326
▁AFC	-11327
▁Bóc	-11328
▁CCS	-11329
▁Cur	-11330
▁DMP	-11331
▁FTT	-11332
▁ICS	-11333
▁MET	-11334
▁MNA	-11335
▁Mes	-11336
▁Môn	-11337
▁Non	-11338
▁Nov	-11339
▁PGT	-11340
▁RFA	-11341
▁TEM	-11342
▁TSG	-11343
▁Vối	-11344
▁doi	-11345
▁hột	-11346
▁iii	-11347
▁pan	-11348
White	-11349
ecker	-11350
ophag	-11351
ronic	-11352
uvate	-11353
▁(5%)	-11354
▁0,14	-11355
▁1,06	-11356
▁1,43	-11357
▁1,9%	-11358
▁20,9	-11359
▁23,5	-11360
▁3,3%	-11361
▁4,5%	-11362
▁4/1.	-11363
▁5,6%	-11364
▁Bụng	-11365
▁EDTA	-11366
▁Hoặc	-11367
▁MoCA	-11368
▁PAPP	-11369
▁Rika	-11370
▁SGPT	-11371
▁Sing	-11372
▁TTDD	-11373
▁Tháo	-11374
▁thối	-11375
▁xoài	-11376
/2013,	-11377
0,4%).	-11378
chenne	-11379
eptosp	-11380
ississ	-11381
lutide	-11382
oxifen	-11383
zoster	-11384
▁1.000	-11385
▁23,5%	-11386
▁28,6%	-11387
▁BCCDL	-11388
▁GEDVI	-11389
▁Polym	-11390
▁Thiểu	-11391
▁tphcm	-11392
gabalin	-11393
ionella	-11394
oxylase	-11395
▁33,3%;	-11396
▁6/2019	-11397
▁XQCLVT	-11398
▁gondii	-11399
▁proBNP	-11400
▁sodium	-11401
▁0,003).	-11402
▁06/2019	-11403
▁10/2013	-11404
▁10/2017	-11405
▁khuyếch	-11406
▁Facebook	-11407
▁Practice	-11408
▁barbitur	-11409
ississippi	-11410
▁quercetin	-11411
▁Eisenmenger	-11412
▁Histoplasma	-11413
▁Strongyloides	-11414
▁levonorgestrel	-11415
▁chloramphenicol	-11416
GK	-11417
MO	-11418
Sự	-11419
hi	-11420
pH	-11421
,80	-11422
125	-11423
AML	-11424
FOX	-11425
HSV	-11426
OCT	-11427
ORE	-11428
RAZ	-11429
ght	-11430
lar	-11431
ris	-11432
tho	-11433
vận	-11434
ươu	-11435
▁1/	-11436
▁BF	-11437
▁Bó	-11438
▁Kĩ	-11439
▁Kể	-11440
▁Ob	-11441
▁lổ	-11442
ANCA	-11443
UTYH	-11444
care	-11445
emic	-11446
icul	-11447
tình	-11448
wing	-11449
▁191	-11450
▁1:2	-11451
▁Cel	-11452
▁EFA	-11453
▁HTL	-11454
▁Hôn	-11455
▁IDH	-11456
▁IUI	-11457
▁MTQ	-11458
▁NNC	-11459
▁Nắm	-11460
▁SVR	-11461
▁TCI	-11462
▁Thụ	-11463
▁Typ	-11464
▁Vid	-11465
▁XHD	-11466
▁gla	-11467
▁hbv	-11468
▁mec	-11469
▁muc	-11470
▁trù	-11471
-2007	-11472
0,0%)	-11473
alact	-11474
retin	-11475
trans	-11476
ulism	-11477
zapin	-11478
▁(250	-11479
▁0,60	-11480
▁1,65	-11481
▁8,7%	-11482
▁95%;	-11483
▁DCTC	-11484
▁Epid	-11485
▁NASH	-11486
▁QCVN	-11487
▁Quần	-11488
▁Spec	-11489
▁Ster	-11490
▁TNTC	-11491
▁liêu	-11492
▁thẫm	-11493
/2012,	-11494
0,2%),	-11495
aximin	-11496
etaxel	-11497
iology	-11498
lavien	-11499
ngưỡng	-11500
▁16.0.	-11501
▁2,5%.	-11502
▁3,3%.	-11503
▁46,7%	-11504
▁Chánh	-11505
▁MUTYH	-11506
▁nhang	-11507
ampicin	-11508
itracin	-11509
▁(30%),	-11510
▁0,125%	-11511
▁20.000	-11512
▁3.3.1.	-11513
▁62,5%,	-11514
▁Vibrio	-11515
imidazol	-11516
osarcoma	-11517
▁Forrest	-11518
▁Nemours	-11519
ildenafil	-11520
▁0,0001),	-11521
▁Catheter	-11522
▁Cochrane	-11523
▁Cortisol	-11524
▁Diabetes	-11525
▁Lymphoma	-11526
▁marketing	-11527
▁valproate	-11528
▁Cyclosporine	-11529
▁Fluoroquinol	-11530
▁Piperacillin	-11531
▁transaminase	-11532
Am	-11533
BK	-11534
Cs	-11535
DE	-11536
DV	-11537
MĐ	-11538
xã	-11539
-22	-11540
-3,	-11541
-39	-11542
/28	-11543
/31	-11544
01,	-11545
ANP	-11546
IQR	-11547
MCB	-11548
TCL	-11549
ces	-11550
eau	-11551
gần	-11552
lis	-11553
pcr	-11554
rib	-11555
rất	-11556
teo	-11557
ull	-11558
▁PV	-11559
▁Sk	-11560
▁bl	-11561
HCCH	-11562
Pont	-11563
Sach	-11564
aron	-11565
cent	-11566
ifer	-11567
ites	-11568
pine	-11569
rich	-11570
ycop	-11571
▁169	-11572
▁192	-11573
▁265	-11574
▁29.	-11575
▁4/1	-11576
▁46%	-11577
▁Act	-11578
▁Ein	-11579
▁GAN	-11580
▁GLP	-11581
▁Gạc	-11582
▁IOL	-11583
▁IVA	-11584
▁Log	-11585
▁Lồi	-11586
▁MĐX	-11587
▁NNT	-11588
▁Ngủ	-11589
▁PIM	-11590
▁PSV	-11591
▁SaO	-11592
▁[10	-11593
▁dys	-11594
▁gấc	-11595
▁hõm	-11596
▁khỉ	-11597
0,4%)	-11598
Sachs	-11599
berta	-11600
chrom	-11601
▁1,07	-11602
▁1,14	-11603
▁1,23	-11604
▁1,32	-11605
▁1,45	-11606
▁1/1.	-11607
▁15,4	-11608
▁16,5	-11609
▁19,6	-11610
▁4,3%	-11611
▁50%)	-11612
▁70,3	-11613
▁Buôn	-11614
▁Dmax	-11615
▁Duke	-11616
▁KXHP	-11617
▁PTSD	-11618
▁Ruột	-11619
▁SBRT	-11620
▁Wood	-11621
▁base	-11622
▁case	-11623
▁diệp	-11624
▁ngạc	-11625
▁quầy	-11626
▁vinh	-11627
▁ĐOÁN	-11628
earman	-11629
hydrox	-11630
ioides	-11631
ipolar	-11632
ommend	-11633
ropion	-11634
▁(100%	-11635
▁0,005	-11636
▁50%).	-11637
▁Blast	-11638
▁Mường	-11639
▁dobut	-11640
▁resin	-11641
hydroxy	-11642
igatran	-11643
▁(20%).	-11644
▁2.2.4.	-11645
▁8/2020	-11646
▁Boston	-11647
▁Quinol	-11648
▁citrat	-11649
▁dioxin	-11650
▁duPont	-11651
▁solium	-11652
aglutide	-11653
▁01/2010	-11654
▁6/2018.	-11655
▁pantopr	-11656
aempferol	-11657
▁Coliform	-11658
▁Einstein	-11659
▁chloride	-11660
▁diazepam	-11661
▁hydroxit	-11662
▁muscarin	-11663
▁Bartholin	-11664
▁Northwell	-11665
▁karyotype	-11666
▁Gnathostoma	-11667
▁Amphotericin	-11668
▁trimethoprim	-11669
eralocorticoid	-11670
Se	-11671
XQ	-11672
gr	-11673
pp	-11674
tt	-11675
xo	-11676
đa	-11677
ựu	-11678
-31	-11679
/54	-11680
DSA	-11681
LIF	-11682
aff	-11683
fos	-11684
imi	-11685
ral	-11686
▁Gò	-11687
▁Ts	-11688
▁dê	-11689
▁mẻ	-11690
▁se	-11691
,29%	-11692
EDDS	-11693
FAST	-11694
LTDH	-11695
NĐMC	-11696
TMCT	-11697
XHTH	-11698
atic	-11699
hiện	-11700
iber	-11701
phải	-11702
rial	-11703
ules	-11704
▁-0.	-11705
▁141	-11706
▁167	-11707
▁186	-11708
▁325	-11709
▁46,	-11710
▁57%	-11711
▁6%,	-11712
▁73%	-11713
▁Bot	-11714
▁Bre	-11715
▁Fus	-11716
▁MAP	-11717
▁Mir	-11718
▁NGS	-11719
▁PBC	-11720
▁Peg	-11721
▁QTc	-11722
▁SAU	-11723
▁SCN	-11724
▁Trí	-11725
▁WPW	-11726
▁dic	-11727
▁dắt	-11728
▁lin	-11729
▁rám	-11730
▁vối	-11731
-2019	-11732
OLFOX	-11733
RAZZI	-11734
gency	-11735
ordyc	-11736
relia	-11737
ropin	-11738
▁(150	-11739
▁1,3%	-11740
▁1,4%	-11741
▁18,1	-11742
▁18,9	-11743
▁19,2	-11744
▁30,5	-11745
▁7,7%	-11746
▁96%.	-11747
▁BCLC	-11748
▁Nhạy	-11749
▁Paul	-11750
▁QHTD	-11751
▁SGOT	-11752
▁card	-11753
▁core	-11754
▁hiên	-11755
▁quấy	-11756
▁thưa	-11757
0,9%).	-11758
George	-11759
nghiên	-11760
proANP	-11761
uclein	-11762
ĐXNĐMC	-11763
▁(2000	-11764
▁17,6%	-11765
▁73,3%	-11766
▁Braun	-11767
▁Brook	-11768
▁DMARD	-11769
▁HCMVC	-11770
▁LASER	-11771
▁Miệng	-11772
▁State	-11773
▁chrom	-11774
▁famot	-11775
▁inlay	-11776
▁melan	-11777
▁pneum	-11778
agrelor	-11779
chocerc	-11780
dextrin	-11781
▁13,3%.	-11782
▁6/2016	-11783
▁71,4%,	-11784
▁Coombs	-11785
▁VNTMNK	-11786
▁canton	-11787
▁glucid	-11788
alizumab	-11789
▁5/2021.	-11790
▁MARAZZI	-11791
▁hoocmon	-11792
ronidazol	-11793
▁Duchenne	-11794
▁Paraquat	-11795
▁Perelman	-11796
▁cefepime	-11797
▁chitosan	-11798
agliflozin	-11799
▁Campuchia	-11800
▁Karnofsky	-11801
▁enoxaparin	-11802
▁histolytica	-11803
▁desmopressin	-11804
▁streptococci	-11805
94	-11806
Al	-11807
FF	-11808
FU	-11809
Hà	-11810
IM	-11811
xạ	-11812
ệp	-11813
ụa	-11814
)).	-11815
,30	-11816
-72	-11817
/23	-11818
/36	-11819
/45	-11820
00%	-11821
BCT	-11822
FSH	-11823
ICD	-11824
NKH	-11825
Nam	-11826
PCT	-11827
PTH	-11828
SAP	-11829
TTR	-11830
URE	-11831
hyp	-11832
omb	-11833
▁("	-11834
▁Af	-11835
▁DV	-11836
▁Fl	-11837
▁LX	-11838
▁Võ	-11839
▁cd	-11840
▁rộ	-11841
CTrT	-11842
Thời	-11843
afen	-11844
enan	-11845
eous	-11846
ibom	-11847
loạn	-11848
mmol	-11849
osom	-11850
uble	-11851
▁207	-11852
▁215	-11853
▁258	-11854
▁29%	-11855
▁37%	-11856
▁55.	-11857
▁70.	-11858
▁ASD	-11859
▁Bào	-11860
▁Cực	-11861
▁DIE	-11862
▁Dậy	-11863
▁GTV	-11864
▁Hài	-11865
▁Jon	-11866
▁LMA	-11867
▁NĐC	-11868
▁Nối	-11869
▁Ter	-11870
▁VIA	-11871
▁Wal	-11872
▁ros	-11873
▁rầm	-11874
-2015	-11875
0,9%;	-11876
UTBMT	-11877
garis	-11878
hexan	-11879
ifera	-11880
▁(0,2	-11881
▁(180	-11882
▁(7).	-11883
▁0,10	-11884
▁0,26	-11885
▁1,67	-11886
▁13%.	-11887
▁1998	-11888
▁2,02	-11889
▁22,4	-11890
▁23,6	-11891
▁5,7%	-11892
▁ARID	-11893
▁HATB	-11894
▁IMRT	-11895
▁KSNK	-11896
▁Lệch	-11897
▁MNTQ	-11898
▁Rạch	-11899
▁SIDS	-11900
▁THỨC	-11901
▁echo	-11902
▁gamm	-11903
▁giặt	-11904
▁gran	-11905
▁laze	-11906
▁mpox	-11907
▁olan	-11908
▁trận	-11909
▁đoan	-11910
/2022,	-11911
0,2%).	-11912
asteur	-11913
benzyl	-11914
ession	-11915
rophin	-11916
▁(40%)	-11917
▁(80%)	-11918
▁0.05.	-11919
▁2,7%.	-11920
▁2008,	-11921
▁88,9%	-11922
▁96,7%	-11923
▁Kasai	-11924
▁graft	-11925
avancin	-11926
ophosph	-11927
▁khoanh	-11928
▁sacoid	-11929
▁Antonio	-11930
▁Bankart	-11931
▁Burkitt	-11932
▁Demodex	-11933
baumannii	-11934
▁Borrelia	-11935
▁Ketamine	-11936
▁migraine	-11937
▁phenolic	-11938
▁marneffei	-11939
▁salicylat	-11940
▁Legionella	-11941
▁dexmedetom	-11942
▁infliximab	-11943
▁Paracetamol	-11944
▁epidermidis	-11945
▁indomethacin	-11946
▁bisphosphonate	-11947
▁histoplasmosis	-11948
▁papillomavirus	-11949
Ad	-11950
EK	-11951
UE	-11952
xơ	-11953
,3;	-11954
,5;	-11955
-3.	-11956
-32	-11957
/07	-11958
/25	-11959
1);	-11960
677	-11961
Dan	-11962
ECG	-11963
GĐC	-11964
HLA	-11965
STI	-11966
ama	-11967
ati	-11968
cân	-11969
igo	-11970
nab	-11971
oir	-11972
rum	-11973
đặt	-11974
ướp	-11975
▁-7	-11976
▁rô	-11977
NTAX	-11978
TTDD	-11979
burg	-11980
emsa	-11981
ents	-11982
imum	-11983
leep	-11984
otri	-11985
ulos	-11986
đồng	-11987
▁(1.	-11988
▁193	-11989
▁3%,	-11990
▁46.	-11991
▁49%	-11992
▁7%.	-11993
▁79%	-11994
▁96.	-11995
▁CLB	-11996
▁CLO	-11997
▁COX	-11998
▁Cop	-11999
▁ESC	-12000
▁Ehl	-12001
▁Gau	-12002
▁Hab	-12003
▁Hof	-12004
▁HĐH	-12005
▁Kạn	-12006
▁Nhĩ	-12007
▁Qui	-12008
▁SVV	-12009
▁TTH	-12010
▁Tuỷ	-12011
▁nat	-12012
▁nấc	-12013
▁roi	-12014
▁rạn	-12015
▁rốt	-12016
▁Ánh	-12017
0,3%)	-12018
Những	-12019
atory	-12020
orbic	-12021
right	-12022
usion	-12023
▁(400	-12024
▁0,63	-12025
▁1,27	-12026
▁1,48	-12027
▁14,8	-12028
▁18,2	-12029
▁9,5%	-12030
▁CFTR	-12031
▁CĐNS	-12032
▁Giúp	-12033
▁Glut	-12034
▁KTBT	-12035
▁Kiều	-12036
▁Lạng	-12037
▁Nặng	-12038
▁SGLT	-12039
▁Utah	-12040
▁hapt	-12041
▁thép	-12042
/2006.	-12043
/2009,	-12044
Danlos	-12045
athine	-12046
avirus	-12047
ionine	-12048
micron	-12049
oderma	-12050
ykinin	-12051
▁2,9%.	-12052
▁23,3%	-12053
▁26,7%	-12054
▁42,6%	-12055
▁53,3%	-12056
▁77,8%	-12057
▁Chườm	-12058
▁Ewing	-12059
▁HƯỞNG	-12060
▁NSCLC	-12061
▁STEMI	-12062
▁Thính	-12063
▁Triển	-12064
▁chanh	-12065
▁elast	-12066
abinoid	-12067
oxamine	-12068
▁1/2009	-12069
▁14,3%,	-12070
▁37,5%.	-12071
▁4.1.1.	-12072
▁Ehlers	-12073
▁Global	-12074
▁SYNTAX	-12075
▁Zoster	-12076
▁clorid	-12077
▁(2015),	-12078
▁BĐXNĐMC	-12079
▁Digoxin	-12080
▁Morphin	-12081
▁Thulium	-12082
alciferol	-12083
ephedrine	-12084
uvastatin	-12085
▁glycerol	-12086
▁practice	-12087
▁2010-2011	-12088
▁Snodgrass	-12089
▁Tenofovir	-12090
▁etoposide	-12091
▁verapamil	-12092
▁2020-2021.	-12093
▁Interferon	-12094
▁hyaluronic	-12095
▁minocycline	-12096
▁moxifloxacin	-12097
▁phthalazinon	-12098
▁Aminoglycosid	-12099
▁fluoroquinolon	-12100
83	-12101
XV	-12102
pa	-12103
▁ê	-12104
-2.	-12105
ACS	-12106
ASD	-12107
CCN	-12108
Osm	-12109
TMN	-12110
aph	-12111
hyd	-12112
ody	-12113
rag	-12114
ten	-12115
▁Av	-12116
▁BM	-12117
▁GE	-12118
▁LO	-12119
▁PU	-12120
▁gờ	-12121
▁sô	-12122
▁vớ	-12123
ACTH	-12124
BVTV	-12125
SARS	-12126
SOFA	-12127
TNMC	-12128
ilot	-12129
nước	-12130
oxib	-12131
roup	-12132
ĐHYD	-12133
▁205	-12134
▁221	-12135
▁270	-12136
▁385	-12137
▁Arg	-12138
▁CAR	-12139
▁HAV	-12140
▁KHC	-12141
▁Law	-12142
▁Nhỏ	-12143
▁Pin	-12144
▁Pod	-12145
▁Rot	-12146
▁TEL	-12147
▁TÁC	-12148
▁UTG	-12149
▁VAP	-12150
▁[11	-12151
▁dãi	-12152
▁goá	-12153
▁inh	-12154
▁iểm	-12155
▁lụa	-12156
▁meg	-12157
▁nầy	-12158
▁tob	-12159
▁voi	-12160
▁xao	-12161
acine	-12162
apler	-12163
athan	-12164
ients	-12165
itrin	-12166
▁(1,6	-12167
▁0,20	-12168
▁0,30	-12169
▁0,43	-12170
▁1,11	-12171
▁13,0	-12172
▁157:	-12173
▁20%)	-12174
▁20,4	-12175
▁20,5	-12176
▁28,8	-12177
▁50%;	-12178
▁60,3	-12179
▁9,4%	-12180
▁97%,	-12181
▁FACS	-12182
▁KPCD	-12183
▁Luôn	-12184
▁STOP	-12185
▁Tech	-12186
▁Thuý	-12187
▁chem	-12188
▁haem	-12189
▁leuc	-12190
▁nháy	-12191
▁tran	-12192
▁trấp	-12193
/2017,	-12194
bitube	-12195
ochond	-12196
rinone	-12197
▁0,25%	-12198
▁12,9%	-12199
▁92,3%	-12200
▁Diagn	-12201
▁HOSTL	-12202
▁NAFLD	-12203
▁TAPSE	-12204
▁ngỗng	-12205
▁torus	-12206
fluenza	-12207
▁12,5%,	-12208
▁13,3%,	-12209
▁2.2.3.	-12210
▁44,4%,	-12211
▁Barton	-12212
▁Macrol	-12213
▁Ringer	-12214
▁XHTMCT	-12215
▁chloro	-12216
▁(33,3%)	-12217
▁6/2020.	-12218
▁Hofstra	-12219
▁Homocyst	-12220
▁Realtime	-12221
▁ascorbic	-12222
ochondrial	-12223
▁Acyclovir	-12224
▁lorazepam	-12225
▁Lamivudine	-12226
▁Porphyrias	-12227
▁acetylcyst	-12228
▁ticagrelor	-12229
▁Mississippi	-12230
▁acetonitril	-12231
▁Benzodiazepine	-12232
Ex	-12233
GH	-12234
IT	-12235
ty	-12236
/21	-12237
00.	-12238
CAD	-12239
FRA	-12240
KNP	-12241
LDL	-12242
PLA	-12243
QOL	-12244
TAC	-12245
abd	-12246
agg	-12247
bắt	-12248
hẹp	-12249
ima	-12250
ior	-12251
lod	-12252
máu	-12253
pat	-12254
rix	-12255
tum	-12256
use	-12257
đơn	-12258
▁AH	-12259
▁BE	-12260
▁Bl	-12261
▁Mỏ	-12262
▁mM	-12263
▁mỗ	-12264
▁sn	-12265
▁tể	-12266
▁ấp	-12267
,14%	-12268
,44%	-12269
aran	-12270
athy	-12271
bụng	-12272
etir	-12273
hara	-12274
iere	-12275
iris	-12276
ival	-12277
liệu	-12278
onyl	-12279
phim	-12280
siêu	-12281
yric	-12282
▁-14	-12283
▁181	-12284
▁2-5	-12285
▁25,	-12286
▁58.	-12287
▁7%,	-12288
▁ABG	-12289
▁Asc	-12290
▁DDS	-12291
▁DHA	-12292
▁HSP	-12293
▁ITP	-12294
▁Ker	-12295
▁Ket	-12296
▁Khê	-12297
▁NCS	-12298
▁PER	-12299
▁QoL	-12300
▁Que	-12301
▁ROP	-12302
▁SMN	-12303
▁SMT	-12304
▁Sug	-12305
▁Tồn	-12306
▁Vài	-12307
▁bấc	-12308
▁cTn	-12309
▁hói	-12310
▁mét	-12311
▁off	-12312
▁red	-12313
▁sân	-12314
▁tía	-12315
▁Đốt	-12316
-2009	-12317
HBsAg	-12318
MNKNP	-12319
SCORE	-12320
acbon	-12321
armac	-12322
dương	-12323
itans	-12324
romyc	-12325
uglas	-12326
▁0,41	-12327
▁1,17	-12328
▁1,57	-12329
▁14,0	-12330
▁16,0	-12331
▁17,8	-12332
▁19,8	-12333
▁1995	-12334
▁1997	-12335
▁20,0	-12336
▁21,2	-12337
▁21,6	-12338
▁3,9%	-12339
▁40,5	-12340
▁45%,	-12341
▁Cory	-12342
▁DENV	-12343
▁DMFT	-12344
▁Dính	-12345
▁Giấy	-12346
▁Khôi	-12347
▁Mann	-12348
▁NTVM	-12349
▁Ngực	-12350
▁Noro	-12351
▁RLLM	-12352
▁Zona	-12353
▁cath	-12354
▁hoóc	-12355
▁hươu	-12356
▁nitr	-12357
▁phụt	-12358
▁quạt	-12359
▁ĐMNT	-12360
embrol	-12361
peptid	-12362
roscan	-12363
▁1/199	-12364
▁10,7%	-12365
▁11,3%	-12366
▁11,5%	-12367
▁2,2%.	-12368
▁22,2%	-12369
▁22,7%	-12370
▁6,5%.	-12371
▁Actin	-12372
▁Ngành	-12373
▁South	-12374
▁UTCTC	-12375
▁chặng	-12376
▁khiêu	-12377
▁mirab	-12378
olipase	-12379
omerase	-12380
▁(2013)	-12381
▁(90%),	-12382
▁87,5%,	-12383
▁Albert	-12384
▁Chiari	-12385
▁Oxford	-12386
▁Vaccin	-12387
▁ginsen	-12388
▁mutans	-12389
▁sulfur	-12390
▁0,004).	-12391
▁10/2019	-12392
▁8/2021.	-12393
▁Alberta	-12394
▁Pasteur	-12395
▁antigen	-12396
▁DiGeorge	-12397
▁apixaban	-12398
▁caffeine	-12399
▁glaucoma	-12400
▁vulgaris	-12401
▁EuroSCORE	-12402
▁Norovirus	-12403
▁apoptosis	-12404
▁cellulose	-12405
▁cysticerc	-12406
▁hydroxide	-12407
▁Management	-12408
▁tobramycin	-12409
embrolizumab	-12410
▁Ceftazidime	-12411
▁melioidosis	-12412
▁ketoconazole	-12413
▁somatostatin	-12414
▁theophylline	-12415
+4	-12416
Fe	-12417
KC	-12418
Pr	-12419
aP	-12420
bi	-12421
py	-12422
1%;	-12423
BCC	-12424
BUN	-12425
CEP	-12426
CLS	-12427
EPI	-12428
LLP	-12429
MTS	-12430
NMN	-12431
RSD	-12432
USA	-12433
giả	-12434
hồi	-12435
lem	-12436
lon	-12437
ons	-12438
org	-12439
▁LE	-12440
▁Ul	-12441
▁WF	-12442
▁cf	-12443
▁oX	-12444
▁xứ	-12445
▁Đỏ	-12446
5.1.	-12447
ACIP	-12448
NMTC	-12449
UROC	-12450
oyam	-12451
piro	-12452
tain	-12453
zema	-12454
▁(3.	-12455
▁10)	-12456
▁12)	-12457
▁224	-12458
▁3.5	-12459
▁308	-12460
▁34.	-12461
▁5-6	-12462
▁69%	-12463
▁Ark	-12464
▁CFS	-12465
▁Cer	-12466
▁Din	-12467
▁GPT	-12468
▁HES	-12469
▁Ins	-12470
▁Lát	-12471
▁Não	-12472
▁Sin	-12473
▁Sum	-12474
▁UMN	-12475
▁Var	-12476
▁Wer	-12477
▁bùn	-12478
...).	-12479
VMĐTĐ	-12480
alcon	-12481
anoid	-12482
ified	-12483
omann	-12484
otrig	-12485
rexed	-12486
▁(3,5	-12487
▁0,90	-12488
▁1,47	-12489
▁1,54	-12490
▁1,96	-12491
▁15,6	-12492
▁16%,	-12493
▁38,5	-12494
▁55%,	-12495
▁95%)	-12496
▁Budd	-12497
▁CTNT	-12498
▁Form	-12499
▁LVEF	-12500
▁Nhức	-12501
▁Niêm	-12502
▁NĐTP	-12503
▁RLCH	-12504
▁cảng	-12505
▁hocm	-12506
▁hăng	-12507
▁tivi	-12508
-2020.	-12509
ensini	-12510
olimus	-12511
▁11,8%	-12512
▁2,3%.	-12513
▁2004,	-12514
▁2006,	-12515
▁23,8%	-12516
▁31/03	-12517
▁81,8%	-12518
▁Davis	-12519
▁Fibro	-12520
▁HATTr	-12521
▁HELLP	-12522
▁Sigma	-12523
▁canis	-12524
▁cloro	-12525
▁limph	-12526
▁phộng	-12527
▁synth	-12528
acbonat	-12529
iolipin	-12530
ociated	-12531
oyamoya	-12532
▁1/2000	-12533
▁RECIST	-12534
▁Sarcom	-12535
▁Steven	-12536
▁oXiris	-12537
arrhalis	-12538
ipramine	-12539
ulizumab	-12540
▁10/2018	-12541
▁Gensini	-12542
▁SUVmean	-12543
▁diethyl	-12544
▁generic	-12545
emetrexed	-12546
ification	-12547
▁Arkansas	-12548
▁asiatica	-12549
▁botulism	-12550
▁Alteplase	-12551
▁Porphyria	-12552
▁guideline	-12553
▁coccidioid	-12554
▁cytochrome	-12555
▁salbutamol	-12556
▁technetium	-12557
▁carrageenan	-12558
▁atorvastatin	-12559
▁cryptococcus	-12560
▁streptomycin	-12561
▁gammaglobulin	-12562
▁Cardiovascular	-12563
▁nitrofurantoin	-12564
Fr	-12565
RV	-12566
we	-12567
/05	-12568
19,	-12569
ARB	-12570
HHĐ	-12571
OXA	-12572
ank	-12573
ova	-12574
đái	-12575
▁CX	-12576
▁RU	-12577
▁VX	-12578
▁XV	-12579
▁[6	-12580
▁mA	-12581
▁vờ	-12582
▁út	-12583
OMAC	-12584
aven	-12585
azil	-12586
chảy	-12587
chấn	-12588
ione	-12589
ling	-12590
orrh	-12591
othy	-12592
oxon	-12593
pent	-12594
trac	-12595
trex	-12596
wood	-12597
▁1.3	-12598
▁185	-12599
▁2/5	-12600
▁21)	-12601
▁375	-12602
▁48%	-12603
▁50:	-12604
▁56.	-12605
▁57.	-12606
▁68)	-12607
▁CVC	-12608
▁Cái	-12609
▁Deb	-12610
▁HCR	-12611
▁Loa	-12612
▁OAA	-12613
▁Rad	-12614
▁TMN	-12615
▁TOT	-12616
▁XHG	-12617
▁ins	-12618
▁lụt	-12619
▁mau	-12620
Meier	-12621
andra	-12622
aptan	-12623
atrix	-12624
cyclo	-12625
iazem	-12626
thang	-12627
▁0,49	-12628
▁1,09	-12629
▁1,2%	-12630
▁1/12	-12631
▁11,0	-12632
▁15,0	-12633
▁16,3	-12634
▁20,8	-12635
▁21,4	-12636
▁5,8%	-12637
▁7,3%	-12638
▁Alex	-12639
▁Beck	-12640
▁Cock	-12641
▁DCCS	-12642
▁Educ	-12643
▁IADL	-12644
▁Kang	-12645
▁Mpox	-12646
▁TCCP	-12647
▁Thụt	-12648
▁Tour	-12649
▁Trao	-12650
▁VASc	-12651
▁VitD	-12652
▁Xung	-12653
▁acyl	-12654
▁chập	-12655
▁mOsm	-12656
/2004.	-12657
/2018,	-12658
0,0%).	-12659
acetam	-12660
icular	-12661
mittee	-12662
▁(70%)	-12663
▁1,9%.	-12664
▁10,5%	-12665
▁11,4%	-12666
▁12,1%	-12667
▁12,2%	-12668
▁30/04	-12669
▁Force	-12670
▁Heart	-12671
▁Nicot	-12672
▁Shiga	-12673
▁Stent	-12674
▁WOMAC	-12675
▁hyper	-12676
obacill	-12677
otriene	-12678
▁HCCLTT	-12679
▁Willis	-12680
▁intron	-12681
▁tetani	-12682
aparinux	-12683
▁10/2010	-12684
▁12/2016	-12685
▁Levobup	-12686
▁Meniere	-12687
▁(33,3%).	-12688
▁(66,7%).	-12689
▁Nocardia	-12690
▁Tourette	-12691
▁penicill	-12692
▁Committee	-12693
▁Recommend	-12694
ondaparinux	-12695
oriconazole	-12696
▁Braunstein	-12697
▁metoprolol	-12698
▁riboflavin	-12699
▁testosteron	-12700
▁microglobulin	-12701
▁thromboplastin	-12702
FH	-12703
LO	-12704
-74	-12705
-79	-12706
/14	-12707
HBs	-12708
MAA	-12709
Med	-12710
PFS	-12711
PPV	-12712
RYT	-12713
TMT	-12714
VIR	-12715
aic	-12716
asi	-12717
ego	-12718
epi	-12719
eus	-12720
oss	-12721
tor	-12722
tái	-12723
ved	-12724
ờng	-12725
ửng	-12726
▁FM	-12727
▁RP	-12728
▁Rễ	-12729
▁by	-12730
▁hơ	-12731
▁ko	-12732
▁rà	-12733
▁wh	-12734
▁ôm	-12735
▁ỉa	-12736
,22%	-12737
,37%	-12738
,78%	-12739
emat	-12740
enox	-12741
gary	-12742
giải	-12743
giới	-12744
ngắn	-12745
olia	-12746
omen	-12747
ymet	-12748
▁246	-12749
▁3+4	-12750
▁303	-12751
▁51.	-12752
▁9),	-12753
▁CAN	-12754
▁CBD	-12755
▁CPP	-12756
▁Cor	-12757
▁DPP	-12758
▁Eth	-12759
▁HCB	-12760
▁ITS	-12761
▁Iốt	-12762
▁NGƯ	-12763
▁NPH	-12764
▁RET	-12765
▁Sul	-12766
▁Tín	-12767
▁alc	-12768
▁mUI	-12769
▁nản	-12770
▁rẩy	-12771
Thiết	-12772
andez	-12773
brata	-12774
lofen	-12775
ungin	-12776
uther	-12777
▁(1,4	-12778
▁0,7%	-12779
▁1/1,	-12780
▁3,6%	-12781
▁47,5	-12782
▁9,8%	-12783
▁Acan	-12784
▁Bern	-12785
▁CLSI	-12786
▁Cobb	-12787
▁Kiềm	-12788
▁Liêm	-12789
▁Marc	-12790
▁NCEP	-12791
▁NMDA	-12792
▁Nghĩ	-12793
▁PNMT	-12794
▁RLLP	-12795
▁apoA	-12796
▁asen	-12797
▁char	-12798
▁cone	-12799
▁high	-12800
▁thym	-12801
▁toái	-12802
▁truỵ	-12803
▁trâu	-12804
▁xoăn	-12805
abutin	-12806
fluoro	-12807
linois	-12808
ramide	-12809
uation	-12810
▁(5%).	-12811
▁(75%)	-12812
▁01/05	-12813
▁11,9%	-12814
▁17,1%	-12815
▁63,6%	-12816
▁BISAP	-12817
▁Brent	-12818
▁Diego	-12819
▁Knife	-12820
▁Thuột	-12821
▁Times	-12822
▁click	-12823
▁human	-12824
omannan	-12825
ophyton	-12826
pergill	-12827
plement	-12828
ytosine	-12829
▁(75%).	-12830
▁37,5%,	-12831
▁6/2010	-12832
▁CNCTrT	-12833
▁Gastro	-12834
▁George	-12835
▁Sarcôm	-12836
▁TKMPTP	-12837
▁citrul	-12838
▁hesper	-12839
▁peptid	-12840
▁tetrac	-12841
ernandez	-12842
iostrong	-12843
▁0,0001)	-12844
▁01/2009	-12845
▁5/2022.	-12846
▁Calcium	-12847
▁Calgary	-12848
▁Hydroxy	-12849
▁Schwann	-12850
▁gelatin	-12851
▁subtype	-12852
▁Rifampin	-12853
iostrongyl	-12854
ocarcinoma	-12855
▁alteplase	-12856
▁treatment	-12857
▁Fibrinogen	-12858
▁bicacbonat	-12859
▁nucleoside	-12860
▁sulfonamid	-12861
▁toxoplasma	-12862
▁prednisolon	-12863
▁praziquantel	-12864
▁phospholipase	-12865
VH	-12866
ve	-12867
ÁO	-12868
,5.	-12869
-5,	-12870
/24	-12871
/39	-12872
/60	-12873
7%;	-12874
APE	-12875
AVM	-12876
BTT	-12877
FEV	-12878
KPC	-12879
LCO	-12880
OLI	-12881
RBC	-12882
RSV	-12883
com	-12884
iew	-12885
iso	-12886
lát	-12887
máy	-12888
mục	-12889
phế	-12890
sil	-12891
ted	-12892
tus	-12893
tất	-12894
▁Cá	-12895
▁UC	-12896
▁op	-12897
▁óc	-12898
-450	-12899
4%).	-12900
YTTG	-12901
icus	-12902
inga	-12903
oflu	-12904
rost	-12905
udin	-12906
yxin	-12907
zole	-12908
▁(7.	-12909
▁2);	-12910
▁20)	-12911
▁245	-12912
▁247	-12913
▁259	-12914
▁324	-12915
▁51%	-12916
▁Bcl	-12917
▁Bow	-12918
▁Cre	-12919
▁DDD	-12920
▁DRE	-12921
▁FLT	-12922
▁KIT	-12923
▁Lăk	-12924
▁Nav	-12925
▁QUA	-12926
▁Quế	-12927
▁ROS	-12928
▁Rom	-12929
▁TSS	-12930
▁Tel	-12931
▁Von	-12932
▁Xoa	-12933
▁bún	-12934
▁cộm	-12935
▁cựu	-12936
▁din	-12937
▁nôi	-12938
▁ond	-12939
▁reg	-12940
▁urs	-12941
▁xay	-12942
,25%)	-12943
-2002	-12944
Không	-12945
andro	-12946
asone	-12947
asvir	-12948
iflor	-12949
phene	-12950
▁(1,3	-12951
▁(3,4	-12952
▁0,31	-12953
▁0,44	-12954
▁0.02	-12955
▁1,36	-12956
▁17,4	-12957
▁18%,	-12958
▁1996	-12959
▁2,6%	-12960
▁29,4	-12961
▁3,8%	-12962
▁3/10	-12963
▁33,3	-12964
▁38,2	-12965
▁4,4%	-12966
▁6,8%	-12967
▁60,8	-12968
▁AmpC	-12969
▁Anth	-12970
▁Chửa	-12971
▁Cone	-12972
▁Duck	-12973
▁Fasc	-12974
▁Luật	-12975
▁Luồn	-12976
▁Matt	-12977
▁Mini	-12978
▁Park	-12979
▁QALY	-12980
▁Qmax	-12981
▁STCL	-12982
▁THAY	-12983
▁Treg	-12984
▁bazơ	-12985
▁biof	-12986
▁blot	-12987
▁bung	-12988
▁casp	-12989
▁chạp	-12990
▁frag	-12991
▁prim	-12992
▁suis	-12993
▁thục	-12994
0,7%).	-12995
iazine	-12996
ocytic	-12997
ymarin	-12998
yticus	-12999
▁(0%),	-13000
▁10,3%	-13001
▁3,1%.	-13002
▁35,3%	-13003
▁5,7%,	-13004
▁63,3%	-13005
▁Enzym	-13006
▁Libin	-13007
▁Organ	-13008
▁Smith	-13009
▁TRUNG	-13010
▁Trượt	-13011
▁Weill	-13012
▁Xpert	-13013
▁arter	-13014
▁ether	-13015
esunate	-13016
▁100%).	-13017
▁4/2014	-13018
▁94,4%,	-13019
▁FOLFOX	-13020
▁VPMPCĐ	-13021
▁XQCLĐT	-13022
▁oxygen	-13023
epiandro	-13024
▁11/2019	-13025
▁12/2014	-13026
▁7/2021.	-13027
▁Clavien	-13028
▁Phospho	-13029
▁holmium	-13030
▁neostig	-13031
▁propion	-13032
▁stapler	-13033
trimazole	-13034
▁(66,7%),	-13035
▁2015-201	-13036
▁Illinois	-13037
▁Jonathan	-13038
▁baumanii	-13039
▁glabrata	-13040
▁streptoz	-13041
▁xanthine	-13042
ipoprotein	-13043
▁Linezolid	-13044
▁Rocuronium	-13045
▁colchicine	-13046
▁famotidine	-13047
▁neutrophil	-13048
▁pyridoxine	-13049
▁Carboplatin	-13050
▁Information	-13051
▁cantonensis	-13052
▁catarrhalis	-13053
▁polypeptide	-13054
▁Clostridioides	-13055
Ca	-13056
LU	-13057
ZV	-13058
zi	-13059
ỉa	-13060
/08	-13061
/42	-13062
AMP	-13063
GLS	-13064
HBc	-13065
IGN	-13066
LLE	-13067
LWI	-13068
MTG	-13069
NSM	-13070
Tuy	-13071
asu	-13072
els	-13073
etr	-13074
men	-13075
mắt	-13076
não	-13077
nốt	-13078
oon	-13079
uyn	-13080
way	-13081
▁CM	-13082
▁Cỏ	-13083
▁Dễ	-13084
▁NQ	-13085
▁RS	-13086
▁cc	-13087
▁ip	-13088
▁mĩ	-13089
-0,7	-13090
-19)	-13091
-36.	-13092
ATTP	-13093
HMMD	-13094
HSTC	-13095
asia	-13096
cale	-13097
kinh	-13098
tech	-13099
unct	-13100
Điều	-13101
▁(6.	-13102
▁0.3	-13103
▁11)	-13104
▁171	-13105
▁2/6	-13106
▁209	-13107
▁217	-13108
▁226	-13109
▁390	-13110
▁43.	-13111
▁67%	-13112
▁9/1	-13113
▁92.	-13114
▁ASI	-13115
▁Alf	-13116
▁Ben	-13117
▁CJD	-13118
▁DKA	-13119
▁HUS	-13120
▁His	-13121
▁KHU	-13122
▁MDS	-13123
▁Mạn	-13124
▁NKN	-13125
▁Pal	-13126
▁Rev	-13127
▁SCC	-13128
▁SEA	-13129
▁TIA	-13130
▁TLC	-13131
▁Tia	-13132
▁Tày	-13133
▁VAC	-13134
▁Vẩy	-13135
▁cởi	-13136
▁doc	-13137
▁dơi	-13138
▁gội	-13139
▁hpv	-13140
▁kíp	-13141
▁lằn	-13142
▁mập	-13143
▁nêm	-13144
▁ole	-13145
▁thổ	-13146
▁tro	-13147
▁Đảo	-13148
▁đan	-13149
aging	-13150
allis	-13151
arcot	-13152
crist	-13153
econd	-13154
itona	-13155
opter	-13156
quare	-13157
vitro	-13158
▁(1,7	-13159
▁(1,8	-13160
▁(8).	-13161
▁0,51	-13162
▁1,18	-13163
▁1,28	-13164
▁1,29	-13165
▁1,7%	-13166
▁1,78	-13167
▁16%.	-13168
▁16,9	-13169
▁17,1	-13170
▁2,01	-13171
▁2,75	-13172
▁27,6	-13173
▁2:1.	-13174
▁44,2	-13175
▁6,3%	-13176
▁6-24	-13177
▁68%.	-13178
▁7,4%	-13179
▁80,3	-13180
▁84%.	-13181
▁AKIN	-13182
▁Grad	-13183
▁HPMC	-13184
▁RLGN	-13185
▁THKG	-13186
▁TPPM	-13187
▁brad	-13188
▁bưởi	-13189
▁chúc	-13190
▁chật	-13191
▁coil	-13192
▁mesh	-13193
,25%),	-13194
abelli	-13195
ecoxib	-13196
estion	-13197
opyran	-13198
osumab	-13199
rotene	-13200
▁1,8%.	-13201
▁15,8%	-13202
▁18,2%	-13203
▁2002,	-13204
▁21,4%	-13205
▁42,9%	-13206
▁44,4%	-13207
▁Chơng	-13208
▁KSTSR	-13209
▁Sokol	-13210
▁ammon	-13211
▁azole	-13212
▁defer	-13213
pyrazol	-13214
▁(2011)	-13215
▁1/2007	-13216
▁2.2.1.	-13217
▁FRALLE	-13218
▁health	-13219
▁system	-13220
▁xquang	-13221
itonavir	-13222
thamoeba	-13223
▁200.000	-13224
▁8/2020.	-13225
▁Edwards	-13226
▁Matthew	-13227
▁Surgery	-13228
inephrine	-13229
▁1/10.000	-13230
▁Morphine	-13231
▁Protaper	-13232
▁galectin	-13233
▁microRNA	-13234
▁paraquat	-13235
renorphine	-13236
▁Combitube	-13237
▁Fernandez	-13238
▁oxacillin	-13239
pagliflozin	-13240
▁benzathine	-13241
▁dystrophin	-13242
▁Fluconazole	-13243
▁Secukinumab	-13244
▁Ticarcillin	-13245
▁ondansetron	-13246
oxyhemoglobin	-13247
▁Acanthamoeba	-13248
▁Glucocorticoid	-13249
▁coxsackievirus	-13250
2-	-13251
éd	-13252
/34	-13253
/41	-13254
0,1	-13255
103	-13256
NKQ	-13257
One	-13258
PRF	-13259
cum	-13260
egh	-13261
gấp	-13262
kéo	-13263
mal	-13264
ret	-13265
zko	-13266
▁0;	-13267
▁Ak	-13268
▁Ce	-13269
▁Kê	-13270
▁NE	-13271
▁SN	-13272
▁ic	-13273
▁ts	-13274
▁ÁP	-13275
▁ĐC	-13276
,73%	-13277
-12,	-13278
IVIG	-13279
acia	-13280
acid	-13281
alen	-13282
ally	-13283
eluk	-13284
hept	-13285
orld	-13286
teca	-13287
tiền	-13288
ults	-13289
▁(0)	-13290
▁17,	-13291
▁173	-13292
▁2.1	-13293
▁213	-13294
▁238	-13295
▁295	-13296
▁3/5	-13297
▁36.	-13298
▁BCĐ	-13299
▁Bối	-13300
▁CHI	-13301
▁GSH	-13302
▁HAI	-13303
▁Khử	-13304
▁Lat	-13305
▁Lặp	-13306
▁Lời	-13307
▁Mob	-13308
▁Mùi	-13309
▁PAL	-13310
▁Rho	-13311
▁Rủi	-13312
▁Say	-13313
▁TAL	-13314
▁TLN	-13315
▁Vis	-13316
▁bab	-13317
▁cọc	-13318
▁dab	-13319
▁deg	-13320
▁hệt	-13321
▁lùn	-13322
▁sST	-13323
▁sáo	-13324
▁tựu	-13325
ECOPD	-13326
akoff	-13327
erman	-13328
etric	-13329
opher	-13330
▁(-).	-13331
▁(0,7	-13332
▁(2),	-13333
▁(7,5	-13334
▁1,31	-13335
▁1,38	-13336
▁1,88	-13337
▁12,0	-13338
▁18,8	-13339
▁2,08	-13340
▁2,2%	-13341
▁24,2	-13342
▁33%,	-13343
▁36%,	-13344
▁36,8	-13345
▁41,5	-13346
▁54,5	-13347
▁7/1.	-13348
▁8,6%	-13349
▁8/10	-13350
▁90,2	-13351
▁ATTR	-13352
▁CSSK	-13353
▁Card	-13354
▁Demc	-13355
▁EtCO	-13356
▁Giáp	-13357
▁Joel	-13358
▁LVMI	-13359
▁MALT	-13360
▁Nhơn	-13361
▁Spir	-13362
▁Săng	-13363
▁TDMP	-13364
▁azel	-13365
▁giam	-13366
▁làng	-13367
▁mech	-13368
▁váng	-13369
▁điểu	-13370
alamin	-13371
chuyển	-13372
ective	-13373
icylic	-13374
iodine	-13375
odeoxy	-13376
otecan	-13377
roitin	-13378
▁(0,00	-13379
▁0,01;	-13380
▁13,6%	-13381
▁17,4%	-13382
▁20,8%	-13383
▁30/09	-13384
▁42,2%	-13385
▁5,7%.	-13386
▁78,6%	-13387
▁8,3%.	-13388
▁82,6%	-13389
▁90,9%	-13390
▁94,1%	-13391
▁Dobut	-13392
▁EtOAc	-13393
▁Huỳnh	-13394
▁Jacob	-13395
▁STATA	-13396
▁Sleep	-13397
▁Werth	-13398
▁antip	-13399
▁class	-13400
▁phước	-13401
▁titan	-13402
amilton	-13403
elukast	-13404
eponema	-13405
iformed	-13406
osterol	-13407
tecavir	-13408
treonam	-13409
▁(60%),	-13410
▁6/2015	-13411
▁86,7%,	-13412
▁9/2009	-13413
▁9/2012	-13414
▁9/2020	-13415
leomycin	-13416
orsakoff	-13417
▁9/2021.	-13418
▁BLVMĐTĐ	-13419
▁Demczko	-13420
▁Gaucher	-13421
▁Vaccine	-13422
▁polymer	-13423
bacterium	-13424
▁(16,7%),	-13425
▁12/2018.	-13426
▁pyruvate	-13427
anciclovir	-13428
ysaccharid	-13429
▁Education	-13430
▁Prolactin	-13431
▁Uniformed	-13432
▁milrinone	-13433
▁mirabilis	-13434
▁quinolone	-13435
pergillosis	-13436
▁bacitracin	-13437
▁bicarbonat	-13438
▁bradykinin	-13439
▁Enterovirus	-13440
▁Epinephrine	-13441
▁Cefoperazone	-13442
▁Mitochondrial	-13443
▁amitriptyline	-13444
epiandrosterone	-13445
▁Cryptosporidium	-13446
52	-13447
FO	-13448
TO	-13449
,9;	-13450
-5)	-13451
-64	-13452
/51	-13453
162	-13454
2%)	-13455
790	-13456
9);	-13457
ABG	-13458
AKI	-13459
CVD	-13460
GOS	-13461
LAD	-13462
Một	-13463
PCI	-13464
RLC	-13465
UTI	-13466
del	-13467
iii	-13468
irm	-13469
kes	-13470
khí	-13471
lớp	-13472
sel	-13473
uro	-13474
đại	-13475
đạt	-13476
▁Ae	-13477
▁IQ	-13478
▁LG	-13479
▁Mề	-13480
▁NL	-13481
▁Uy	-13482
▁nc	-13483
,03%	-13484
ASLD	-13485
Nhóm	-13486
PEEP	-13487
TMTQ	-13488
adol	-13489
chân	-13490
ians	-13491
icum	-13492
idon	-13493
ilol	-13494
iore	-13495
lact	-13496
osus	-13497
otic	-13498
peak	-13499
tras	-13500
ulus	-13501
▁1.2	-13502
▁208	-13503
▁228	-13504
▁5-7	-13505
▁59%	-13506
▁63.	-13507
▁78.	-13508
▁91.	-13509
▁ADP	-13510
▁ATG	-13511
▁Bùi	-13512
▁Dal	-13513
▁ECF	-13514
▁GIA	-13515
▁Kay	-13516
▁Lên	-13517
▁MTV	-13518
▁Mur	-13519
▁Ngô	-13520
▁OCD	-13521
▁ODI	-13522
▁PDE	-13523
▁PML	-13524
▁Rat	-13525
▁Saf	-13526
▁Sav	-13527
▁TAA	-13528
▁TCT	-13529
▁Vậy	-13530
▁com	-13531
▁dồi	-13532
▁hộc	-13533
▁nóc	-13534
▁sậm	-13535
▁vec	-13536
array	-13537
ayasu	-13538
buvir	-13539
chell	-13540
eller	-13541
emtos	-13542
etary	-13543
haler	-13544
irmer	-13545
osgen	-13546
osorb	-13547
prost	-13548
thoát	-13549
▁(300	-13550
▁1,19	-13551
▁1,21	-13552
▁1,24	-13553
▁1,34	-13554
▁1,39	-13555
▁1,53	-13556
▁1518	-13557
▁16,6	-13558
▁1:1.	-13559
▁2,13	-13560
▁20,6	-13561
▁22%,	-13562
▁22,3	-13563
▁22,6	-13564
▁25,8	-13565
▁4,2%	-13566
▁56%.	-13567
▁6,1%	-13568
▁6,25	-13569
▁90%)	-13570
▁ALDH	-13571
▁Bruc	-13572
▁Bách	-13573
▁Bọng	-13574
▁CURB	-13575
▁Cong	-13576
▁Evan	-13577
▁Giác	-13578
▁Gánh	-13579
▁Lanc	-13580
▁Loan	-13581
▁NGAL	-13582
▁acin	-13583
▁chìm	-13584
▁chớp	-13585
▁neph	-13586
▁tịch	-13587
otaxim	-13588
planon	-13589
▁01/12	-13590
▁1,7%.	-13591
▁17,5%	-13592
▁2,2%,	-13593
▁2002.	-13594
▁3,5%.	-13595
▁4,8%.	-13596
▁58,3%	-13597
▁76,9%	-13598
▁Dưỡng	-13599
▁Fruct	-13600
▁NIPPV	-13601
▁RIFLE	-13602
▁UTTBG	-13603
▁vater	-13604
alazine	-13605
oxanide	-13606
tefiore	-13607
▁(3,6%)	-13608
▁12,2%.	-13609
▁14,3%.	-13610
▁8/2021	-13611
▁86,7%.	-13612
▁93,8%,	-13613
▁Becker	-13614
▁HCBVTV	-13615
▁Martin	-13616
▁aromat	-13617
▁cocain	-13618
axanthin	-13619
fosbuvir	-13620
irschner	-13621
odentine	-13622
▁(3,3%),	-13623
▁11/2020	-13624
▁12/2013	-13625
▁Quality	-13626
▁Anderson	-13627
▁Institut	-13628
▁Mitchell	-13629
▁Spearman	-13630
▁glycosyl	-13631
▁spiniger	-13632
emtosecond	-13633
interferon	-13634
▁2021-2022	-13635
▁Botulinum	-13636
▁Lidocaine	-13637
▁Treponema	-13638
▁bupropion	-13639
▁gluconate	-13640
▁Montefiore	-13641
▁bortezomib	-13642
▁fosfomycin	-13643
▁nifedipine	-13644
▁porphyrias	-13645
▁clostridial	-13646
▁haptoglobin	-13647
▁Immunization	-13648
▁acetazolamide	-13649
▁acinetobacter	-13650
Mc	-13651
ba	-13652
bị	-13653
vị	-13654
ÁT	-13655
ĐN	-13656
-06	-13657
-4.	-13658
/04	-13659
/09	-13660
/71	-13661
4%)	-13662
50,	-13663
BCL	-13664
CVP	-13665
ICP	-13666
KAP	-13667
MSF	-13668
TCO	-13669
TCP	-13670
TND	-13671
VTC	-13672
bnp	-13673
dor	-13674
ffy	-13675
fra	-13676
gia	-13677
hoá	-13678
đáp	-13679
▁((	-13680
▁-8	-13681
▁GB	-13682
▁IS	-13683
▁KL	-13684
▁MN	-13685
▁NU	-13686
▁SW	-13687
▁mó	-13688
▁rỗ	-13689
▁Đẻ	-13690
ARES	-13691
GERD	-13692
VPBV	-13693
ault	-13694
ecti	-13695
ifid	-13696
itan	-13697
nhân	-13698
thần	-13699
ytes	-13700
▁0%;	-13701
▁0-2	-13702
▁164	-13703
▁212	-13704
▁237	-13705
▁3/6	-13706
▁306	-13707
▁37.	-13708
▁4.0	-13709
▁41%	-13710
▁41.	-13711
▁44.	-13712
▁7/1	-13713
▁95.	-13714
▁ARF	-13715
▁Ans	-13716
▁Bảy	-13717
▁DEC	-13718
▁DMD	-13719
▁DSC	-13720
▁Fab	-13721
▁HOÁ	-13722
▁Hỗn	-13723
▁IIa	-13724
▁MPI	-13725
▁Mẹo	-13726
▁Nhổ	-13727
▁OAB	-13728
▁OCA	-13729
▁PGE	-13730
▁RLN	-13731
▁Tụt	-13732
▁USD	-13733
▁Vấp	-13734
▁aer	-13735
▁gày	-13736
▁hơp	-13737
▁thê	-13738
▁văc	-13739
▁xạo	-13740
▁xổm	-13741
TPHCM	-13742
coxon	-13743
ember	-13744
errin	-13745
iclib	-13746
ishop	-13747
oclop	-13748
phrin	-13749
scape	-13750
tiếng	-13751
▁0,40	-13752
▁1,46	-13753
▁1,59	-13754
▁1,95	-13755
▁11%,	-13756
▁2,1%	-13757
▁2,3%	-13758
▁2,33	-13759
▁4,7%	-13760
▁40,6	-13761
▁51,5	-13762
▁56%,	-13763
▁67%,	-13764
▁80%;	-13765
▁88%,	-13766
▁92%,	-13767
▁AChE	-13768
▁Càng	-13769
▁DLCO	-13770
▁DMFS	-13771
▁Dành	-13772
▁GABA	-13773
▁Mast	-13774
▁Nghỉ	-13775
▁PĐMN	-13776
▁Sông	-13777
▁Yers	-13778
▁chục	-13779
▁olig	-13780
▁xoáy	-13781
▁đảng	-13782
0,6%).	-13783
epacia	-13784
essler	-13785
imlich	-13786
itaris	-13787
kinase	-13788
oxitin	-13789
▁0,015	-13790
▁15,4%	-13791
▁2,8%.	-13792
▁20,9%	-13793
▁27,3%	-13794
▁3,3%,	-13795
▁30,4%	-13796
▁40-60	-13797
▁68,8%	-13798
▁91,7%	-13799
▁FARES	-13800
▁Habif	-13801
▁RLTDH	-13802
▁Trend	-13803
▁felod	-13804
▁loang	-13805
▁nhiểm	-13806
ociclib	-13807
omidate	-13808
otropic	-13809
trexone	-13810
▁(2,9%)	-13811
▁3.1.1.	-13812
▁6/2020	-13813
▁71,4%.	-13814
▁Enzyme	-13815
▁HCBTĐN	-13816
▁thromb	-13817
elenburg	-13818
idofovir	-13819
indopril	-13820
▁0,000),	-13821
▁0,004),	-13822
▁0,009).	-13823
▁01/2014	-13824
▁10/2016	-13825
▁8/2022.	-13826
▁sucrose	-13827
▁triterp	-13828
chromocyt	-13829
lavulanic	-13830
▁Medscape	-13831
▁clinical	-13832
▁neomycin	-13833
▁Carabelli	-13834
▁Microsoft	-13835
▁acetonide	-13836
▁militaris	-13837
▁monoamine	-13838
▁salicylic	-13839
▁Cefotaxime	-13840
▁Salbutamol	-13841
▁adrenaline	-13842
▁pregabalin	-13843
▁remdesivir	-13844
▁chloroquine	-13845
▁sulfonylurea	-13846
▁Trendelenburg	-13847
▁penicillamine	-13848
55	-13849
Có	-13850
EB	-13851
GO	-13852
,40	-13853
/44	-13854
02,	-13855
EBV	-13856
INR	-13857
TBG	-13858
ads	-13859
chi	-13860
eye	-13861
hai	-13862
hor	-13863
iev	-13864
inf	-13865
màu	-13866
ray	-13867
rys	-13868
utr	-13869
ỨNG	-13870
▁(%	-13871
▁IF	-13872
▁MB	-13873
▁OD	-13874
▁Pu	-13875
▁RM	-13876
▁VB	-13877
▁Yo	-13878
▁bp	-13879
▁id	-13880
▁os	-13881
▁pN	-13882
▁rì	-13883
▁ĐR	-13884
,43%	-13885
FISH	-13886
TTTC	-13887
ange	-13888
asik	-13889
cách	-13890
dopa	-13891
eson	-13892
evel	-13893
ezia	-13894
glyc	-13895
iken	-13896
imod	-13897
lòng	-13898
ohol	-13899
răng	-13900
thio	-13901
▁179	-13902
▁22,	-13903
▁241	-13904
▁43%	-13905
▁45,	-13906
▁45.	-13907
▁52,	-13908
▁532	-13909
▁7),	-13910
▁75,	-13911
▁8).	-13912
▁Adv	-13913
▁BCT	-13914
▁Boy	-13915
▁FIB	-13916
▁HRM	-13917
▁IVS	-13918
▁LOD	-13919
▁MBA	-13920
▁MCT	-13921
▁NAM	-13922
▁PAC	-13923
▁PTA	-13924
▁RLS	-13925
▁Ram	-13926
▁TBH	-13927
▁TDM	-13928
▁TNr	-13929
▁Tấm	-13930
▁VHI	-13931
▁VUR	-13932
▁VWD	-13933
▁[13	-13934
▁[14	-13935
▁cob	-13936
▁gar	-13937
▁lạo	-13938
▁man	-13939
▁ris	-13940
▁toc	-13941
▁trớ	-13942
,75%,	-13943
ariae	-13944
ested	-13945
icarb	-13946
iline	-13947
rence	-13948
tumor	-13949
▁(+):	-13950
▁(2,3	-13951
▁1,42	-13952
▁1,49	-13953
▁1,64	-13954
▁14%,	-13955
▁17%.	-13956
▁1991	-13957
▁22,9	-13958
▁26,5	-13959
▁3,01	-13960
▁3.8.	-13961
▁4,6%	-13962
▁44%,	-13963
▁5/10	-13964
▁6-11	-13965
▁60,6	-13966
▁7-10	-13967
▁8,2%	-13968
▁8-10	-13969
▁86%,	-13970
▁Bapt	-13971
▁FSGS	-13972
▁Good	-13973
▁HQCT	-13974
▁IGRA	-13975
▁IIEF	-13976
▁MCHC	-13977
▁MYCN	-13978
▁Mass	-13979
▁Mảnh	-13980
▁Poly	-13981
▁ProT	-13982
▁Rett	-13983
▁SLTC	-13984
▁Stim	-13985
▁TBSA	-13986
▁THÁI	-13987
▁TNGT	-13988
▁VATS	-13989
▁VMNM	-13990
▁bruc	-13991
▁forc	-13992
▁giầy	-13993
▁palm	-13994
▁parv	-13995
▁tông	-13996
▁Đặng	-13997
▁địch	-13998
/2008,	-13999
/2014,	-14000
Chiari	-14001
artoma	-14002
aussig	-14003
ermeth	-14004
globin	-14005
ometry	-14006
ophore	-14007
ophyll	-14008
string	-14009
▁10,9%	-14010
▁13,5%	-14011
▁14,6%	-14012
▁25,8%	-14013
▁28,2%	-14014
▁31,8%	-14015
▁43,3%	-14016
▁5,8%.	-14017
▁5,9%.	-14018
▁76,7%	-14019
▁86,5%	-14020
▁88,2%	-14021
▁95,7%	-14022
▁BiPAP	-14023
▁Delta	-14024
▁Krông	-14025
▁ruộng	-14026
vedilol	-14027
▁(2017)	-14028
▁(2018)	-14029
▁1/2006	-14030
▁26,7%,	-14031
▁4/2018	-14032
▁5/2017	-14033
▁6/2011	-14034
▁6/2021	-14035
▁9/2019	-14036
▁ADAMTS	-14037
▁Amidan	-14038
▁Duplex	-14039
▁Statin	-14040
▁benzen	-14041
▁choler	-14042
▁everol	-14043
▁glycat	-14044
▁neuron	-14045
catheter	-14046
ecycline	-14047
ocytosis	-14048
oflurane	-14049
quencing	-14050
▁(100%);	-14051
▁12/2010	-14052
▁Baptist	-14053
▁Douglas	-14054
▁Implant	-14055
▁VPMNKNP	-14056
▁biofilm	-14057
ermethrin	-14058
utherford	-14059
▁05/2021.	-14060
▁cacbonat	-14061
▁gluconat	-14062
▁erlotinib	-14063
▁Institutes	-14064
▁dabigatran	-14065
▁eosinophil	-14066
▁everolimus	-14067
▁peroxidase	-14068
▁sarcopenia	-14069
▁spinigerum	-14070
▁tuberculin	-14071
▁famciclovir	-14072
▁hydroxyurea	-14073
▁transferase	-14074
▁antithrombin	-14075
▁Microsporidia	-14076
▁corticosteroids	-14077
TI	-14078
dd	-14079
ẽm	-14080
-37	-14081
-5.	-14082
/70	-14083
3);	-14084
8%;	-14085
ACR	-14086
ASC	-14087
CNL	-14088
DTT	-14089
Str	-14090
chu	-14091
cấp	-14092
oag	-14093
oga	-14094
res	-14095
tio	-14096
uda	-14097
ury	-14098
ĐĐM	-14099
▁(*	-14100
▁-)	-14101
▁5;	-14102
▁Ic	-14103
▁QĐ	-14104
▁Rà	-14105
▁VS	-14106
▁ao	-14107
▁fL	-14108
▁gn	-14109
▁yl	-14110
,08%	-14111
,61%	-14112
2000	-14113
DCCT	-14114
NKBV	-14115
Việc	-14116
azon	-14117
chẩn	-14118
fess	-14119
giữa	-14120
iiod	-14121
inel	-14122
ning	-14123
ocer	-14124
raph	-14125
rhiz	-14126
ropr	-14127
seal	-14128
▁+),	-14129
▁304	-14130
▁4/5	-14131
▁66.	-14132
▁83.	-14133
▁9%,	-14134
▁AZF	-14135
▁Bac	-14136
▁Bữa	-14137
▁Giờ	-14138
▁IBD	-14139
▁IUD	-14140
▁Lắp	-14141
▁MCF	-14142
▁MRA	-14143
▁MYC	-14144
▁Man	-14145
▁Mul	-14146
▁NOS	-14147
▁Out	-14148
▁PBG	-14149
▁Reb	-14150
▁VHL	-14151
▁Wis	-14152
▁caf	-14153
▁cil	-14154
▁fet	-14155
▁rệp	-14156
▁sài	-14157
▁sào	-14158
▁tol	-14159
▁vol	-14160
▁vơi	-14161
/1999	-14162
abrad	-14163
elter	-14164
enoic	-14165
enone	-14166
olius	-14167
omalt	-14168
oplan	-14169
stant	-14170
urium	-14171
yland	-14172
▁1,2.	-14173
▁11%.	-14174
▁1994	-14175
▁2,17	-14176
▁2,67	-14177
▁20.0	-14178
▁21,5	-14179
▁25,2	-14180
▁25,7	-14181
▁26,1	-14182
▁27,8	-14183
▁34,1	-14184
▁45%.	-14185
▁45,7	-14186
▁6,2%	-14187
▁97%.	-14188
▁ACIP	-14189
▁Chán	-14190
▁Four	-14191
▁Khúc	-14192
▁Lara	-14193
▁Lown	-14194
▁NKTN	-14195
▁Pent	-14196
▁SDNN	-14197
▁SNAP	-14198
▁chắp	-14199
▁fibr	-14200
▁mMRC	-14201
▁quẩn	-14202
▁rRNA	-14203
▁Điền	-14204
▁Đụng	-14205
▁đuổi	-14206
,25%).	-14207
-2019.	-14208
agroph	-14209
isthor	-14210
uhaler	-14211
uretic	-14212
▁(0,0)	-14213
▁1,2,3	-14214
▁1,6%.	-14215
▁13,2%	-14216
▁17,2%	-14217
▁18,3%	-14218
▁2003,	-14219
▁22,6%	-14220
▁23,1%	-14221
▁3,8%.	-14222
▁36,7%	-14223
▁54,5%	-14224
▁72,1%	-14225
▁8,3%,	-14226
▁97,6%	-14227
▁Aaron	-14228
▁Baker	-14229
▁Brown	-14230
▁Buồng	-14231
▁CTRYT	-14232
▁Chuỗi	-14233
▁Liver	-14234
▁TAĐMP	-14235
▁chond	-14236
▁echin	-14237
▁khoát	-14238
▁khoèo	-14239
▁nướng	-14240
▁polip	-14241
▁tuyết	-14242
angiect	-14243
ibomius	-14244
iplatin	-14245
ocyanin	-14246
opictus	-14247
partate	-14248
▁(10%).	-14249
▁(60%).	-14250
▁27,5%,	-14251
▁3/2021	-14252
▁57,1%,	-14253
▁9/2015	-14254
▁Bishop	-14255
▁Folate	-14256
▁Plasma	-14257
▁microg	-14258
▁pectin	-14259
▁vacxin	-14260
▁văcxin	-14261
alimumab	-14262
national	-14263
▁0,008).	-14264
▁10/2012	-14265
▁12/2015	-14266
▁Charcot	-14267
▁Cholest	-14268
▁adenoma	-14269
▁glasgow	-14270
cisplatin	-14271
ucleotide	-14272
▁12/2017.	-14273
▁Cytokine	-14274
▁Genotype	-14275
▁Heimlich	-14276
▁Yersinia	-14277
▁photphat	-14278
▁vincrist	-14279
agrophytes	-14280
epinephrin	-14281
icardipine	-14282
loxacillin	-14283
▁2011-2012	-14284
▁androgens	-14285
▁cefuroxim	-14286
▁reductase	-14287
▁ritonavir	-14288
▁tamoxifen	-14289
nebacterium	-14290
▁2021-2022.	-14291
▁rhinovirus	-14292
▁aspergillus	-14293
▁glucosamine	-14294
+)	-14295
DQ	-14296
Mở	-14297
QL	-14298
mL	-14299
▁:	-14300
").	-14301
/38	-14302
/47	-14303
BTM	-14304
CTA	-14305
GIT	-14306
HCO	-14307
ONJ	-14308
Pol	-14309
TTB	-14310
TTK	-14311
arg	-14312
cTn	-14313
eet	-14314
hàm	-14315
iak	-14316
kov	-14317
lec	-14318
swa	-14319
tắc	-14320
yce	-14321
▁Ea	-14322
▁Ha	-14323
▁XN	-14324
▁Zh	-14325
▁bơ	-14326
▁ôn	-14327
,46%	-14328
,57%	-14329
LAIR	-14330
apar	-14331
axit	-14332
cùng	-14333
elle	-14334
etat	-14335
feld	-14336
ions	-14337
itch	-14338
unya	-14339
▁(3,	-14340
▁(8.	-14341
▁19*	-14342
▁211	-14343
▁239	-14344
▁315	-14345
▁480	-14346
▁52.	-14347
▁550	-14348
▁6/7	-14349
▁61.	-14350
▁75.	-14351
▁98.	-14352
▁ARN	-14353
▁Arn	-14354
▁Cog	-14355
▁Dạy	-14356
▁GPP	-14357
▁Hơi	-14358
▁IDF	-14359
▁LMB	-14360
▁Len	-14361
▁Lúc	-14362
▁Mas	-14363
▁McC	-14364
▁Mập	-14365
▁Net	-14366
▁Neu	-14367
▁Nọc	-14368
▁PNH	-14369
▁Sub	-14370
▁TIM	-14371
▁Taq	-14372
▁Tho	-14373
▁Vôi	-14374
▁arb	-14375
▁ast	-14376
▁bục	-14377
▁cay	-14378
▁cùn	-14379
▁dào	-14380
▁ert	-14381
▁fer	-14382
▁fil	-14383
▁flo	-14384
▁lạp	-14385
▁lẹo	-14386
▁mCi	-14387
▁mót	-14388
▁rep	-14389
▁vẩn	-14390
▁vằn	-14391
▁xáo	-14392
▁zol	-14393
▁ỨNG	-14394
▁”,“	-14395
0,2%)	-14396
COVID	-14397
Lenox	-14398
Weber	-14399
anson	-14400
chống	-14401
croft	-14402
dsDNA	-14403
ectal	-14404
iptin	-14405
minis	-14406
ngoài	-14407
olide	-14408
orter	-14409
press	-14410
ravet	-14411
▁(50%	-14412
▁1,6%	-14413
▁1,63	-14414
▁19,9	-14415
▁2,7%	-14416
▁21,9	-14417
▁23,4	-14418
▁24%,	-14419
▁25,4	-14420
▁30,9	-14421
▁31/5	-14422
▁35,6	-14423
▁36,7	-14424
▁37,2	-14425
▁55,6	-14426
▁6,6%	-14427
▁60,7	-14428
▁7,8%	-14429
▁73%,	-14430
▁ABCD	-14431
▁AOAC	-14432
▁City	-14433
▁FAST	-14434
▁HoBL	-14435
▁Khẩn	-14436
▁Lưới	-14437
▁Neur	-14438
▁News	-14439
▁Plat	-14440
▁Sang	-14441
▁TAVI	-14442
▁TKIs	-14443
▁Than	-14444
▁Thậm	-14445
▁Trãi	-14446
▁VLGM	-14447
▁dilt	-14448
▁guan	-14449
▁ngửi	-14450
▁Đang	-14451
▁điêu	-14452
0,0%),	-14453
atitis	-14454
cholic	-14455
ervain	-14456
plasia	-14457
utical	-14458
▁(11,1	-14459
▁01/03	-14460
▁1,2%.	-14461
▁1,5%.	-14462
▁10,2%	-14463
▁10,6%	-14464
▁15,2%	-14465
▁16,1%	-14466
▁16,3%	-14467
▁3,6%.	-14468
▁36,4%	-14469
▁6,1%.	-14470
▁63,2%	-14471
▁8,6%,	-14472
▁80,6%	-14473
▁81,3%	-14474
▁Bayes	-14475
▁CYFRA	-14476
▁Cyfra	-14477
▁Joyce	-14478
▁KHÁNG	-14479
▁NMCTC	-14480
▁Shell	-14481
▁Thắng	-14482
▁arsen	-14483
▁chưng	-14484
▁diagn	-14485
▁lycop	-14486
▁polys	-14487
aginata	-14488
opherol	-14489
tazidim	-14490
ungunya	-14491
uroxime	-14492
▁(80%).	-14493
▁62,5%.	-14494
▁9/2016	-14495
▁Ansari	-14496
▁Khoang	-14497
▁Parswa	-14498
▁tropic	-14499
albicans	-14500
antadine	-14501
efitinib	-14502
ibizumab	-14503
tefosine	-14504
▁(2012),	-14505
▁0,006).	-14506
▁01/2013	-14507
▁Bartter	-14508
▁Stephen	-14509
▁benzoat	-14510
▁bipolar	-14511
▁cepacia	-14512
▁hominis	-14513
▁plasmid	-14514
▁tyrosin	-14515
asalazine	-14516
cellulose	-14517
ypanosoma	-14518
▁12/2012.	-14519
▁2010-201	-14520
▁Implanon	-14521
▁Maryland	-14522
▁ProTaper	-14523
▁Syndrome	-14524
▁quinolon	-14525
▁retinoid	-14526
aplasmosis	-14527
asopressin	-14528
▁Midazolam	-14529
▁diltiazem	-14530
▁nicotinic	-14531
▁polymyxin	-14532
oclopramide	-14533
▁Biodentine	-14534
▁Rutherford	-14535
▁albopictus	-14536
▁cephalexin	-14537
cyclodextrin	-14538
▁esomeprazole	-14539
▁pembrolizumab	-14540
▁triglycerides	-14541
▁dexmedetomidin	-14542
▁staphylococcus	-14543
▁Corynebacterium	-14544
Tg	-14545
Tỷ	-14546
vô	-14547
▁à	-14548
-27	-14549
ALL	-14550
BSM	-14551
SIL	-14552
Tôi	-14553
aut	-14554
for	-14555
led	-14556
nhẹ	-14557
otf	-14558
rev	-14559
tol	-14560
ĐTT	-14561
ợng	-14562
▁6;	-14563
▁BĐ	-14564
▁Kn	-14565
▁VF	-14566
▁XO	-14567
▁eg	-14568
▁he	-14569
GTSS	-14570
andr	-14571
come	-14572
công	-14573
enoc	-14574
etti	-14575
hoạt	-14576
loét	-14577
mạch	-14578
sych	-14579
thân	-14580
ucle	-14581
udan	-14582
▁0.2	-14583
▁2.2	-14584
▁22)	-14585
▁252	-14586
▁27,	-14587
▁35,	-14588
▁4/6	-14589
▁5-8	-14590
▁677	-14591
▁71.	-14592
▁72.	-14593
▁ASC	-14594
▁BPD	-14595
▁Bet	-14596
▁CED	-14597
▁CRE	-14598
▁Cas	-14599
▁Cẩn	-14600
▁Def	-14601
▁EDS	-14602
▁GAS	-14603
▁Gil	-14604
▁Hal	-14605
▁MLL	-14606
▁Ngã	-14607
▁Ngũ	-14608
▁One	-14609
▁PSC	-14610
▁PWV	-14611
▁Sụt	-14612
▁TVT	-14613
▁Toc	-14614
▁UFH	-14615
▁USA	-14616
▁Ver	-14617
▁Vic	-14618
▁act	-14619
▁búp	-14620
▁chổ	-14621
▁cre	-14622
▁hla	-14623
▁hét	-14624
▁lig	-14625
▁mer	-14626
▁sim	-14627
▁sup	-14628
arris	-14629
etics	-14630
immer	-14631
ragit	-14632
uccin	-14633
▁(0,0	-14634
▁(3),	-14635
▁1,81	-14636
▁1,84	-14637
▁1,91	-14638
▁1,92	-14639
▁1.4.	-14640
▁1/20	-14641
▁19,1	-14642
▁2,21	-14643
▁21%.	-14644
▁25,1	-14645
▁27%,	-14646
▁27,7	-14647
▁28,2	-14648
▁35,4	-14649
▁35,5	-14650
▁42%,	-14651
▁48,8	-14652
▁5,4%	-14653
▁50,3	-14654
▁6,9%	-14655
▁8,5%	-14656
▁85,7	-14657
▁9,7%	-14658
▁92%.	-14659
▁AIMS	-14660
▁Birm	-14661
▁Cast	-14662
▁DMPA	-14663
▁Emer	-14664
▁Khàn	-14665
▁MERS	-14666
▁Port	-14667
▁[1].	-14668
▁flud	-14669
▁garô	-14670
▁láng	-14671
▁mini	-14672
▁ngải	-14673
▁stud	-14674
▁tiếc	-14675
ahydro	-14676
arburg	-14677
atzker	-14678
consin	-14679
impson	-14680
otocin	-14681
ropean	-14682
rosine	-14683
truyền	-14684
usside	-14685
▁0,999	-14686
▁12,3%	-14687
▁19,2%	-14688
▁19,4%	-14689
▁2007,	-14690
▁3,2%.	-14691
▁31,7%	-14692
▁32,5%	-14693
▁4,4%,	-14694
▁55,6%	-14695
▁84,6%	-14696
▁87,3%	-14697
▁93,2%	-14698
▁PRISM	-14699
▁Peutz	-14700
▁Phaco	-14701
▁Video	-14702
▁locus	-14703
▁metyl	-14704
▁thiền	-14705
ectious	-14706
miphene	-14707
oplanin	-14708
oxidase	-14709
pirocin	-14710
udragit	-14711
▁(70%),	-14712
▁10,8%.	-14713
▁42,9%,	-14714
▁5/2020	-14715
▁6/2009	-14716
▁7/2019	-14717
▁85,7%,	-14718
▁Centre	-14719
▁Dravet	-14720
▁Nghiện	-14721
▁TTGDSK	-14722
▁UTNBVM	-14723
▁barium	-14724
▁cation	-14725
▁dioxit	-14726
▁hybrid	-14727
▁photon	-14728
▁silica	-14729
agliptin	-14730
operidol	-14731
▁(16,7%)	-14732
▁(71,4%)	-14733
▁(8,3%).	-14734
▁0,007).	-14735
▁06/2015	-14736
▁12/2012	-14737
▁12/2017	-14738
▁6/2014.	-14739
▁Atlanta	-14740
▁Epidata	-14741
▁Stimson	-14742
▁Vincent	-14743
▁massage	-14744
▁mercapt	-14745
▁xylitol	-14746
▁Copeptin	-14747
▁Schirmer	-14748
▁Takayasu	-14749
▁diphenyl	-14750
▁nitrogen	-14751
▁paranoid	-14752
▁sinensis	-14753
roprusside	-14754
thiouracil	-14755
▁Ascension	-14756
▁Brookwood	-14757
▁Fibroscan	-14758
▁Wisconsin	-14759
▁penicilin	-14760
▁ribavirin	-14761
eochromocyt	-14762
▁Birmingham	-14763
▁chloroform	-14764
▁methionine	-14765
▁Christopher	-14766
▁carbapenems	-14767
▁mebendazole	-14768
▁nitrophenyl	-14769
▁perindopril	-14770
▁Trichophyton	-14771
▁metronidazol	-14772
ifidobacterium	-14773
▁tetracyclines	-14774
▁Recommendations	-14775
,,	-14776
CY	-14777
Ho	-14778
KL	-14779
QT	-14780
Số	-14781
ZA	-14782
lệ	-14783
yx	-14784
ĐV	-14785
-44	-14786
/03	-14787
/17	-14788
/22	-14789
/26	-14790
/37	-14791
3%;	-14792
Bri	-14793
ERS	-14794
Hem	-14795
NGS	-14796
NPV	-14797
TLT	-14798
VMN	-14799
aci	-14800
aid	-14801
ala	-14802
ana	-14803
ays	-14804
bes	-14805
dam	-14806
gue	-14807
ids	-14808
kel	-14809
khó	-14810
lab	-14811
plc	-14812
tạo	-14813
yph	-14814
▁Ao	-14815
▁DN	-14816
▁Dò	-14817
▁EA	-14818
▁EQ	-14819
▁Ir	-14820
▁ON	-14821
▁Xe	-14822
▁sv	-14823
▁uy	-14824
,35%	-14825
,36%	-14826
,58%	-14827
Phân	-14828
TMNV	-14829
brom	-14830
chứa	-14831
crAg	-14832
eGFR	-14833
ehal	-14834
etia	-14835
nier	-14836
opyr	-14837
trop	-14838
▁0.4	-14839
▁1.4	-14840
▁14)	-14841
▁219	-14842
▁251	-14843
▁267	-14844
▁272	-14845
▁285	-14846
▁313	-14847
▁370	-14848
▁49.	-14849
▁5%)	-14850
▁5-1	-14851
▁80.	-14852
▁9).	-14853
▁ADE	-14854
▁Ann	-14855
▁BMD	-14856
▁CLA	-14857
▁COL	-14858
▁CON	-14859
▁DES	-14860
▁DOT	-14861
▁DWI	-14862
▁EMG	-14863
▁EUA	-14864
▁GAP	-14865
▁Gon	-14866
▁Guy	-14867
▁Gút	-14868
▁Hới	-14869
▁IVC	-14870
▁NHL	-14871
▁ORS	-14872
▁RGK	-14873
▁Ret	-14874
▁SCT	-14875
▁Sắp	-14876
▁UVA	-14877
▁VTI	-14878
▁[15	-14879
▁[18	-14880
▁arv	-14881
▁def	-14882
▁den	-14883
▁lọt	-14884
▁nho	-14885
▁quà	-14886
▁sph	-14887
▁ĐTN	-14888
▁Đàn	-14889
▁đón	-14890
alies	-14891
atide	-14892
enoco	-14893
iance	-14894
iclos	-14895
onald	-14896
ophyl	-14897
orris	-14898
rophy	-14899
shall	-14900
urine	-14901
uthia	-14902
▁(13.	-14903
▁(2,1	-14904
▁(3/1	-14905
▁(4),	-14906
▁1,22	-14907
▁1,72	-14908
▁12%,	-14909
▁12).	-14910
▁13%,	-14911
▁16,8	-14912
▁2,25	-14913
▁20%;	-14914
▁23%.	-14915
▁23,2	-14916
▁23,9	-14917
▁27,5	-14918
▁3.11	-14919
▁31,9	-14920
▁34%,	-14921
▁5,1%	-14922
▁70,2	-14923
▁70,5	-14924
▁80,8	-14925
▁98%,	-14926
▁99%.	-14927
▁CKMB	-14928
▁CLĐT	-14929
▁Cứng	-14930
▁Gale	-14931
▁Gotf	-14932
▁Life	-14933
▁MCPD	-14934
▁MGIT	-14935
▁Mont	-14936
▁NPHS	-14937
▁Quai	-14938
▁SCLC	-14939
▁TAĐP	-14940
▁Thục	-14941
▁Wait	-14942
▁anom	-14943
▁ment	-14944
▁oxyc	-14945
▁quặm	-14946
▁suối	-14947
▁trùm	-14948
▁ĐMCD	-14949
amadol	-14950
amicin	-14951
calcin	-14952
carbon	-14953
essure	-14954
igmine	-14955
ilosis	-14956
ivirus	-14957
lastic	-14958
ophyte	-14959
ropium	-14960
steron	-14961
theria	-14962
umarol	-14963
▁0,004	-14964
▁01/08	-14965
▁1,3%,	-14966
▁13,7%	-14967
▁18,8%	-14968
▁27,5%	-14969
▁28,9%	-14970
▁31,6%	-14971
▁45,5%	-14972
▁46,9%	-14973
▁47,7%	-14974
▁51,5%	-14975
▁65,9%	-14976
▁71,4%	-14977
▁72,7%	-14978
▁76,5%	-14979
▁9,8%.	-14980
▁91,3%	-14981
▁96,6%	-14982
▁BCCDT	-14983
▁Chiếu	-14984
▁GTNMC	-14985
▁Janus	-14986
▁Lasik	-14987
▁Levin	-14988
▁Prost	-14989
▁Shunt	-14990
▁Study	-14991
▁TTTON	-14992
▁[1]).	-14993
▁antim	-14994
▁chếch	-14995
▁quánh	-14996
▁scale	-14997
▁trast	-14998
▁tript	-14999
ariasis	-15000
butanol	-15001
quinone	-15002
▁(40%).	-15003
▁15.000	-15004
▁3/2019	-15005
▁33,33%	-15006
▁5/2021	-15007
▁7/2017	-15008
▁91,7%.	-15009
▁97,1%,	-15010
▁Forest	-15011
▁HBVDNA	-15012
▁succin	-15013
▁trehal	-15014
irolimus	-15015
▁(12,5%)	-15016
▁10/2021	-15017
▁12/2009	-15018
▁Cystois	-15019
▁Steroid	-15020
▁glutath	-15021
aceutical	-15022
azoxanide	-15023
fessional	-15024
omeprazol	-15025
oxygenase	-15026
▁(83,3%),	-15027
▁12/2014.	-15028
▁2012-201	-15029
▁Gotfried	-15030
▁Moyamoya	-15031
▁Wilcoxon	-15032
▁carboxyl	-15033
▁glucuron	-15034
▁Emergency	-15035
▁anomalies	-15036
▁celecoxib	-15037
▁rifabutin	-15038
ecalciferol	-15039
enocoumarol	-15040
▁Coccidioid	-15041
▁Tazobactam	-15042
▁fluconazol	-15043
▁omeprazole	-15044
▁salicylate	-15045
odeoxycholic	-15046
▁Angiotensin	-15047
▁Clopidogrel	-15048
▁Clostridial	-15049
▁Gastroenter	-15050
▁Tocilizumab	-15051
▁Vasopressin	-15052
▁hydrocacbon	-15053
▁trastuzumab	-15054
▁Organization	-15055
▁rosuvastatin	-15056
▁Erythropoietin	-15057
▁hydroxyvitamin	-15058
▁mentagrophytes	-15059
GR	-15060
Sc	-15061
WY	-15062
dị	-15063
ek	-15064
hạ	-15065
ww	-15066
-04	-15067
-80	-15068
.00	-15069
00)	-15070
6%;	-15071
ADA	-15072
CAR	-15073
CMC	-15074
CRL	-15075
IDP	-15076
MCT	-15077
MDA	-15078
MDR	-15079
PDA	-15080
The	-15081
ULA	-15082
WBC	-15083
asa	-15084
cơn	-15085
eic	-15086
ilo	-15087
mar	-15088
sâu	-15089
tâm	-15090
xia	-15091
đột	-15092
▁AM	-15093
▁Cs	-15094
▁Ok	-15095
▁Vu	-15096
▁Zn	-15097
▁[7	-15098
▁[9	-15099
▁bợ	-15100
▁cở	-15101
▁ef	-15102
▁mV	-15103
▁rủ	-15104
▁tt	-15105
,11%	-15106
,50)	-15107
-155	-15108
-311	-15109
01).	-15110
HCTH	-15111
IDSA	-15112
ales	-15113
best	-15114
enot	-15115
etan	-15116
hỗng	-15117
list	-15118
orol	-15119
roke	-15120
skin	-15121
sulf	-15122
tion	-15123
tran	-15124
work	-15125
yker	-15126
ĐMCD	-15127
▁(4,	-15128
▁1);	-15129
▁1-1	-15130
▁19)	-15131
▁218	-15132
▁23,	-15133
▁275	-15134
▁3.6	-15135
▁3.7	-15136
▁354	-15137
▁36)	-15138
▁54.	-15139
▁8),	-15140
▁90.	-15141
▁97.	-15142
▁AIP	-15143
▁Bis	-15144
▁Blo	-15145
▁GOT	-15146
▁INS	-15147
▁Itr	-15148
▁Kat	-15149
▁LAD	-15150
▁NPD	-15151
▁OHI	-15152
▁PAD	-15153
▁PAM	-15154
▁PHQ	-15155
▁PLA	-15156
▁PSS	-15157
▁Quỹ	-15158
▁Rem	-15159
▁SAT	-15160
▁SHV	-15161
▁SLT	-15162
▁Sởi	-15163
▁TNH	-15164
▁Top	-15165
▁Tám	-15166
▁VMX	-15167
▁VTQ	-15168
▁Xảy	-15169
▁Xẹp	-15170
▁aVR	-15171
▁abs	-15172
▁bèo	-15173
▁hoi	-15174
▁lột	-15175
▁mùn	-15176
▁nev	-15177
▁pod	-15178
▁ron	-15179
▁tPA	-15180
▁tản	-15181
▁xoi	-15182
,25%,	-15183
-2005	-15184
Forte	-15185
aclor	-15186
cript	-15187
emata	-15188
immun	-15189
itary	-15190
ities	-15191
leman	-15192
opsis	-15193
pyrid	-15194
ureas	-15195
worth	-15196
▁(1/2	-15197
▁(120	-15198
▁0,6%	-15199
▁1,41	-15200
▁1,55	-15201
▁18,6	-15202
▁19-8	-15203
▁21%,	-15204
▁22,2	-15205
▁24%.	-15206
▁24,1	-15207
▁24,7	-15208
▁27,2	-15209
▁27,3	-15210
▁28%,	-15211
▁28%.	-15212
▁29,9	-15213
▁3.10	-15214
▁3.5.	-15215
▁3500	-15216
▁48%.	-15217
▁51,9	-15218
▁53,5	-15219
▁6,4%	-15220
▁60,2	-15221
▁7,1%	-15222
▁76,7	-15223
▁90%;	-15224
▁Acad	-15225
▁Chen	-15226
▁Chấy	-15227
▁Coli	-15228
▁DILI	-15229
▁Diaz	-15230
▁ETCO	-15231
▁IIIC	-15232
▁IIIb	-15233
▁MRCP	-15234
▁NCKH	-15235
▁Phyt	-15236
▁Phôi	-15237
▁Surv	-15238
▁TCVN	-15239
▁TURP	-15240
▁Trục	-15241
▁UCLA	-15242
▁Unit	-15243
▁VLDL	-15244
▁beam	-15245
▁ging	-15246
▁tuột	-15247
,14%).	-15248
amulin	-15249
eghers	-15250
ephrin	-15251
oacryl	-15252
▁(2009	-15253
▁0,6%.	-15254
▁1,1%.	-15255
▁12,7%	-15256
▁13,4%	-15257
▁2,8%,	-15258
▁2001,	-15259
▁23,2%	-15260
▁24,6%	-15261
▁26,3%	-15262
▁29,4%	-15263
▁31/10	-15264
▁37,9%	-15265
▁43,8%	-15266
▁48,6%	-15267
▁5,6%.	-15268
▁58,8%	-15269
▁7,7%.	-15270
▁7,8%.	-15271
▁72,5%	-15272
▁9,4%.	-15273
▁90,3%	-15274
▁90,5%	-15275
▁Chẳng	-15276
▁Entam	-15277
▁GTVMT	-15278
▁Penic	-15279
▁Renin	-15280
▁VMĐTĐ	-15281
▁cardi	-15282
▁chiên	-15283
▁nơron	-15284
▁pyrim	-15285
▁tráng	-15286
acetate	-15287
einberg	-15288
isartan	-15289
▁(1,4%)	-15290
▁(4,8%)	-15291
▁0,000)	-15292
▁11,1%.	-15293
▁140/90	-15294
▁3/2017	-15295
▁57,1%.	-15296
▁6/2013	-15297
▁85,7%.	-15298
▁88,9%,	-15299
▁Arnold	-15300
▁HBcrAg	-15301
▁Khuyên	-15302
▁Miller	-15303
▁capsul	-15304
▁cereus	-15305
▁hocmon	-15306
▁peptit	-15307
ilotinib	-15308
obutyric	-15309
otrigine	-15310
rombopag	-15311
▁(2016),	-15312
▁(22,2%)	-15313
▁06/2020	-15314
▁06/2021	-15315
▁11/2016	-15316
▁6/2010.	-15317
▁Babesia	-15318
▁Marburg	-15319
▁babesia	-15320
▁cannula	-15321
▁metallo	-15322
antavirus	-15323
ylomicron	-15324
▁06/2019.	-15325
▁Androgen	-15326
▁Curcumin	-15327
▁Fasciola	-15328
▁Quervain	-15329
▁reaction	-15330
▁saginata	-15331
imethamine	-15332
▁Cockcroft	-15333
▁Coliforms	-15334
▁Waitemata	-15335
▁galactose	-15336
▁nifedipin	-15337
▁rifaximin	-15338
▁tretinoin	-15339
osaconazole	-15340
▁adalimumab	-15341
▁sofosbuvir	-15342
▁Cyclosporin	-15343
▁Dermatology	-15344
▁Melioidosis	-15345
▁Rivaroxaban	-15346
▁ganciclovir	-15347
▁natriuretic	-15348
▁Itraconazole	-15349
▁voriconazole	-15350
▁acetylcysteine	-15351
,%	-15352
82	-15353
:1	-15354
AE	-15355
AF	-15356
Br	-15357
CQ	-15358
DN	-15359
tO	-15360
Để	-15361
(+)	-15362
,6.	-15363
-4)	-15364
-42	-15365
-55	-15366
-6)	-15367
/43	-15368
/48	-15369
01)	-15370
117	-15371
Ald	-15372
CUR	-15373
GCS	-15374
Hib	-15375
IgM	-15376
MAR	-15377
MTB	-15378
RAT	-15379
XHN	-15380
].)	-15381
cDM	-15382
cha	-15383
enb	-15384
eol	-15385
idd	-15386
inc	-15387
nằm	-15388
phù	-15389
quy	-15390
quá	-15391
sum	-15392
toc	-15393
ttr	-15394
yth	-15395
▁*:	-15396
▁Bé	-15397
▁Hộ	-15398
▁Ix	-15399
▁Lt	-15400
▁OP	-15401
▁PQ	-15402
▁SH	-15403
▁lỡ	-15404
▁Áo	-15405
▁đm	-15406
,09%	-15407
,4).	-15408
,42%	-15409
,47%	-15410
2.2.	-15411
BHYT	-15412
DDTT	-15413
MTCD	-15414
NYHA	-15415
asic	-15416
cánh	-15417
esda	-15418
like	-15419
loid	-15420
năng	-15421
otyp	-15422
ropo	-15423
trim	-15424
▁-19	-15425
▁0-3	-15426
▁1-6	-15427
▁650	-15428
▁ALP	-15429
▁AUB	-15430
▁Aer	-15431
▁BNT	-15432
▁DQB	-15433
▁EPA	-15434
▁GAT	-15435
▁ICG	-15436
▁MAO	-15437
▁MCP	-15438
▁MHz	-15439
▁McG	-15440
▁OEM	-15441
▁PAI	-15442
▁Pyr	-15443
▁Sam	-15444
▁Tob	-15445
▁bus	-15446
▁môt	-15447
▁mạt	-15448
▁mắn	-15449
▁nám	-15450
▁yếm	-15451
HKTMS	-15452
OLINE	-15453
VIRUS	-15454
aftor	-15455
eline	-15456
ensen	-15457
holtz	-15458
idopa	-15459
iotin	-15460
linef	-15461
onium	-15462
ovaqu	-15463
ratia	-15464
▁(500	-15465
▁1,76	-15466
▁1,77	-15467
▁1,8%	-15468
▁1,86	-15469
▁1/11	-15470
▁18%.	-15471
▁19,0	-15472
▁19,3	-15473
▁3,25	-15474
▁3.6.	-15475
▁30,7	-15476
▁30,8	-15477
▁31%,	-15478
▁31,7	-15479
▁32,4	-15480
▁39,5	-15481
▁40,4	-15482
▁46,8	-15483
▁5,2%	-15484
▁55,8	-15485
▁6/1.	-15486
▁64%.	-15487
▁69,2	-15488
▁8000	-15489
▁87%,	-15490
▁93%,	-15491
▁94%,	-15492
▁98%.	-15493
▁AAST	-15494
▁ACEI	-15495
▁ALBI	-15496
▁BCAT	-15497
▁BRUE	-15498
▁BTMT	-15499
▁Beth	-15500
▁Biết	-15501
▁CPTM	-15502
▁Chem	-15503
▁HMNT	-15504
▁Helm	-15505
▁KHUY	-15506
▁Khuy	-15507
▁Miền	-15508
▁Mong	-15509
▁Mông	-15510
▁NMTC	-15511
▁Ngồi	-15512
▁Phys	-15513
▁SKTT	-15514
▁Stre	-15515
▁THBH	-15516
▁TICI	-15517
▁Wave	-15518
▁giỏi	-15519
▁hoán	-15520
▁isop	-15521
▁mach	-15522
▁nhấp	-15523
▁nhục	-15524
▁vuốt	-15525
▁ĐQTM	-15526
azosin	-15527
igashi	-15528
iposid	-15529
ortium	-15530
phenir	-15531
uction	-15532
▁01/04	-15533
▁1,3%.	-15534
▁11,7%	-15535
▁11-14	-15536
▁22,4%	-15537
▁22,5%	-15538
▁28,3%	-15539
▁29,5%	-15540
▁3,7%.	-15541
▁33,9%	-15542
▁35,5%	-15543
▁35,7%	-15544
▁39,3%	-15545
▁4,5%,	-15546
▁50-59	-15547
▁64,3%	-15548
▁67,5%	-15549
▁7,1%,	-15550
▁7,3%.	-15551
▁84,2%	-15552
▁9,1%,	-15553
▁9,7%.	-15554
▁94,7%	-15555
▁96,2%	-15556
▁97,5%	-15557
▁ASCVD	-15558
▁AUROC	-15559
▁Angle	-15560
▁Cobas	-15561
▁Davos	-15562
▁Essen	-15563
▁Hoang	-15564
▁Silic	-15565
▁Tumor	-15566
▁Villa	-15567
▁Xoang	-15568
▁YGTSS	-15569
▁luteo	-15570
▁tular	-15571
UTBMTBG	-15572
Whitney	-15573
estionn	-15574
latskin	-15575
▁2.2.5.	-15576
▁2.3.1.	-15577
▁36,7%,	-15578
▁53,3%,	-15579
▁8/2010	-15580
▁Master	-15581
▁blaOXA	-15582
▁microL	-15583
▁terbin	-15584
acrylate	-15585
anercept	-15586
olvaptan	-15587
ovaquone	-15588
▁(14,3%)	-15589
▁11/2017	-15590
▁12/2021	-15591
▁7/2020.	-15592
▁Dietary	-15593
▁Nicotin	-15594
▁PERCIST	-15595
▁Pessler	-15596
▁keratin	-15597
▁sulfide	-15598
roalbumin	-15599
▁(12,5%),	-15600
▁(16,7%).	-15601
▁Hennepin	-15602
▁Marshall	-15603
▁coliform	-15604
▁lysosome	-15605
iraglutide	-15606
linefelter	-15607
steocalcin	-15608
▁2013-2014	-15609
▁2019-2021	-15610
▁Helmholtz	-15611
▁Onchocerc	-15612
▁Pediatric	-15613
▁Quinolone	-15614
▁Ribavirin	-15615
▁ertapenem	-15616
▁felodipin	-15617
▁oxycodone	-15618
armacophore	-15619
▁01/01/2015	-15620
▁Consortium	-15621
▁Healthcare	-15622
▁Tacrolimus	-15623
▁dobutamine	-15624
▁hesperidin	-15625
▁lymphocyte	-15626
▁muscarinic	-15627
▁sildenafil	-15628
▁Propranolol	-15629
▁cannabinoid	-15630
▁gemcitabine	-15631
▁International	-15632
▁protoporphyrin	-15633
Bu	-15634
DK	-15635
HQ	-15636
Lo	-15637
Ne	-15638
bo	-15639
mà	-15640
âp	-15641
íc	-15642
180	-15643
450	-15644
5);	-15645
6,7	-15646
AFP	-15647
APT	-15648
CAB	-15649
CPR	-15650
EPO	-15651
ICE	-15652
OMC	-15653
OSA	-15654
TPA	-15655
]);	-15656
ade	-15657
bon	-15658
emy	-15659
hen	-15660
iph	-15661
kal	-15662
neu	-15663
nhu	-15664
osm	-15665
oue	-15666
sal	-15667
tar	-15668
tuỵ	-15669
uts	-15670
xêm	-15671
xít	-15672
đùi	-15673
▁*)	-15674
▁Dạ	-15675
▁GL	-15676
▁PF	-15677
▁kỉ	-15678
▁mé	-15679
▁oẹ	-15680
▁vĩ	-15681
▁xá	-15682
-0,5	-15683
00).	-15684
ACWY	-15685
ANSS	-15686
BVCR	-15687
CLIA	-15688
NAAT	-15689
amat	-15690
aton	-15691
bott	-15692
ergy	-15693
isky	-15694
ller	-15695
ober	-15696
rank	-15697
tinh	-15698
uxol	-15699
xêmi	-15700
▁-10	-15701
▁0-6	-15702
▁232	-15703
▁309	-15704
▁327	-15705
▁365	-15706
▁410	-15707
▁45)	-15708
▁65,	-15709
▁74.	-15710
▁85.	-15711
▁89.	-15712
▁AAA	-15713
▁AMA	-15714
▁BMP	-15715
▁Bưu	-15716
▁Cầm	-15717
▁DDĐ	-15718
▁DRB	-15719
▁Dec	-15720
▁Dys	-15721
▁Dải	-15722
▁FRC	-15723
▁GRS	-15724
▁Gal	-15725
▁Git	-15726
▁IPV	-15727
▁IgD	-15728
▁KPC	-15729
▁Kẽm	-15730
▁Liu	-15731
▁Lớn	-15732
▁MRD	-15733
▁MSM	-15734
▁Nal	-15735
▁OAC	-15736
▁Ond	-15737
▁Ota	-15738
▁PLC	-15739
▁Râu	-15740
▁SER	-15741
▁Syd	-15742
▁TPN	-15743
▁TPO	-15744
▁TTĐ	-15745
▁Tím	-15746
▁VSN	-15747
▁Vét	-15748
▁coh	-15749
▁dar	-15750
▁dup	-15751
▁fol	-15752
▁lép	-15753
▁nới	-15754
▁pet	-15755
▁pít	-15756
▁rịa	-15757
▁sul	-15758
▁tem	-15759
▁véo	-15760
▁vọt	-15761
▁đăk	-15762
Diclo	-15763
Quang	-15764
atase	-15765
atoma	-15766
itric	-15767
oline	-15768
ozyme	-15769
rowth	-15770
▁(8%)	-15771
▁0,8%	-15772
▁1,10	-15773
▁1,26	-15774
▁10).	-15775
▁103,	-15776
▁21,8	-15777
▁22,8	-15778
▁29,6	-15779
▁3,5%	-15780
▁33%.	-15781
▁40,2	-15782
▁43,5	-15783
▁48%,	-15784
▁50,4	-15785
▁50,6	-15786
▁51,2	-15787
▁53%,	-15788
▁54,8	-15789
▁56,3	-15790
▁63,6	-15791
▁65%,	-15792
▁66,7	-15793
▁67,5	-15794
▁8,9%	-15795
▁84%,	-15796
▁93%.	-15797
▁ARBs	-15798
▁Barc	-15799
▁CSYT	-15800
▁Crit	-15801
▁Gene	-15802
▁KNGT	-15803
▁Kiệt	-15804
▁Lòng	-15805
▁Lông	-15806
▁Moun	-15807
▁NRAS	-15808
▁Nitơ	-15809
▁Prim	-15810
▁Rush	-15811
▁THAI	-15812
▁TTĐT	-15813
▁Thao	-15814
▁WFNS	-15815
▁Wald	-15816
▁XVĐM	-15817
▁capt	-15818
▁mọng	-15819
▁pool	-15820
▁sững	-15821
▁vals	-15822
,22%).	-15823
aneous	-15824
enzyme	-15825
ersion	-15826
evelop	-15827
iensis	-15828
iflora	-15829
ifolia	-15830
irosis	-15831
orolac	-15832
orrhag	-15833
ronine	-15834
▁(16%)	-15835
▁(2005	-15836
▁(4%).	-15837
▁0,009	-15838
▁0,4%.	-15839
▁0,8%.	-15840
▁01/11	-15841
▁13,9%	-15842
▁14,7%	-15843
▁17,7%	-15844
▁18,5%	-15845
▁2,9%,	-15846
▁21,8%	-15847
▁22,3%	-15848
▁22,9%	-15849
▁26,1%	-15850
▁3,4%.	-15851
▁42,4%	-15852
▁64,7%	-15853
▁68,4%	-15854
▁7,4%,	-15855
▁71,7%	-15856
▁73,7%	-15857
▁73,9%	-15858
▁81,4%	-15859
▁95,2%	-15860
▁Arsen	-15861
▁Bowen	-15862
▁Denis	-15863
▁Endoc	-15864
▁HFrEF	-15865
▁HKTMN	-15866
▁HbsAg	-15867
▁Laura	-15868
▁Rocky	-15869
▁Sudan	-15870
▁Triều	-15871
▁Wills	-15872
▁anpha	-15873
▁child	-15874
▁thạnh	-15875
▁trừng	-15876
Higashi	-15877
amidine	-15878
flurane	-15879
ifolius	-15880
oprofen	-15881
patrick	-15882
romyces	-15883
utzfeld	-15884
yramine	-15885
▁(2,8%)	-15886
▁(2009)	-15887
▁(8,3%)	-15888
▁(90%).	-15889
▁0,00).	-15890
▁00.000	-15891
▁10,5%,	-15892
▁10,5%.	-15893
▁22,2%.	-15894
▁36,7%.	-15895
▁4/2017	-15896
▁5/2011	-15897
▁6/2017	-15898
▁81,3%,	-15899
▁81,8%,	-15900
▁81,8%.	-15901
▁95,5%,	-15902
▁Brazil	-15903
▁Giemsa	-15904
▁Khuynh	-15905
▁Pubmed	-15906
▁TCYTTG	-15907
▁anhydr	-15908
▁axetat	-15909
▁benzyl	-15910
▁decarb	-15911
▁matrix	-15912
adiazine	-15913
estrogen	-15914
etrozole	-15915
relation	-15916
▁0,005),	-15917
▁11/2014	-15918
▁Amyloid	-15919
▁Sevoflu	-15920
▁Sokolow	-15921
▁Streitz	-15922
▁WaveOne	-15923
▁anthrac	-15924
▁azelaic	-15925
▁benzoyl	-15926
▁methoxy	-15927
▁proseal	-15928
lichiosis	-15929
steraceae	-15930
▁06/2022.	-15931
▁10/2020.	-15932
▁2005-200	-15933
▁Cefepime	-15934
▁European	-15935
▁Fournier	-15936
▁Gitelman	-15937
▁Lawrence	-15938
▁Mountain	-15939
▁cholerae	-15940
▁pyogenes	-15941
uxolitinib	-15942
▁2016-2017	-15943
▁Adenosine	-15944
▁Alexandra	-15945
▁Entamoeba	-15946
▁captopril	-15947
▁carnitine	-15948
▁cefazolin	-15949
▁ephedrine	-15950
aldosterone	-15951
▁Adenovirus	-15952
▁Bortezomib	-15953
▁Creutzfeld	-15954
▁Octreotide	-15955
▁31/12/2020.	-15956
▁Prothrombin	-15957
▁chondroitin	-15958
▁progestogen	-15959
▁vincristine	-15960
▁Angiostrongyl	-15961
▁acenocoumarol	-15962
▁buprenorphine	-15963
▁dapagliflozin	-15964
9:	-15965
Sh	-15966
Tu	-15967
VD	-15968
ZL	-15969
dr	-15970
hồ	-15971
ru	-15972
-34	-15973
11,	-15974
2%;	-15975
2);	-15976
858	-15977
9%)	-15978
APA	-15979
Hct	-15980
MAC	-15981
NDM	-15982
OMA	-15983
SpO	-15984
ehn	-15985
hem	-15986
ila	-15987
irc	-15988
kho	-15989
lớn	-15990
phụ	-15991
pos	-15992
rew	-15993
thụ	-15994
thứ	-15995
tic	-15996
zan	-15997
▁-9	-15998
▁4-	-15999
▁Dd	-16000
▁Kl	-16001
▁MG	-16002
▁MP	-16003
▁Ov	-16004
▁xô	-16005
▁Đồ	-16006
▁đê	-16007
)...	-16008
,2).	-16009
EART	-16010
Plus	-16011
THPT	-16012
Thực	-16013
UTBM	-16014
YTNC	-16015
adua	-16016
anax	-16017
arch	-16018
card	-16019
elet	-16020
elia	-16021
flav	-16022
illi	-16023
iram	-16024
miễn	-16025
omin	-16026
ript	-16027
roth	-16028
then	-16029
ushi	-16030
uted	-16031
ynec	-16032
ĐĐTH	-16033
▁-20	-16034
▁13)	-16035
▁17)	-16036
▁223	-16037
▁229	-16038
▁288	-16039
▁33.	-16040
▁35)	-16041
▁386	-16042
▁42.	-16043
▁68.	-16044
▁69.	-16045
▁9%.	-16046
▁93.	-16047
▁ACS	-16048
▁ATV	-16049
▁BVT	-16050
▁Bil	-16051
▁Bại	-16052
▁CMS	-16053
▁Che	-16054
▁Iod	-16055
▁KTV	-16056
▁Ltd	-16057
▁Meh	-16058
▁Mun	-16059
▁NTM	-16060
▁ORF	-16061
▁PAS	-16062
▁Phe	-16063
▁Sun	-16064
▁SỨC	-16065
▁TOP	-16066
▁dim	-16067
▁hyd	-16068
▁nệm	-16069
▁phu	-16070
▁pil	-16071
▁rot	-16072
▁rán	-16073
▁sun	-16074
▁top	-16075
▁vẩu	-16076
-2000	-16077
butol	-16078
erian	-16079
iscus	-16080
ocyan	-16081
ophan	-16082
osmin	-16083
ostam	-16084
parag	-16085
rossl	-16086
▁(4%)	-16087
▁(5,5	-16088
▁...)	-16089
▁0,7.	-16090
▁1,69	-16091
▁1,74	-16092
▁1,75	-16093
▁1,99	-16094
▁10%)	-16095
▁1250	-16096
▁14%.	-16097
▁2,06	-16098
▁2,37	-16099
▁22,1	-16100
▁25%;	-16101
▁26,9	-16102
▁28,5	-16103
▁28,6	-16104
▁29,1	-16105
▁3,1%	-16106
▁3,46	-16107
▁3,7%	-16108
▁32,5	-16109
▁36%.	-16110
▁4,9%	-16111
▁4/10	-16112
▁45,4	-16113
▁55%.	-16114
▁57,1	-16115
▁60%)	-16116
▁62%,	-16117
▁87%.	-16118
▁88%.	-16119
▁9,6%	-16120
▁AIHA	-16121
▁Ampl	-16122
▁Auto	-16123
▁Brit	-16124
▁CRPS	-16125
▁Cent	-16126
▁DHEA	-16127
▁Gout	-16128
▁KHVM	-16129
▁Krus	-16130
▁MODS	-16131
▁NIPS	-16132
▁SLAP	-16133
▁Spee	-16134
▁TPCN	-16135
▁Thịt	-16136
▁Work	-16137
▁amyd	-16138
▁blue	-16139
▁chui	-16140
▁cháo	-16141
▁dang	-16142
▁egfr	-16143
▁hplc	-16144
▁khốc	-16145
▁marc	-16146
▁then	-16147
▁tiển	-16148
▁trầu	-16149
▁túng	-16150
▁xiên	-16151
anthus	-16152
igenin	-16153
irudin	-16154
nghiệm	-16155
omycet	-16156
onlein	-16157
oplasm	-16158
ridine	-16159
▁(10,3	-16160
▁(100)	-16161
▁(1999	-16162
▁(90%)	-16163
▁0,006	-16164
▁16,5%	-16165
▁2,6%.	-16166
▁20,7%	-16167
▁3,7%,	-16168
▁38,5%	-16169
▁4,7%.	-16170
▁4,8%,	-16171
▁41,7%	-16172
▁5,4%.	-16173
▁53,7%	-16174
▁56,5%	-16175
▁59,1%	-16176
▁6,2%.	-16177
▁63,8%	-16178
▁65,7%	-16179
▁7,1%.	-16180
▁78,3%	-16181
▁88,5%	-16182
▁89,3%	-16183
▁93,8%	-16184
▁Atlas	-16185
▁Chiểu	-16186
▁Chrom	-16187
▁Elisa	-16188
▁HEART	-16189
▁NCBSM	-16190
▁Phiếu	-16191
▁Phóng	-16192
▁Pract	-16193
▁Ratio	-16194
▁boric	-16195
▁chuối	-16196
▁metan	-16197
▁mtDNA	-16198
▁ratio	-16199
▁tophi	-16200
eptides	-16201
oidosis	-16202
pliance	-16203
thiazol	-16204
▁1/2005	-16205
▁23,3%.	-16206
▁42,9%.	-16207
▁5/2010	-16208
▁6/2012	-16209
▁7/2020	-16210
▁93,3%,	-16211
▁BPTTHĐ	-16212
▁Celiac	-16213
▁Harris	-16214
▁Hormon	-16215
▁Schiff	-16216
▁TTHKTM	-16217
▁United	-16218
▁fallot	-16219
▁nitrit	-16220
▁phenac	-16221
▁sepsis	-16222
glutamyl	-16223
osiderin	-16224
peridone	-16225
yptophan	-16226
▁(37,5%)	-16227
▁(4,8%),	-16228
▁04/2019	-16229
▁10/2011	-16230
▁11/2018	-16231
▁Leptosp	-16232
▁chalcon	-16233
▁charant	-16234
▁nitrate	-16235
▁pyrazin	-16236
▁quinine	-16237
▁tuổitại	-16238
peptidase	-16239
reductase	-16240
▁(22,2%),	-16241
▁(71,4%),	-16242
▁Bethesda	-16243
▁Eudragit	-16244
▁Serratia	-16245
▁synthase	-16246
▁2017-2018	-16247
▁Schatzker	-16248
▁Sulbactam	-16249
▁cholecyst	-16250
▁colchicin	-16251
▁silymarin	-16252
▁trehalose	-16253
▁Infectious	-16254
▁Supplement	-16255
▁Surfactant	-16256
▁diphtheria	-16257
▁Blastomyces	-16258
▁Doxorubicin	-16259
▁Montelukast	-16260
▁Trimethopri	-16261
▁glucomannan	-16262
▁Homocysteine	-16263
▁Mifepristone	-16264
▁pantoprazole	-16265
▁pyrophosphat	-16266
eochromocytoma	-16267
▁nitroprusside	-16268
cholecalciferol	-16269
▁Bifidobacterium	-16270
▁ursodeoxycholic	-16271
Mỹ	-16272
SB	-16273
Ti	-16274
XB	-16275
cv	-16276
fe	-16277
lý	-16278
xa	-16279
ĐL	-16280
▁;	-16281
/52	-16282
/89	-16283
72.	-16284
AMA	-16285
CVA	-16286
DNM	-16287
HCG	-16288
KTT	-16289
MRA	-16290
Ngo	-16291
PHC	-16292
alf	-16293
ame	-16294
ead	-16295
ken	-16296
lee	-16297
pin	-16298
rec	-16299
the	-16300
tuỳ	-16301
yon	-16302
▁5-	-16303
▁Ai	-16304
▁Dã	-16305
▁FC	-16306
▁FE	-16307
▁Fu	-16308
▁Lơ	-16309
▁Oh	-16310
▁Vụ	-16311
▁cN	-16312
▁pa	-16313
▁po	-16314
▁rạ	-16315
▁sả	-16316
▁ớt	-16317
,07%	-16318
-146	-16319
-80%	-16320
2142	-16321
CSDK	-16322
IMRT	-16323
adal	-16324
chia	-16325
chậu	-16326
edip	-16327
etto	-16328
feri	-16329
gdor	-16330
ghes	-16331
horm	-16332
hoại	-16333
ivin	-16334
kiểu	-16335
meth	-16336
ness	-16337
oemb	-16338
omed	-16339
tral	-16340
tông	-16341
uden	-16342
▁227	-16343
▁234	-16344
▁243	-16345
▁248	-16346
▁254	-16347
▁281	-16348
▁3%;	-16349
▁312	-16350
▁37)	-16351
▁4-8	-16352
▁404	-16353
▁440	-16354
▁67.	-16355
▁77.	-16356
▁84.	-16357
▁ATS	-16358
▁AXB	-16359
▁Alt	-16360
▁Arc	-16361
▁CBC	-16362
▁CPI	-16363
▁CPM	-16364
▁Cod	-16365
▁Cốm	-16366
▁DAA	-16367
▁Dập	-16368
▁Far	-16369
▁Fer	-16370
▁Fil	-16371
▁Gra	-16372
▁Gợi	-16373
▁IDR	-16374
▁IVM	-16375
▁JIA	-16376
▁Khe	-16377
▁LMN	-16378
▁Low	-16379
▁Mim	-16380
▁Mầm	-16381
▁ODL	-16382
▁RDW	-16383
▁SLN	-16384
▁TKP	-16385
▁TVB	-16386
▁Tải	-16387
▁VAI	-16388
▁VTE	-16389
▁bần	-16390
▁cet	-16391
▁cle	-16392
▁cám	-16393
▁hòm	-16394
▁hấn	-16395
▁mep	-16396
▁mẩn	-16397
▁naf	-16398
▁ném	-16399
▁pum	-16400
▁quí	-16401
▁quỳ	-16402
▁tau	-16403
▁vis	-16404
▁vờn	-16405
▁xăm	-16406
▁Đội	-16407
▁đấy	-16408
,75%.	-16409
-2004	-16410
Brien	-16411
apone	-16412
khoff	-16413
loxan	-16414
oseph	-16415
rylic	-16416
thoái	-16417
▁(1/1	-16418
▁(3,3	-16419
▁(30,	-16420
▁(9).	-16421
▁-201	-16422
▁1,37	-16423
▁1,56	-16424
▁1,80	-16425
▁1,82	-16426
▁1,98	-16427
▁1980	-16428
▁2,0%	-16429
▁2,14	-16430
▁2,19	-16431
▁2,65	-16432
▁23%,	-16433
▁3,75	-16434
▁3.12	-16435
▁32%.	-16436
▁34,6	-16437
▁35%.	-16438
▁36,2	-16439
▁36,5	-16440
▁37%,	-16441
▁40%;	-16442
▁40,0	-16443
▁40,7	-16444
▁40,8	-16445
▁40,9	-16446
▁5,3%	-16447
▁5,5%	-16448
▁50,5	-16449
▁53,1	-16450
▁55,5	-16451
▁61,9	-16452
▁64%,	-16453
▁74%.	-16454
▁76%.	-16455
▁84,4	-16456
▁89%,	-16457
▁9,3%	-16458
▁95,2	-16459
▁BVTW	-16460
▁Chít	-16461
▁Dừng	-16462
▁Giấc	-16463
▁HSSS	-16464
▁Hart	-16465
▁Hoài	-16466
▁IABP	-16467
▁Jenn	-16468
▁KXGS	-16469
▁Lyon	-16470
▁Lành	-16471
▁Next	-16472
[...]
